{
  "version": "1.0",
  "truncation": null,
  "padding": null,
  "added_tokens": [
    {
      "id": 0,
      "content": "<|endoftext|>",
      "single_word": false,
      "lstrip": false,
      "rstrip": false,
      "normalized": false,
      "special": true
    }
  ],
  "normalizer": null,
  "pre_tokenizer": {
    "type": "ByteLevel",
    "add_prefix_space": false,
    "trim_offsets": true,
    "use_regex": true
  },
  "post_processor": null,
  "decoder": {
    "type": "ByteLevel",
    "add_prefix_space": true,
    "trim_offsets": true,
    "use_regex": true
  },
  "model": {
    "type": "BPE",
    "dropout": null,
    "unk_token": null,
    "continuing_subword_prefix": null,
    "end_of_word_suffix": null,
    "fuse_unk": false,
    "byte_fallback": false,
    "ignore_merges": false,
    "vocab": {
      "<|endoftext|>": 0,
      "!": 1,
      "\"": 2,
      "#": 3,
      "$": 4,
      "%": 5,
      "&": 6,
      "'": 7,
      "(": 8,
      ")": 9,
      "*": 10,
      "+": 11,
      ",": 12,
      "-": 13,
      ".": 14,
      "/": 15,
      "0": 16,
      "1": 17,
      "2": 18,
      "3": 19,
      "4": 20,
      "5": 21,
      "6": 22,
      "7": 23,
      "8": 24,
      "9": 25,
      ":": 26,
      ";": 27,
      "<": 28,
      "=": 29,
      ">": 30,
      "?": 31,
      "@": 32,
      "A": 33,
      "B": 34,
      "C": 35,
      "D": 36,
      "E": 37,
      "F": 38,
      "G": 39,
      "H": 40,
      "I": 41,
      "J": 42,
      "K": 43,
      "L": 44,
      "M": 45,
      "N": 46,
      "O": 47,
      "P": 48,
      "Q": 49,
      "R": 50,
      "S": 51,
      "T": 52,
      "U": 53,
      "V": 54,
      "W": 55,
      "X": 56,
      "Y": 57,
      "Z": 58,
      "[": 59,
      "\\": 60,
      "]": 61,
      "^": 62,
      "_": 63,
      "`": 64,
      "a": 65,
      "b": 66,
      "c": 67,
      "d": 68,
      "e": 69,
      "f": 70,
      "g": 71,
      "h": 72,
      "i": 73,
      "j": 74,
      "k": 75,
      "l": 76,
      "m": 77,
      "n": 78,
      "o": 79,
      "p": 80,
      "q": 81,
      "r": 82,
      "s": 83,
      "t": 84,
      "u": 85,
      "v": 86,
      "w": 87,
      "x": 88,
      "y": 89,
      "z": 90,
      "{": 91,
      "|": 92,
      "}": 93,
      "~": 94,
      "¡": 95,
      "¢": 96,
      "£": 97,
      "¤": 98,
      "¥": 99,
      "¦": 100,
      "§": 101,
      "¨": 102,
      "©": 103,
      "ª": 104,
      "«": 105,
      "¬": 106,
      "®": 107,
      "¯": 108,
      "°": 109,
      "±": 110,
      "²": 111,
      "³": 112,
      "´": 113,
      "µ": 114,
      "¶": 115,
      "·": 116,
      "¸": 117,
      "¹": 118,
      "º": 119,
      "»": 120,
      "¼": 121,
      "½": 122,
      "¾": 123,
      "¿": 124,
      "À": 125,
      "Á": 126,
      "Â": 127,
      "Ã": 128,
      "Ä": 129,
      "Å": 130,
      "Æ": 131,
      "Ç": 132,
      "È": 133,
      "É": 134,
      "Ê": 135,
      "Ë": 136,
      "Ì": 137,
      "Í": 138,
      "Î": 139,
      "Ï": 140,
      "Ð": 141,
      "Ñ": 142,
      "Ò": 143,
      "Ó": 144,
      "Ô": 145,
      "Õ": 146,
      "Ö": 147,
      "×": 148,
      "Ø": 149,
      "Ù": 150,
      "Ú": 151,
      "Û": 152,
      "Ü": 153,
      "Ý": 154,
      "Þ": 155,
      "ß": 156,
      "à": 157,
      "á": 158,
      "â": 159,
      "ã": 160,
      "ä": 161,
      "å": 162,
      "æ": 163,
      "ç": 164,
      "è": 165,
      "é": 166,
      "ê": 167,
      "ë": 168,
      "ì": 169,
      "í": 170,
      "î": 171,
      "ï": 172,
      "ð": 173,
      "ñ": 174,
      "ò": 175,
      "ó": 176,
      "ô": 177,
      "õ": 178,
      "ö": 179,
      "÷": 180,
      "ø": 181,
      "ù": 182,
      "ú": 183,
      "û": 184,
      "ü": 185,
      "ý": 186,
      "þ": 187,
      "ÿ": 188,
      "Ā": 189,
      "ā": 190,
      "Ă": 191,
      "ă": 192,
      "Ą": 193,
      "ą": 194,
      "Ć": 195,
      "ć": 196,
      "Ĉ": 197,
      "ĉ": 198,
      "Ċ": 199,
      "ċ": 200,
      "Č": 201,
      "č": 202,
      "Ď": 203,
      "ď": 204,
      "Đ": 205,
      "đ": 206,
      "Ē": 207,
      "ē": 208,
      "Ĕ": 209,
      "ĕ": 210,
      "Ė": 211,
      "ė": 212,
      "Ę": 213,
      "ę": 214,
      "Ě": 215,
      "ě": 216,
      "Ĝ": 217,
      "ĝ": 218,
      "Ğ": 219,
      "ğ": 220,
      "Ġ": 221,
      "ġ": 222,
      "Ģ": 223,
      "ģ": 224,
      "Ĥ": 225,
      "ĥ": 226,
      "Ħ": 227,
      "ħ": 228,
      "Ĩ": 229,
      "ĩ": 230,
      "Ī": 231,
      "ī": 232,
      "Ĭ": 233,
      "ĭ": 234,
      "Į": 235,
      "į": 236,
      "İ": 237,
      "ı": 238,
      "Ĳ": 239,
      "ĳ": 240,
      "Ĵ": 241,
      "ĵ": 242,
      "Ķ": 243,
      "ķ": 244,
      "ĸ": 245,
      "Ĺ": 246,
      "ĺ": 247,
      "Ļ": 248,
      "ļ": 249,
      "Ľ": 250,
      "ľ": 251,
      "Ŀ": 252,
      "ŀ": 253,
      "Ł": 254,
      "ł": 255,
      "Ń": 256,
      "in": 257,
      "Ġt": 258,
      "Ġa": 259,
      "er": 260,
      "on": 261,
      "es": 262,
      "Ġth": 263,
      "ti": 264,
      "en": 265,
      "Ġs": 266,
      "ing": 267,
      "Ġc": 268,
      "or": 269,
      "al": 270,
      "Ġthe": 271,
      "re": 272,
      "nd": 273,
      "Ġp": 274,
      "ou": 275,
      "Ġw": 276,
      "at": 277,
      "Ġf": 278,
      "ed": 279,
      "it": 280,
      "Ġo": 281,
      "an": 282,
      "is": 283,
      "Ġd": 284,
      "ar": 285,
      "tion": 286,
      "Ġin": 287,
      "Ġb": 288,
      "Ġm": 289,
      "le": 290,
      "Ġand": 291,
      "Ġto": 292,
      "Ġe": 293,
      "Ġof": 294,
      "om": 295,
      "ic": 296,
      "Ġh": 297,
      "ent": 298,
      "ly": 299,
      "ro": 300,
      "st": 301,
      "ac": 302,
      "ec": 303,
      "et": 304,
      "ation": 305,
      "Ġre": 306,
      "ve": 307,
      "--": 308,
      "Ġl": 309,
      "Ġn": 310,
      "Ġu": 311,
      "as": 312,
      "id": 313,
      "ow": 314,
      "ol": 315,
      "im": 316,
      "ig": 317,
      "ce": 318,
      "il": 319,
      "Ġg": 320,
      "Ġcon": 321,
      "res": 322,
      "ver": 323,
      "el": 324,
      "th": 325,
      "ul": 326,
      "Ġy": 327,
      "Ġwh": 328,
      "ĠT": 329,
      "ur": 330,
      "Ġst": 331,
      "Ġex": 332,
      "our": 333,
      "ers": 334,
      "Ġfor": 335,
      "qu": 336,
      "ir": 337,
      "ith": 338,
      "am": 339,
      "ts": 340,
      "Ġpro": 341,
      "em": 342,
      "Ġon": 343,
      "Ġcom": 344,
      "ess": 345,
      "Ġv": 346,
      "ay": 347,
      "os": 348,
      "uc": 349,
      "ad": 350,
      "ter": 351,
      "ate": 352,
      "ĠA": 353,
      "Ġwith": 354,
      "ab": 355,
      "if": 356,
      "ag": 357,
      "tic": 358,
      "pp": 359,
      "us": 360,
      "ity": 361,
      "Ġas": 362,
      "ĠS": 363,
      "Ġal": 364,
      "um": 365,
      "ri": 366,
      "----": 367,
      "Ġan": 368,
      "Ġthat": 369,
      "ain": 370,
      "Ġit": 371,
      "Ġor": 372,
      "ĠI": 373,
      "ĠTh": 374,
      "ut": 375,
      "Ġen": 376,
      "Ġbe": 377,
      "Ġr": 378,
      "Ġis": 379,
      "ere": 380,
      "Ġ(": 381,
      "igh": 382,
      "ot": 383,
      "out": 384,
      "Ġle": 385,
      "ion": 386,
      "pl": 387,
      "Ġwe": 388,
      "and": 389,
      "ĠC": 390,
      "'s": 391,
      "un": 392,
      "ke": 393,
      "ment": 394,
      "Ġch": 395,
      "rou": 396,
      "oc": 397,
      "Ġyou": 398,
      "od": 399,
      "ations": 400,
      "ch": 401,
      "tive": 402,
      "Ġint": 403,
      "for": 404,
      "Ġsh": 405,
      "Ġres": 406,
      "ap": 407,
      "tions": 408,
      "ure": 409,
      "ĠB": 410,
      "ist": 411,
      "ies": 412,
      "Ġac": 413,
      "Ġde": 414,
      "Ġtr": 415,
      "all": 416,
      "iz": 417,
      "Ġ$": 418,
      "iv": 419,
      "rom": 420,
      "Ġus": 421,
      "Ġcomp": 422,
      "ine": 423,
      "gh": 424,
      "ting": 425,
      "ese": 426,
      "Ġthis": 427,
      "ĠM": 428,
      "ally": 429,
      "Ġim": 430,
      "per": 431,
      "ld": 432,
      "Ġby": 433,
      "ous": 434,
      "ĠW": 435,
      "op": 436,
      "ust": 437,
      "Ġsp": 438,
      "Ġcan": 439,
      "Ġtheir": 440,
      "Ġne": 441,
      "ant": 442,
      "Ġse": 443,
      "Ġad": 444,
      "ding": 445,
      "ĠH": 446,
      "ĠP": 447,
      "ill": 448,
      "ore": 449,
      "Ġyour": 450,
      "âĢ": 451,
      "Ġab": 452,
      "ance": 453,
      "ds": 454,
      "ach": 455,
      "og": 456,
      "ial": 457,
      "ence": 458,
      "rac": 459,
      "ight": 460,
      "ect": 461,
      "iti": 462,
      "Ġapp": 463,
      "Ġcont": 464,
      "ĠF": 465,
      "ther": 466,
      "king": 467,
      "ome": 468,
      "ang": 469,
      "Ġun": 470,
      "enti": 471,
      "ĠE": 472,
      "ath": 473,
      "able": 474,
      "ide": 475,
      "ep": 476,
      "Ġat": 477,
      "Ġfrom": 478,
      "est": 479,
      "ating": 480,
      "are": 481,
      "Ġ1": 482,
      "Ġwor": 483,
      "eth": 484,
      "--------": 485,
      "fer": 486,
      "Ġare": 487,
      "ud": 488,
      "Ġdis": 489,
      "ue": 490,
      "ip": 491,
      "Ġ=": 492,
      "ans": 493,
      "ign": 494,
      "Ġsu": 495,
      "Ġpl": 496,
      "ents": 497,
      "ĠD": 498,
      "Ġour": 499,
      "nder": 500,
      "ĠR": 501,
      "Ġthese": 502,
      "ong": 503,
      "Ġme": 504,
      "Ġall": 505,
      "se": 506,
      "ces": 507,
      "Ġ\\": 508,
      "ĠL": 509,
      "ated": 510,
      "Ġinc": 511,
      "ves": 512,
      "Ġpar": 513,
      "Ġha": 514,
      "ort": 515,
      "Ġthey": 516,
      "Ġinto": 517,
      "Ġimp": 518,
      "Ġhe": 519,
      "Ġstr": 520,
      "ĠĠ": 521,
      "ress": 522,
      "Ġk": 523,
      "ould": 524,
      "Ġli": 525,
      "rough": 526,
      "Ġj": 527,
      "ical": 528,
      "ari": 529,
      "form": 530,
      "ving": 531,
      "Ġunder": 532,
      "ff": 533,
      "ile": 534,
      "age": 535,
      "ast": 536,
      "Ġcons": 537,
      "ib": 538,
      "Ġ\"": 539,
      "Ġev": 540,
      "Ġabout": 541,
      "ks": 542,
      "end": 543,
      "Ġinter": 544,
      "ors": 545,
      "**": 546,
      "Ġem": 547,
      "Ġar": 548,
      "ose": 549,
      "Ġ-": 550,
      "Ġits": 551,
      "Ġ2": 552,
      "ell": 553,
      "ĠO": 554,
      "Ġcl": 555,
      "ition": 556,
      "Ġnum": 557,
      "act": 558,
      "Ġhow": 559,
      "Ġbet": 560,
      "ra": 561,
      "cess": 562,
      "ĠN": 563,
      "ary": 564,
      "Ġsuc": 565,
      "ge": 566,
      "ich": 567,
      "ual": 568,
      "Ġbo": 569,
      "vel": 570,
      "Ġup": 571,
      "Ġqu": 572,
      "ities": 573,
      "ost": 574,
      "ct": 575,
      "ens": 576,
      "ber": 577,
      "Ġind": 578,
      "ful": 579,
      "ire": 580,
      "Ġwhen": 581,
      "ĠThe": 582,
      "ĠG": 583,
      "Ġfin": 584,
      "duc": 585,
      "Ġlike": 586,
      "Ġma": 587,
      "ear": 588,
      "Ġval": 589,
      "Ġro": 590,
      "Ġcomm": 591,
      "Ġthem": 592,
      "oun": 593,
      "ple": 594,
      "les": 595,
      "Ġequ": 596,
      "over": 597,
      "uring": 598,
      "Ġout": 599,
      "ie": 600,
      "Ġman": 601,
      "we": 602,
      "Ġper": 603,
      "Ġtim": 604,
      "ack": 605,
      "ific": 606,
      "Ġthrough": 607,
      "tim": 608,
      "Ġpre": 609,
      "ility": 610,
      "ex": 611,
      "Ġexp": 612,
      "now": 613,
      "ĠIn": 614,
      "Ġsome": 615,
      "ati": 616,
      "stand": 617,
      "ative": 618,
      "ive": 619,
      "ard": 620,
      "oin": 621,
      "Ġrel": 622,
      "Ġdif": 623,
      "Ġdisc": 624,
      "ass": 625,
      "Ġover": 626,
      "tain": 627,
      "ments": 628,
      "Ġcre": 629,
      "Ġexpl": 630,
      "Ġfun": 631,
      "ĠThis": 632,
      "Ġsc": 633,
      "ech": 634,
      "\\_": 635,
      "ult": 636,
      "ound": 637,
      "Ġhave": 638,
      ").": 639,
      "ric": 640,
      "ween": 641,
      "Ġrep": 642,
      "arn": 643,
      "eg": 644,
      "Ġpos": 645,
      "ction": 646,
      "Ġdes": 647,
      "ace": 648,
      "ential": 649,
      "oll": 650,
      "ates": 651,
      "Ġever": 652,
      "Ġbetween": 653,
      "ite": 654,
      "Ġinv": 655,
      "Ġwill": 656,
      "ms": 657,
      "Ġ+": 658,
      "Ġrem": 659,
      "Ġvari": 660,
      "Ġone": 661,
      "Ġmore": 662,
      "ne": 663,
      "ures": 664,
      "Ġthere": 665,
      "Ġtw": 666,
      "Ġdiffer": 667,
      "ues": 668,
      "ever": 669,
      "ame": 670,
      "ĠâĢ": 671,
      "round": 672,
      "Ġdo": 673,
      "'t": 674,
      "Ġprov": 675,
      "Ġwhere": 676,
      "Ġwhich": 677,
      "Ġsuch": 678,
      "tical": 679,
      "Ġso": 680,
      "Ġbec": 681,
      "ĠU": 682,
      "one": 683,
      "ough": 684,
      "Ġins": 685,
      "Ġam": 686,
      "ays": 687,
      "av": 688,
      "ular": 689,
      "Ġsy": 690,
      "),": 691,
      "Ġknow": 692,
      "rib": 693,
      "Ġnot": 694,
      "ll": 695,
      "ions": 696,
      "ons": 697,
      "als": 698,
      "oo": 699,
      "Ġta": 700,
      "ys": 701,
      "Ġtime": 702,
      "ider": 703,
      "Ġlet": 704,
      "Th": 705,
      "eng": 706,
      "Ġrec": 707,
      "Ġunderstand": 708,
      "olog": 709,
      "Ġreg": 710,
      "Ġfe": 711,
      "Ġsim": 712,
      "ry": 713,
      "ater": 714,
      "ether": 715,
      "ish": 716,
      "pec": 717,
      "Ġexam": 718,
      "Ġlearn": 719,
      "ten": 720,
      "Ġhel": 721,
      "Ġwithin": 722,
      "ond": 723,
      "ĠWh": 724,
      "Ġother": 725,
      "ty": 726,
      "ings": 727,
      "Ġevery": 728,
      "Ġexper": 729,
      "Ġboth": 730,
      "Ġtwo": 731,
      "Ġset": 732,
      "Ġob": 733,
      "Ġwhile": 734,
      "Ġbut": 735,
      "iqu": 736,
      "Ġwas": 737,
      "ory": 738,
      "Ġass": 739,
      "Ġop": 740,
      "Ġsol": 741,
      "Ġdec": 742,
      "Ġany": 743,
      "In": 744,
      "resent": 745,
      "ind": 746,
      "Ġtrans": 747,
      "echn": 748,
      "Ġmo": 749,
      "irst": 750,
      "Ġhelp": 751,
      "enc": 752,
      "ase": 753,
      "Ġeach": 754,
      "row": 755,
      "lic": 756,
      "Ġcomple": 757,
      "Ġform": 758,
      "Ġno": 759,
      "Ġinst": 760,
      "ower": 761,
      "Ġacc": 762,
      "Ġspec": 763,
      "ble": 764,
      "art": 765,
      "Ġincl": 766,
      "Ġsign": 767,
      "ruc": 768,
      "Ġhas": 769,
      "hip": 770,
      "Ġgo": 771,
      "ĠJ": 772,
      "Ġthan": 773,
      "ĠâĢĵ": 774,
      "Ġsub": 775,
      "cep": 776,
      "vers": 777,
      "Ġser": 778,
      "Ġcol": 779,
      "ulti": 780,
      "Ġher": 781,
      "Ġx": 782,
      "ivid": 783,
      "ences": 784,
      "anc": 785,
      "ĠBy": 786,
      "Ġif": 787,
      "ia": 788,
      "Ġappro": 789,
      "elf": 790,
      "Ġwhat": 791,
      "Ġdist": 792,
      "Ġtechn": 793,
      "so": 794,
      "erm": 795,
      "Ġsec": 796,
      "fore": 797,
      "Ġadd": 798,
      "bers": 799,
      "Ġag": 800,
      "Ġusing": 801,
      "its": 802,
      "ail": 803,
      "ise": 804,
      "Ġconc": 805,
      "ased": 806,
      "----------------": 807,
      "Ġwho": 808,
      "ize": 809,
      "Ġcommun": 810,
      "Ġstud": 811,
      "Ġconsider": 812,
      "ub": 813,
      "ss": 814,
      "Ġinvol": 815,
      "Ġneed": 816,
      "}{": 817,
      "Ġreal": 818,
      "Ġcould": 819,
      "Ġ3": 820,
      "ved": 821,
      "ution": 822,
      "tern": 823,
      "Ġele": 824,
      "stem": 825,
      "aus": 826,
      "Ġalso": 827,
      "Ġeff": 828,
      "ĠY": 829,
      "Ġpoin": 830,
      "ci": 831,
      "ext": 832,
      "ark": 833,
      "Ġeven": 834,
      "Ġph": 835,
      "Ġsm": 836,
      "ree": 837,
      "Ġpr": 838,
      "Ġnew": 839,
      "Ġmod": 840,
      "Ġgr": 841,
      "yp": 842,
      "ft": 843,
      "Ġdet": 844,
      "Ġpers": 845,
      "Ġhigh": 846,
      "ible": 847,
      "fin": 848,
      "ability": 849,
      "Ġlead": 850,
      "Ġgen": 851,
      "Ġmay": 852,
      "Ġnumber": 853,
      "velop": 854,
      "ph": 855,
      "frac": 856,
      "Ġhis": 857,
      "ards": 858,
      "Ġchang": 859,
      "##": 860,
      "ĠIt": 861,
      "ĠHow": 862,
      "Ġthose": 863,
      "Ġrequ": 864,
      "Ġfunction": 865,
      "own": 866,
      "Ġens": 867,
      "ently": 868,
      "other": 869,
      "Ġadv": 870,
      "ount": 871,
      "led": 872,
      "$$": 873,
      "Ġmy": 874,
      "ead": 875,
      "Ġsoc": 876,
      "Ġ0": 877,
      "Ġco": 878,
      "ning": 879,
      "Ġchall": 880,
      "Ġduring": 881,
      "Ġmulti": 882,
      "ement": 883,
      "ying": 884,
      "ience": 885,
      "ollow": 886,
      "ak": 887,
      "ĠSt": 888,
      "Ġmat": 889,
      "Ġcall": 890,
      "Ġvarious": 891,
      "ational": 892,
      "pport": 893,
      "tiv": 894,
      "Ġtow": 895,
      "Ġresp": 896,
      "Ġsystem": 897,
      "ici": 898,
      "Ġdi": 899,
      "fter": 900,
      "Ġprovid": 901,
      "ines": 902,
      "Ġmath": 903,
      "Ġprocess": 904,
      "Ġprac": 905,
      "ized": 906,
      "gan": 907,
      "Ġindivid": 908,
      "ering": 909,
      "Ġpartic": 910,
      "Ġsur": 911,
      "Ġdifferent": 912,
      "Ġallow": 913,
      "Ġdat": 914,
      "roup": 915,
      "00": 916,
      "Ġcur": 917,
      "ural": 918,
      "wor": 919,
      "ince": 920,
      "ĠCh": 921,
      "ross": 922,
      "Ġbl": 923,
      "Ġcomplex": 924,
      "ights": 925,
      "Ġdevelop": 926,
      "ateg": 927,
      "iel": 928,
      "Ġfl": 929,
      "ice": 930,
      "Ġindividual": 931,
      "Ġwork": 932,
      "Ġpot": 933,
      "Ġeng": 934,
      "Ġfollow": 935,
      "Ġbu": 936,
      "Ġinteg": 937,
      "Ġanal": 938,
      "ema": 939,
      "ics": 940,
      "Ġplay": 941,
      "ends": 942,
      "Ġproduc": 943,
      "ality": 944,
      "ĠK": 945,
      "par": 946,
      "tics": 947,
      "ĠĠĠĠ": 948,
      "âĪ": 949,
      "Ġproble": 950,
      "Ġfirst": 951,
      "Ġpe": 952,
      "Ġjust": 953,
      "ene": 954,
      "Ġcor": 955,
      "Ġmight": 956,
      "Ġwould": 957,
      "Ġunderstanding": 958,
      "ĠWe": 959,
      "Ġid": 960,
      "Ġsa": 961,
      "Ġgiv": 962,
      "izing": 963,
      "ven": 964,
      "Ġinform": 965,
      "ness": 966,
      "ood": 967,
      "Ġfact": 968,
      "ties": 969,
      "Ġimport": 970,
      "Ġpol": 971,
      "erg": 972,
      "Ġback": 973,
      "Ġnumbers": 974,
      "Ġbr": 975,
      "Ġpower": 976,
      "Ġke": 977,
      "itions": 978,
      "Ġaround": 979,
      "^{": 980,
      "Ġcontin": 981,
      "Ġconn": 982,
      "oy": 983,
      ".\"": 984,
      "alth": 985,
      "Ġthen": 986,
      "ately": 987,
      "ĠThese": 988,
      "Ġsignific": 989,
      "Ġincre": 990,
      "Ġdel": 991,
      "uss": 992,
      "Ġfri": 993,
      "urther": 994,
      "lying": 995,
      "tit": 996,
      "Ġ$\\": 997,
      "âĢĻ": 998,
      "Ġgu": 999,
      "Ġsee": 1000,
      "Ġworld": 1001,
      "ily": 1002,
      "Ġprom": 1003,
      "Ġexpress": 1004,
      "Ġdem": 1005,
      "Ġsom": 1006,
      "jec": 1007,
      "Ġ|": 1008,
      "ern": 1009,
      "Ġmany": 1010,
      "ĠTo": 1011,
      "$,": 1012,
      "ade": 1013,
      "ared": 1014,
      "cul": 1015,
      "ique": 1016,
      "Ġoff": 1017,
      "por": 1018,
      "ious": 1019,
      "iting": 1020,
      "itive": 1021,
      "lus": 1022,
      "Ġsk": 1023,
      "Ġmain": 1024,
      "ted": 1025,
      "Ġgroup": 1026,
      "Ġremain": 1027,
      "Ġdata": 1028,
      "ĠHowever": 1029,
      "ature": 1030,
      "ets": 1031,
      "Ġconst": 1032,
      "Ġconcep": 1033,
      "Ġte": 1034,
      "arg": 1035,
      "ob": 1036,
      "Ġ&": 1037,
      "ute": 1038,
      "earch": 1039,
      "ething": 1040,
      "Ġ4": 1041,
      "urn": 1042,
      "ĠV": 1043,
      "Ġdown": 1044,
      "Ġshe": 1045,
      "ied": 1046,
      "Ġrepresent": 1047,
      "ocus": 1048,
      "Ġsomething": 1049,
      "ages": 1050,
      "ples": 1051,
      "Ġloc": 1052,
      "Ġdue": 1053,
      "Ġposs": 1054,
      "ember": 1055,
      "$.": 1056,
      "ances": 1057,
      "omes": 1058,
      "St": 1059,
      "Ġchalleng": 1060,
      "Ġresearch": 1061,
      "ands": 1062,
      "Ġtyp": 1063,
      "aph": 1064,
      "Ġenc": 1065,
      "agine": 1066,
      "Ġonly": 1067,
      "oring": 1068,
      "ling": 1069,
      "Ġdesign": 1070,
      "Ġess": 1071,
      "Ġmin": 1072,
      "Ġapproach": 1073,
      "tice": 1074,
      "..": 1075,
      "Ġmake": 1076,
      "ĠAs": 1077,
      "Now": 1078,
      "Ġconf": 1079,
      "Ġgener": 1080,
      "ertain": 1081,
      "Ġgrow": 1082,
      "Ġcare": 1083,
      "Ġide": 1084,
      "Ġidenti": 1085,
      "Ġvalue": 1086,
      "Ġbefore": 1087,
      "lec": 1088,
      "ĠCon": 1089,
      "Ġproper": 1090,
      "Ġcap": 1091,
      "ĠFor": 1092,
      "Ġpotential": 1093,
      "Ġfac": 1094,
      "ology": 1095,
      "Ġmathema": 1096,
      "Ġanother": 1097,
      "Ġcal": 1098,
      "wn": 1099,
      "ency": 1100,
      "ethod": 1101,
      "Ġref": 1102,
      "Ġfind": 1103,
      "Ġtog": 1104,
      "Ġalong": 1105,
      "ook": 1106,
      "Ġtogether": 1107,
      "Ġques": 1108,
      "ier": 1109,
      "Ġexample": 1110,
      "Ġfocus": 1111,
      "ause": 1112,
      "ication": 1113,
      "âĢĶ": 1114,
      "Ġbuil": 1115,
      "Ġrelations": 1116,
      "Ġway": 1117,
      "Ġsmall": 1118,
      "ism": 1119,
      "Ġbeh": 1120,
      "Ġamong": 1121,
      "til": 1122,
      "ization": 1123,
      "ick": 1124,
      "ilar": 1125,
      "Ġinf": 1126,
      "ected": 1127,
      "Ġhad": 1128,
      "Ġext": 1129,
      "Ġgre": 1130,
      "Ġline": 1131,
      "Ġdiscuss": 1132,
      "Ġcalled": 1133,
      "te": 1134,
      "Ġwere": 1135,
      "ife": 1136,
      "Ġmean": 1137,
      "utions": 1138,
      "up": 1139,
      "inal": 1140,
      "arm": 1141,
      "Ġ**": 1142,
      "Ġz": 1143,
      "Ġbased": 1144,
      "{\\": 1145,
      "Ġprof": 1146,
      "ather": 1147,
      "Ġlo": 1148,
      "Ġeffec": 1149,
      "Ġdire": 1150,
      "Ġhealth": 1151,
      "Ġacross": 1152,
      "iew": 1153,
      ".,": 1154,
      "Ġsignificant": 1155,
      "Ġvalues": 1156,
      "Ġvis": 1157,
      "Ġ5": 1158,
      "ices": 1159,
      "Ġed": 1160,
      "ram": 1161,
      "ases": 1162,
      "Ġbel": 1163,
      "Ġiniti": 1164,
      "Ġstep": 1165,
      "ord": 1166,
      "Ġthough": 1167,
      "ink": 1168,
      "old": 1169,
      "Ġstrateg": 1170,
      "Ġunique": 1171,
      "Ġoften": 1172,
      "uding": 1173,
      "aw": 1174,
      "Ġcult": 1175,
      "Ġshap": 1176,
      "Ġorgan": 1177,
      "Ġmed": 1178,
      "ĠAd": 1179,
      "air": 1180,
      "ture": 1181,
      "Ġmethod": 1182,
      "Ġprog": 1183,
      "Ġent": 1184,
      "The": 1185,
      "lish": 1186,
      "ength": 1187,
      "Ġintegr": 1188,
      "verse": 1189,
      "gg": 1190,
      "ma": 1191,
      "Ġsch": 1192,
      "ired": 1193,
      "ists": 1194,
      "less": 1195,
      "ng": 1196,
      "ually": 1197,
      "con": 1198,
      "Ġrelationship": 1199,
      "Ġessential": 1200,
      "Ġcalcul": 1201,
      "Ġresul": 1202,
      "ople": 1203,
      "Ġtowards": 1204,
      "Ġimpro": 1205,
      "Ġlearning": 1206,
      "ctions": 1207,
      "Step": 1208,
      "Ġcomb": 1209,
      "Ġmust": 1210,
      "wh": 1211,
      "ories": 1212,
      "Ġwithout": 1213,
      "Ġ*": 1214,
      "Ġpart": 1215,
      "Ġdep": 1216,
      "math": 1217,
      "ude": 1218,
      "ov": 1219,
      "Ġsuccess": 1220,
      "Ġcontrib": 1221,
      "Ġfound": 1222,
      "ols": 1223,
      "cc": 1224,
      "Ġown": 1225,
      "itional": 1226,
      "aging": 1227,
      "Ġdoes": 1228,
      "uch": 1229,
      "Ġafter": 1230,
      "Ġget": 1231,
      "ources": 1232,
      "Ġ'": 1233,
      "Ġconnec": 1234,
      "iss": 1235,
      "Ġincluding": 1236,
      "}\\": 1237,
      "As": 1238,
      "Ġtoo": 1239,
      "to": 1240,
      "ital": 1241,
      "Ġstruc": 1242,
      "Ġexplore": 1243,
      "Ġcond": 1244,
      "ental": 1245,
      "Ġpoint": 1246,
      "Ġperform": 1247,
      "Ġhist": 1248,
      "Ġhum": 1249,
      "ĠThey": 1250,
      "ining": 1251,
      "Ġsever": 1252,
      "Ġgl": 1253,
      "Ġmeas": 1254,
      "Ġdeterm": 1255,
      "Ġperson": 1256,
      "Ġplan": 1257,
      "lect": 1258,
      "Ġlim": 1259,
      "Ġspecific": 1260,
      "ĠEx": 1261,
      "Ġupon": 1262,
      "ways": 1263,
      "ian": 1264,
      "lusion": 1265,
      "Ġexc": 1266,
      "iron": 1267,
      "Ġcruc": 1268,
      "Ġsum": 1269,
      "Ġagain": 1270,
      "Ġinformation": 1271,
      "Ġdefin": 1272,
      "und": 1273,
      "Ġoffer": 1274,
      "Ġoper": 1275,
      "irc": 1276,
      "Ġear": 1277,
      "Ġorig": 1278,
      "abor": 1279,
      "Ġsince": 1280,
      "Ġgiven": 1281,
      "Ġcrucial": 1282,
      "Ġfam": 1283,
      "To": 1284,
      "Ġchallenges": 1285,
      "Ġiss": 1286,
      "thers": 1287,
      "Ġchar": 1288,
      "pportun": 1289,
      "Ġbre": 1290,
      "els": 1291,
      "Ġpeople": 1292,
      "iness": 1293,
      "ilities": 1294,
      "line": 1295,
      "Ġpat": 1296,
      "Ġatt": 1297,
      "ser": 1298,
      "Ġmaking": 1299,
      "Ġwell": 1300,
      "Ġskill": 1301,
      "Ġcle": 1302,
      "Ġseem": 1303,
      "Ġcho": 1304,
      "Ġend": 1305,
      "times": 1306,
      "Ġtri": 1307,
      "Ġwant": 1308,
      "Ġmaintain": 1309,
      "viron": 1310,
      "ix": 1311,
      "Ġexperi": 1312,
      "Ġtake": 1313,
      "atis": 1314,
      "ety": 1315,
      "omp": 1316,
      "ables": 1317,
      "Ġcertain": 1318,
      "Ġbecause": 1319,
      "ination": 1320,
      "ĠWhen": 1321,
      "Ġpo": 1322,
      "Ġopportun": 1323,
      "Ġproblem": 1324,
      "Ġbeing": 1325,
      "ĠLet": 1326,
      "Ġparticular": 1327,
      "ecess": 1328,
      "ision": 1329,
      "Ġshow": 1330,
      "ĠAn": 1331,
      "ĠPro": 1332,
      "Ġfurther": 1333,
      "Ġwr": 1334,
      "Ġshould": 1335,
      "Ġmark": 1336,
      "ĠBut": 1337,
      "Ġmost": 1338,
      "xim": 1339,
      "Ġtop": 1340,
      "ey": 1341,
      "Ġdiscover": 1342,
      "eed": 1343,
      "ject": 1344,
      "Ġcent": 1345,
      "ave": 1346,
      "Ġapplic": 1347,
      "Ġlong": 1348,
      "ĠSo": 1349,
      "Ġfost": 1350,
      "Ġbeen": 1351,
      "Ġbetter": 1352,
      "Ġday": 1353,
      "Ġden": 1354,
      "ĠWith": 1355,
      "iques": 1356,
      "kes": 1357,
      "Ġinn": 1358,
      "Ġhand": 1359,
      "Ġsame": 1360,
      "==": 1361,
      "Ġsl": 1362,
      "Ġchange": 1363,
      "Ġthings": 1364,
      "Ġseveral": 1365,
      "Ġ20": 1366,
      "Ġprev": 1367,
      "ĠSh": 1368,
      "ars": 1369,
      "Ġimportant": 1370,
      "_{": 1371,
      "Ġothers": 1372,
      "Ġmem": 1373,
      "tively": 1374,
      "ange": 1375,
      "str": 1376,
      "sequ": 1377,
      "Ġspecial": 1378,
      "aring": 1379,
      "Ġ`": 1380,
      "Ġenviron": 1381,
      "Ġthree": 1382,
      "Ġpass": 1383,
      "Ġread": 1384,
      "Ġtrad": 1385,
      "Ġlife": 1386,
      "Ġav": 1387,
      "plic": 1388,
      "agement": 1389,
      "Ġver": 1390,
      "ited": 1391,
      "ĠYou": 1392,
      "Ġemb": 1393,
      "Ġrole": 1394,
      "Ġpractic": 1395,
      "Ġwhether": 1396,
      "ogn": 1397,
      "Ġcontinu": 1398,
      "ield": 1399,
      "Ġfriends": 1400,
      "Ġanaly": 1401,
      "Ġfr": 1402,
      "}}": 1403,
      "Ġhere": 1404,
      "Ġliv": 1405,
      "au": 1406,
      "arding": 1407,
      "Ġvalu": 1408,
      "Ġthroughout": 1409,
      "Ġpresent": 1410,
      "Ġopen": 1411,
      "Ġcri": 1412,
      "Ġless": 1413,
      "ffor": 1414,
      "orm": 1415,
      "Ġter": 1416,
      "ero": 1417,
      "fic": 1418,
      "reat": 1419,
      "Ġstart": 1420,
      "oci": 1421,
      "Ġclass": 1422,
      "Ġequation": 1423,
      "Ġprovide": 1424,
      "Ġnon": 1425,
      "asing": 1426,
      "ablish": 1427,
      "Ġsocial": 1428,
      "Ġtechniques": 1429,
      "omm": 1430,
      "Ġstand": 1431,
      "Ġalways": 1432,
      "Ġpres": 1433,
      "Ġsqu": 1434,
      "Ġes": 1435,
      "ants": 1436,
      "Ġlit": 1437,
      "Ġpositive": 1438,
      "Ġest": 1439,
      "Ġinstead": 1440,
      "Ġsti": 1441,
      "ake": 1442,
      "der": 1443,
      "Ġright": 1444,
      "Ġbene": 1445,
      "Ġfinding": 1446,
      "Ġpoints": 1447,
      "Ġaw": 1448,
      "ĠAnd": 1449,
      "Ġaddress": 1450,
      "Ġcirc": 1451,
      "Ġnecess": 1452,
      "Ġpattern": 1453,
      "Ġsimilar": 1454,
      "Ġprim": 1455,
      "Ġmeans": 1456,
      "tle": 1457,
      "ically": 1458,
      "ior": 1459,
      "angu": 1460,
      "Ġcoll": 1461,
      "ĠAm": 1462,
      "fully": 1463,
      "Ġtal": 1464,
      "Ġturn": 1465,
      "Ġcreate": 1466,
      "ledge": 1467,
      "ording": 1468,
      "Ġpop": 1469,
      "Ġprin": 1470,
      "val": 1471,
      "tives": 1472,
      "(\\": 1473,
      "Ġexist": 1474,
      "lu": 1475,
      "Ġfactors": 1476,
      "Ġdirect": 1477,
      "tional": 1478,
      "Ġbus": 1479,
      "thing": 1480,
      "ears": 1481,
      "Ġtransform": 1482,
      "Ġsystems": 1483,
      "Ġfunctions": 1484,
      "Ġnow": 1485,
      "Ġenh": 1486,
      "Ġhapp": 1487,
      "Wh": 1488,
      "ĠIm": 1489,
      "Ġmus": 1490,
      "Ġinsights": 1491,
      "Ġlevel": 1492,
      "Ġjour": 1493,
      "roduc": 1494,
      "the": 1495,
      "uth": 1496,
      "Ġprot": 1497,
      ":**": 1498,
      "Ġmag": 1499,
      "ibility": 1500,
      "aining": 1501,
      "Ġvaluable": 1502,
      "Ġ6": 1503,
      "Ġpur": 1504,
      "app": 1505,
      "Ġaccess": 1506,
      "Ġsupp": 1507,
      "Ġspace": 1508,
      "anced": 1509,
      "ĠWhile": 1510,
      "red": 1511,
      "rix": 1512,
      "day": 1513,
      "ĠAl": 1514,
      "Ġexperience": 1515,
      "ession": 1516,
      "Ġkeep": 1517,
      ",\"": 1518,
      "ergy": 1519,
      "Ġdiv": 1520,
      "Ġwhy": 1521,
      "pite": 1522,
      "acy": 1523,
      "``": 1524,
      "uture": 1525,
      "Ġact": 1526,
      "Ġpri": 1527,
      "Ġmove": 1528,
      "ock": 1529,
      "pt": 1530,
      "ials": 1531,
      "Ġused": 1532,
      "ots": 1533,
      "Ġelements": 1534,
      "Ġcount": 1535,
      "Ġeas": 1536,
      "Ġensure": 1537,
      "Ġeduc": 1538,
      "right": 1539,
      "Ġuse": 1540,
      "arch": 1541,
      "Ġactiv": 1542,
      "'re": 1543,
      "Ġgrowth": 1544,
      "Ġempl": 1545,
      "ote": 1546,
      "Ġrespons": 1547,
      "ustom": 1548,
      "Ġskills": 1549,
      "Ġemp": 1550,
      "Ġsoci": 1551,
      "ike": 1552,
      "Ġmade": 1553,
      "ĠOne": 1554,
      "Ġobser": 1555,
      "onstr": 1556,
      "Ġoriginal": 1557,
      "Ġbecome": 1558,
      "Ġlangu": 1559,
      "Ġindividuals": 1560,
      "Ġcar": 1561,
      "Ġidentif": 1562,
      "ires": 1563,
      "Â²": 1564,
      "Ġdistrib": 1565,
      "aking": 1566,
      "Ġestablish": 1567,
      "aling": 1568,
      "Ġpossible": 1569,
      "âĤ": 1570,
      "sel": 1571,
      "Ġsit": 1572,
      "Ġmultiple": 1573,
      "Ġoverall": 1574,
      "ored": 1575,
      "read": 1576,
      "ending": 1577,
      "Ġhuman": 1578,
      "}$": 1579,
      "iec": 1580,
      "aces": 1581,
      "Ġconcept": 1582,
      "ests": 1583,
      "Ġsym": 1584,
      "ward": 1585,
      "yn": 1586,
      "Ġregarding": 1587,
      "Ġknowledge": 1588,
      "Ġassoci": 1589,
      "ris": 1590,
      "Ġful": 1591,
      "Ġmet": 1592,
      "Ġtra": 1593,
      "Ġfeel": 1594,
      "ĠThat": 1595,
      "tal": 1596,
      "Ġcommon": 1597,
      "ides": 1598,
      "Ġstill": 1599,
      "Ġaff": 1600,
      "Ġcontro": 1601,
      "ney": 1602,
      "ĠAdd": 1603,
      "Ġdemonstr": 1604,
      "Ġbusiness": 1605,
      "ove": 1606,
      "Ġphys": 1607,
      "raph": 1608,
      "Ġmeaning": 1609,
      "Ġresults": 1610,
      "tically": 1611,
      "acter": 1612,
      "mathb": 1613,
      "view": 1614,
      "Ġremember": 1615,
      "ological": 1616,
      "Ġcomes": 1617,
      "Ġder": 1618,
      "Ġissues": 1619,
      "ense": 1620,
      "Ġcompon": 1621,
      "ump": 1622,
      "Ġvect": 1623,
      "oreover": 1624,
      "Ġdra": 1625,
      "Ġdeep": 1626,
      "resents": 1627,
      "Ġresult": 1628,
      "Ġpolic": 1629,
      "Ġ/": 1630,
      "self": 1631,
      "Ġcase": 1632,
      "Ġneg": 1633,
      "Ġinnov": 1634,
      "Ġagainst": 1635,
      "Ġeffor": 1636,
      "Ġdon": 1637,
      "yond": 1638,
      "Ġbeyond": 1639,
      "Ġconsist": 1640,
      "Ġrepresents": 1641,
      "ule": 1642,
      "Ġinvolves": 1643,
      "Ġenvironment": 1644,
      "rt": 1645,
      "Ġknown": 1646,
      "equ": 1647,
      "Ġleg": 1648,
      "ection": 1649,
      "ret": 1650,
      "Ġequal": 1651,
      "ysis": 1652,
      "gin": 1653,
      "Ġfuture": 1654,
      "rop": 1655,
      "Ġexploring": 1656,
      "Ġcommunity": 1657,
      "Ġdid": 1658,
      "))": 1659,
      "Ġsequ": 1660,
      "Ġrele": 1661,
      "Ġdevelopment": 1662,
      "###": 1663,
      "uce": 1664,
      "Ġcreating": 1665,
      "Ġlocal": 1666,
      "Ġmon": 1667,
      "Ġimm": 1668,
      "Ġfund": 1669,
      "Ġopportunities": 1670,
      "lex": 1671,
      "Ġconditions": 1672,
      "be": 1673,
      "ined": 1674,
      "Ġenergy": 1675,
      "Ġmuch": 1676,
      "Ġformul": 1677,
      "Ġreduc": 1678,
      "ild": 1679,
      "Ġstrategies": 1680,
      "ublic": 1681,
      "Ġmethods": 1682,
      "ator": 1683,
      "ze": 1684,
      "Ġel": 1685,
      "Ġallows": 1686,
      "jects": 1687,
      "One": 1688,
      "Ġcustom": 1689,
      "Ġcour": 1690,
      "Ġinflu": 1691,
      "Ġris": 1692,
      "ounter": 1693,
      "ict": 1694,
      "ew": 1695,
      "ension": 1696,
      "Ġteam": 1697,
      "ĠThere": 1698,
      "Ġresources": 1699,
      "ron": 1700,
      "ĠUn": 1701,
      "istic": 1702,
      "Ġlook": 1703,
      "ax": 1704,
      "Ġmater": 1705,
      "Ġquestions": 1706,
      "Ġways": 1707,
      "Ġ{": 1708,
      "Ġstudents": 1709,
      "eting": 1710,
      "selves": 1711,
      "ĠOn": 1712,
      "Ġbas": 1713,
      "Ġcollabor": 1714,
      "ĠNow": 1715,
      "Ġbi": 1716,
      "Ġnumer": 1717,
      "Ġbecomes": 1718,
      "pon": 1719,
      "Ġexperiences": 1720,
      "ĠHe": 1721,
      "Ġsupport": 1722,
      "Ġconcepts": 1723,
      "ool": 1724,
      "Ġensuring": 1725,
      "Ġterms": 1726,
      "atures": 1727,
      "Ġimpact": 1728,
      "inary": 1729,
      "esting": 1730,
      "her": 1731,
      "Ġyoung": 1732,
      "Ġoutc": 1733,
      "Ġbehav": 1734,
      "itionally": 1735,
      "Ġdesc": 1736,
      "Ġtools": 1737,
      "This": 1738,
      "Ġang": 1739,
      "Ġenti": 1740,
      "Ġhim": 1741,
      "Ġred": 1742,
      "Ġocc": 1743,
      "vity": 1744,
      "vices": 1745,
      "Ġbenef": 1746,
      "Ġreach": 1747,
      "Ġworking": 1748,
      "Ġhelps": 1749,
      "ĠDe": 1750,
      "Ġsing": 1751,
      "Ġbest": 1752,
      "Ġill": 1753,
      "Ġbegin": 1754,
      "Ġpiec": 1755,
      "Ġeffici": 1756,
      "Ġlist": 1757,
      "idence": 1758,
      "ked": 1759,
      "Ġinstance": 1760,
      "Ġmar": 1761,
      "chie": 1762,
      "ope": 1763,
      "Ġthink": 1764,
      "Ġhaving": 1765,
      "Ġprogram": 1766,
      "Ġpractices": 1767,
      "Ġinclude": 1768,
      "Ġdef": 1769,
      "ields": 1770,
      "ĠThrough": 1771,
      "Ġsaf": 1772,
      "text": 1773,
      "Ġleading": 1774,
      "put": 1775,
      "by": 1776,
      "ĠX": 1777,
      "Ġfollowing": 1778,
      "lection": 1779,
      "zing": 1780,
      "pects": 1781,
      "aps": 1782,
      "Ġshare": 1783,
      "idel": 1784,
      "Ġjourney": 1785,
      "Ġoptim": 1786,
      "Ġclos": 1787,
      "ĠÎ": 1788,
      "Ġmom": 1789,
      "Ġyet": 1790,
      "Ġwater": 1791,
      "ules": 1792,
      "Ġtimes": 1793,
      "reci": 1794,
      "Ġsay": 1795,
      "Ġarti": 1796,
      "Ġaim": 1797,
      "ĠHere": 1798,
      "conom": 1799,
      "ensive": 1800,
      "ĠâĪ": 1801,
      "Ġprob": 1802,
      "Ġminim": 1803,
      "Ġpatterns": 1804,
      "Ġzero": 1805,
      "Ġdiverse": 1806,
      ")$": 1807,
      "Ġconclusion": 1808,
      "Ġpersonal": 1809,
      "ah": 1810,
      "Ġdig": 1811,
      "ither": 1812,
      "atch": 1813,
      "Ġrelationships": 1814,
      "work": 1815,
      "Ġrecogn": 1816,
      "oid": 1817,
      "Ġeveryone": 1818,
      "Ġinvolving": 1819,
      "ered": 1820,
      "qrt": 1821,
      "Ġbound": 1822,
      "Ġstrong": 1823,
      "'ll": 1824,
      "Ġremains": 1825,
      "asc": 1826,
      "Ġrather": 1827,
      "Ġderiv": 1828,
      "Ġquestion": 1829,
      "Ġinitial": 1830,
      "Ġer": 1831,
      "Ġconcern": 1832,
      "ane": 1833,
      "eper": 1834,
      "):": 1835,
      "Ġimprove": 1836,
      "ili": 1837,
      "Ġcommunication": 1838,
      "Ġgover": 1839,
      "Ġsteps": 1840,
      "Ġexact": 1841,
      "ters": 1842,
      "Ġkey": 1843,
      "Ġappreci": 1844,
      "Ġnat": 1845,
      "Ġelect": 1846,
      "Ġachie": 1847,
      "Ġclear": 1848,
      "eness": 1849,
      "Ġbro": 1850,
      "ract": 1851,
      "Ġatten": 1852,
      "ify": 1853,
      "Ġcharacter": 1854,
      "Ġlanguage": 1855,
      "ner": 1856,
      "Ġprofession": 1857,
      "eric": 1858,
      "pos": 1859,
      "ries": 1860,
      "Ġassociated": 1861,
      "Ġ201": 1862,
      "Ġgroups": 1863,
      "Ġrequires": 1864,
      "ograph": 1865,
      "nderstand": 1866,
      "Ġchanges": 1867,
      "ained": 1868,
      "uting": 1869,
      "Ġproduct": 1870,
      "omet": 1871,
      "Ġpoli": 1872,
      "Ġincor": 1873,
      "den": 1874,
      "Ġsolutions": 1875,
      "Ġproblems": 1876,
      "xt": 1877,
      "Ġ19": 1878,
      "ltim": 1879,
      "br": 1880,
      "Ġaccur": 1881,
      "atisf": 1882,
      "ains": 1883,
      "ynam": 1884,
      "Ġshared": 1885,
      "lement": 1886,
      "Ġsection": 1887,
      "Ġmen": 1888,
      "ators": 1889,
      "Ġdeeper": 1890,
      "ĠRe": 1891,
      "Ġfre": 1892,
      "Ġbal": 1893,
      "Ġ7": 1894,
      ")^": 1895,
      "int": 1896,
      "ulation": 1897,
      "ĠEn": 1898,
      "Ġret": 1899,
      "ciples": 1900,
      "atives": 1901,
      "reh": 1902,
      "=\\": 1903,
      "Ġthought": 1904,
      "ips": 1905,
      "ided": 1906,
      "ĠMoreover": 1907,
      "Ġwa": 1908,
      "Ġsometimes": 1909,
      "Ġfriend": 1910,
      "Ġexpression": 1911,
      "Ġbuilding": 1912,
      "Ġprovided": 1913,
      "Ġproperties": 1914,
      "Ġmathematical": 1915,
      "Ġsubs": 1916,
      "Ġâ": 1917,
      "inating": 1918,
      "anti": 1919,
      "ĠIf": 1920,
      "Ġimportance": 1921,
      "omen": 1922,
      "Ġet": 1923,
      "Ġemploy": 1924,
      "Ġcost": 1925,
      "ced": 1926,
      "Ġbox": 1927,
      "Ġproviding": 1928,
      "ash": 1929,
      "Ġparticip": 1930,
      "\\_{": 1931,
      "ously": 1932,
      "alu": 1933,
      "Ġrequire": 1934,
      "Ġterm": 1935,
      "Ġauth": 1936,
      "more": 1937,
      "ĠQ": 1938,
      "left": 1939,
      "Ġdistin": 1940,
      "Ġsecond": 1941,
      "Ġsatisf": 1942,
      "avig": 1943,
      "Ġones": 1944,
      "Ġsitu": 1945,
      "ĠAdditionally": 1946,
      "Ġdetail": 1947,
      "Ġcr": 1948,
      "inally": 1949,
      "Ġpublic": 1950,
      "Ġeconom": 1951,
      "ush": 1952,
      "eta": 1953,
      "ening": 1954,
      "Ġimagine": 1955,
      "sw": 1956,
      "Ġconstruc": 1957,
      "Ġarea": 1958,
      "Ġuntil": 1959,
      "Ġnext": 1960,
      "Ġbig": 1961,
      "An": 1962,
      "Ġside": 1963,
      "Ġlog": 1964,
      "ĠAt": 1965,
      "Ġaspects": 1966,
      "Ġlaw": 1967,
      "Ġprinciples": 1968,
      "Ġcome": 1969,
      "amp": 1970,
      "Ġintern": 1971,
      "Ġfield": 1972,
      "sing": 1973,
      "Ġcorres": 1974,
      "Im": 1975,
      "Ġideas": 1976,
      "Ġstat": 1977,
      "Ġsci": 1978,
      "Ġarr": 1979,
      "ply": 1980,
      "Ġperspec": 1981,
      "Ġself": 1982,
      "Ġcultural": 1983,
      "Ġnature": 1984,
      "erc": 1985,
      "Ġrest": 1986,
      "So": 1987,
      "Ġi": 1988,
      "---": 1989,
      "ffici": 1990,
      "Ġsetting": 1991,
      "Ġtrue": 1992,
      "Ġstruct": 1993,
      "Ġleft": 1994,
      "Ġconvers": 1995,
      "ee": 1996,
      "Ġpractice": 1997,
      "âĢĿ": 1998,
      "adi": 1999,
      "Ġanalysis": 2000,
      "Ġnear": 2001,
      "cos": 2002,
      "Ġhistor": 2003,
      "ilit": 2004,
      "Ġsugg": 2005,
      "Ġevalu": 2006,
      "Ġ<": 2007,
      "Ġarg": 2008,
      "Ġincreasing": 2009,
      "Ġcompan": 2010,
      "Ġpati": 2011,
      "ltimately": 2012,
      "ancing": 2013,
      "cap": 2014,
      "Ġnet": 2015,
      "Ġareas": 2016,
      "Ġsound": 2017,
      "Con": 2018,
      "Ġorder": 2019,
      "Ġincorpor": 2020,
      "Ġpred": 2021,
      "Ġclose": 2022,
      "Ġdenot": 2023,
      "Ġdelve": 2024,
      "atform": 2025,
      "lecting": 2026,
      "Ġtypes": 2027,
      "Ġpath": 2028,
      "ipp": 2029,
      "Ġmatrix": 2030,
      "ustr": 2031,
      "pr": 2032,
      "Ġeth": 2033,
      "Ġmeasure": 2034,
      "Ġtotal": 2035,
      "iring": 2036,
      "ins": 2037,
      "arge": 2038,
      "Ġstrength": 2039,
      "Ġcommunities": 2040,
      "Ġyourself": 2041,
      "Ġnecessary": 2042,
      "ale": 2043,
      "Ġloo": 2044,
      "Ġbelie": 2045,
      "Ġgraph": 2046,
      "Ġcomponents": 2047,
      "Ġcaus": 2048,
      "olution": 2049,
      "Ġhol": 2050,
      "Ġindust": 2051,
      "Ġsingle": 2052,
      "ĠEm": 2053,
      "Ġhighl": 2054,
      "ample": 2055,
      "Ġinterac": 2056,
      "Ġtoday": 2057,
      "Ġge": 2058,
      "iod": 2059,
      "aster": 2060,
      "sts": 2061,
      "Ġ($": 2062,
      "Ġperformance": 2063,
      "ason": 2064,
      "elt": 2065,
      "ĠAmeric": 2066,
      "ean": 2067,
      "aries": 2068,
      "Ġencour": 2069,
      "Ġhome": 2070,
      "Ġonline": 2071,
      "angle": 2072,
      "Ġansw": 2073,
      "ĠâĢľ": 2074,
      "Ġtem": 2075,
      "oday": 2076,
      "Ġtraditional": 2077,
      "ĠTr": 2078,
      "Ġnatural": 2079,
      "Ġinves": 2080,
      "utes": 2081,
      "Ġcurr": 2082,
      "Ġinterest": 2083,
      ")\\": 2084,
      "Ġstudy": 2085,
      "Ġemo": 2086,
      "Ġinsp": 2087,
      "--------------------------------": 2088,
      "Ġyears": 2089,
      "Ġscienti": 2090,
      "Ġsurround": 2091,
      "Key": 2092,
      "Ġtechnology": 2093,
      "izations": 2094,
      "Ġball": 2095,
      "Ġvol": 2096,
      "Ġcontext": 2097,
      "Ġworks": 2098,
      "Ġsquare": 2099,
      "Ġemerg": 2100,
      "Ġformula": 2101,
      "Ġdraw": 2102,
      "First": 2103,
      "Ġsimple": 2104,
      "Ġoffers": 2105,
      "Ġfil": 2106,
      "Ġasp": 2107,
      "Ġglob": 2108,
      "ym": 2109,
      "ĠCons": 2110,
      "Ġneeds": 2111,
      "Ġprogress": 2112,
      "Ġdynam": 2113,
      "Ġpress": 2114,
      "oss": 2115,
      "Ġlight": 2116,
      "Ġmakes": 2117,
      "Ġallowing": 2118,
      "Ġentire": 2119,
      "Ġsumm": 2120,
      "Ġrelated": 2121,
      "Ġaltern": 2122,
      "Ġbehind": 2123,
      "Ġdom": 2124,
      "Ġscen": 2125,
      "Ġlimit": 2126,
      "Ġbehavior": 2127,
      "Ġcompreh": 2128,
      "Ġsimpl": 2129,
      "...": 2130,
      "Ġunc": 2131,
      "Ġconver": 2132,
      "Ġaud": 2133,
      "Ġspe": 2134,
      "fort": 2135,
      "Ġsignificantly": 2136,
      "Ġlength": 2137,
      "ream": 2138,
      "Ġpoly": 2139,
      "versity": 2140,
      "Ġcritical": 2141,
      "Ġonce": 2142,
      "Ġfig": 2143,
      "oth": 2144,
      "Ġnavig": 2145,
      "tig": 2146,
      "sqrt": 2147,
      "Ġimplement": 2148,
      "urthermore": 2149,
      "fect": 2150,
      "Ġplatform": 2151,
      "Ġlearned": 2152,
      "ĠSim": 2153,
      "ĠSome": 2154,
      "Ġadap": 2155,
      "?\"": 2156,
      "Ġoutcomes": 2157,
      "ĠAfter": 2158,
      "ulations": 2159,
      "Ġfasc": 2160,
      "Ġlinear": 2161,
      "Ġpair": 2162,
      "Ġaccording": 2163,
      "lier": 2164,
      "Ġconnections": 2165,
      "Ġprovides": 2166,
      "vant": 2167,
      "Ġforms": 2168,
      "Ġefforts": 2169,
      "avor": 2170,
      "ral": 2171,
      "ody": 2172,
      "Ġbuild": 2173,
      "Ġavail": 2174,
      "Ġquick": 2175,
      "Ġsw": 2176,
      "Ġtaking": 2177,
      "Ġabove": 2178,
      "enge": 2179,
      "Ġrules": 2180,
      "ĠRem": 2181,
      "**:": 2182,
      "Ġcontrol": 2183,
      "aged": 2184,
      "Ġdirectly": 2185,
      "Ġfundam": 2186,
      "Ġsets": 2187,
      "Ġtas": 2188,
      "Ġstar": 2189,
      "Ġmembers": 2190,
      "Ġ8": 2191,
      "inking": 2192,
      "Ġmodern": 2193,
      "Ġfostering": 2194,
      "Ġeither": 2195,
      "Ġitself": 2196,
      "Ġenj": 2197,
      "isions": 2198,
      "oph": 2199,
      "Ġdecision": 2200,
      "Ġcorre": 2201,
      "Ġutil": 2202,
      "ume": 2203,
      "Ġpost": 2204,
      "ĠToday": 2205,
      "ug": 2206,
      "ĠĠĠ": 2207,
      "Ġapplications": 2208,
      "nderstanding": 2209,
      "Ġconstant": 2210,
      "oting": 2211,
      "Ġenough": 2212,
      "Ġmodel": 2213,
      "Ġapproaches": 2214,
      "ugg": 2215,
      "Ġshape": 2216,
      "Ġprocesses": 2217,
      "Ġlarge": 2218,
      "Ġdeb": 2219,
      "Ġ10": 2220,
      "Ġgovern": 2221,
      "Ġearlier": 2222,
      "Ġconcerns": 2223,
      "Ġdri": 2224,
      "ges": 2225,
      "Ġattention": 2226,
      "Ġvector": 2227,
      "Ġprevious": 2228,
      "Ġdescrib": 2229,
      "ĠInst": 2230,
      "Let": 2231,
      "Ġperiod": 2232,
      "echan": 2233,
      "Ġlevels": 2234,
      "osing": 2235,
      "Ġview": 2236,
      "Ġey": 2237,
      "Ġvia": 2238,
      "not": 2239,
      "Ġfar": 2240,
      "Ġeffectively": 2241,
      "Ġprec": 2242,
      "Ġgood": 2243,
      "Ġequations": 2244,
      "Ġexplor": 2245,
      "ĠAr": 2246,
      "Ġobtain": 2247,
      "Ġinside": 2248,
      "pri": 2249,
      "elling": 2250,
      "Ġinvest": 2251,
      "Ġmaintaining": 2252,
      "ians": 2253,
      "Ġcontribute": 2254,
      "Ġgreater": 2255,
      "Ġisn": 2256,
      "Ġparticularly": 2257,
      "Ġvers": 2258,
      "of": 2259,
      "ĠApp": 2260,
      "Ġevent": 2261,
      "epend": 2262,
      "Ġfill": 2263,
      "Ġoccur": 2264,
      "Ġcommit": 2265,
      "Ġchallenge": 2266,
      "Ġgoing": 2267,
      "know": 2268,
      "Ġ9": 2269,
      "Ġvariables": 2270,
      "ĠĠĠĠĠĠĠĠ": 2271,
      "Ġteach": 2272,
      "Ġseries": 2273,
      "Ġsequence": 2274,
      "How": 2275,
      "Ġsust": 2276,
      "Ġharm": 2277,
      "go": 2278,
      "Ġstructure": 2279,
      "Ġinterp": 2280,
      "ĠInd": 2281,
      "ration": 2282,
      "rain": 2283,
      "ĠBe": 2284,
      "ument": 2285,
      "Ġsolution": 2286,
      "Ġnegative": 2287,
      "ocks": 2288,
      "Ġwords": 2289,
      "olving": 2290,
      "Ġnam": 2291,
      "Ġded": 2292,
      "Ġdistribution": 2293,
      "====": 2294,
      "oint": 2295,
      "Ġsmaller": 2296,
      "Ġcover": 2297,
      "Imagine": 2298,
      "Ġregular": 2299,
      "Ġdecided": 2300,
      "ership": 2301,
      "Ġposition": 2302,
      "ems": 2303,
      "ells": 2304,
      "Ġperfect": 2305,
      "Ġtarg": 2306,
      "ode": 2307,
      "eti": 2308,
      "ising": 2309,
      "bs": 2310,
      "Ġfew": 2311,
      "Ġthemselves": 2312,
      "Ġlarg": 2313,
      "sequently": 2314,
      "Ex": 2315,
      "Ġvisual": 2316,
      "Ġhistory": 2317,
      "itle": 2318,
      "Ġcorrespon": 2319,
      "ĠFurthermore": 2320,
      "yc": 2321,
      "Ġmaterials": 2322,
      "ĠSince": 2323,
      "Ġrespect": 2324,
      "Ġtreat": 2325,
      "ann": 2326,
      "idelines": 2327,
      "exp": 2328,
      "But": 2329,
      "face": 2330,
      "Ġexciting": 2331,
      "Ġfundamental": 2332,
      "Ġhigher": 2333,
      "Ġeducation": 2334,
      "ource": 2335,
      "ren": 2336,
      "Ġintric": 2337,
      "Ġdistinct": 2338,
      "Ġreve": 2339,
      "Ġexactly": 2340,
      "Ġsharing": 2341,
      "Ġmaxim": 2342,
      "Ġadj": 2343,
      "Ġbenefits": 2344,
      "Ġmind": 2345,
      "Ġidea": 2346,
      "iver": 2347,
      "Ġart": 2348,
      "ements": 2349,
      "Ġra": 2350,
      "ĠShe": 2351,
      "sc": 2352,
      "phas": 2353,
      "Ġcompared": 2354,
      "ches": 2355,
      "ming": 2356,
      "Ġtrust": 2357,
      "outs": 2358,
      "Ġbroad": 2359,
      "gor": 2360,
      "Ġaut": 2361,
      "Ġfamily": 2362,
      "Ġpowerful": 2363,
      "Ġapplying": 2364,
      "cd": 2365,
      "Ġfour": 2366,
      "Ġfeatures": 2367,
      "though": 2368,
      "Ġapply": 2369,
      "Ġgame": 2370,
      "bra": 2371,
      "Ġusers": 2372,
      "Ġplace": 2373,
      "Ġhistorical": 2374,
      "ĠDes": 2375,
      "Ġrespec": 2376,
      "Ġcand": 2377,
      "ened": 2378,
      "Ġstructures": 2379,
      "Ġlay": 2380,
      "Ġstarted": 2381,
      "}^{": 2382,
      "ĠTherefore": 2383,
      "Ġinvolved": 2384,
      "Ġmatter": 2385,
      "sin": 2386,
      "Ġappropri": 2387,
      "ologies": 2388,
      "ancial": 2389,
      "Ġfrequ": 2390,
      "Ġdev": 2391,
      "Ġsens": 2392,
      "Ġchild": 2393,
      "Ġtype": 2394,
      "Ġexamine": 2395,
      "Ġcourse": 2396,
      "gorith": 2397,
      "Ġidentity": 2398,
      "Ġground": 2399,
      "come": 2400,
      "Ġlittle": 2401,
      "Ġsomeone": 2402,
      "Ġfull": 2403,
      ")=": 2404,
      "ises": 2405,
      "Ġembrac": 2406,
      "'ve": 2407,
      "Ġdivid": 2408,
      "Ġsepar": 2409,
      "ĠThus": 2410,
      "Ġfinal": 2411,
      "Ġnumerous": 2412,
      "me": 2413,
      "Ġrece": 2414,
      "Ġmechan": 2415,
      "Ġengine": 2416,
      "Ġscenari": 2417,
      "ĠÃ": 2418,
      "Ġevents": 2419,
      "abilities": 2420,
      "nom": 2421,
      "Ġlands": 2422,
      "Ġmanagement": 2423,
      "Ġprefer": 2424,
      "Ġstudies": 2425,
      "Ġ$(": 2426,
      "iliar": 2427,
      "port": 2428,
      "where": 2429,
      "mathbb": 2430,
      "ps": 2431,
      "Ġseeking": 2432,
      "Ġscience": 2433,
      "Ġculture": 2434,
      "Ġlines": 2435,
      "Ġglobal": 2436,
      "pecific": 2437,
      "oh": 2438,
      "andom": 2439,
      "Ġtheory": 2440,
      "ĠSp": 2441,
      "care": 2442,
      "Ġavailable": 2443,
      "Ġhead": 2444,
      "Ġsure": 2445,
      "oming": 2446,
      "Ġpreser": 2447,
      "Ġdoc": 2448,
      "Ġphysical": 2449,
      "Ġtre": 2450,
      ",\\": 2451,
      "ĠRemember": 2452,
      "ox": 2453,
      "Ġstories": 2454,
      "works": 2455,
      "Ġdespite": 2456,
      "gebra": 2457,
      "eck": 2458,
      "ank": 2459,
      "20": 2460,
      "ended": 2461,
      "Ġactivities": 2462,
      "Ġaway": 2463,
      "Ġbreak": 2464,
      "Ġrule": 2465,
      "Ġsize": 2466,
      "Ġapproxim": 2467,
      "Ġaccount": 2468,
      "Ġsurrounding": 2469,
      "Ġaction": 2470,
      "Ġeffective": 2471,
      "Ġdetermine": 2472,
      "Ġcontinue": 2473,
      "orts": 2474,
      "Ġtry": 2475,
      "lim": 2476,
      "med": 2477,
      "Ġemphas": 2478,
      "Ġresulting": 2479,
      "Ġpast": 2480,
      "Ġwond": 2481,
      "Ġquality": 2482,
      "eep": 2483,
      "istance": 2484,
      "Ġproperty": 2485,
      "ially": 2486,
      "Ġmedia": 2487,
      "Ġda": 2488,
      "Ġtail": 2489,
      "encies": 2490,
      "Ġpric": 2491,
      "Ġdim": 2492,
      "By": 2493,
      "Ġcurrent": 2494,
      "Ġneeded": 2495,
      "Ġprobability": 2496,
      "Ġfascinating": 2497,
      "Ġmoment": 2498,
      "hood": 2499,
      "Ġsuccessful": 2500,
      "Ġserve": 2501,
      "ified": 2502,
      "Ġlast": 2503,
      "porary": 2504,
      "get": 2505,
      "clusion": 2506,
      "For": 2507,
      "Ġintroduc": 2508,
      "Ġcra": 2509,
      "Ġmess": 2510,
      "Ġfood": 2511,
      "Ġindic": 2512,
      "10": 2513,
      "Ġhowever": 2514,
      "Ġcomput": 2515,
      "Ġliter": 2516,
      "tial": 2517,
      "Ġhard": 2518,
      "Ġfocusing": 2519,
      "izes": 2520,
      "Ġlies": 2521,
      "Ġcollec": 2522,
      "Ġmention": 2523,
      "urity": 2524,
      "Ġschool": 2525,
      "Ġsustain": 2526,
      "Ġrig": 2527,
      "Ġoptions": 2528,
      "Ġdr": 2529,
      "rip": 2530,
      "ef": 2531,
      "Ġdigital": 2532,
      "Ġstay": 2533,
      "Ġeverything": 2534,
      "Ġadditional": 2535,
      "Ġestim": 2536,
      "```": 2537,
      "ery": 2538,
      "entially": 2539,
      "ender": 2540,
      "Ġmusic": 2541,
      "ĠTitle": 2542,
      "ĠInstead": 2543,
      "onal": 2544,
      "Ġgoal": 2545,
      "Ġdistance": 2546,
      "Ġdeg": 2547,
      "Ġpopular": 2548,
      "amet": 2549,
      "Ġelement": 2550,
      "Ġsolving": 2551,
      "Ġprior": 2552,
      "Ġinvestig": 2553,
      "Ġillustr": 2554,
      "Ġabs": 2555,
      "Ġlove": 2556,
      "Ġdifference": 2557,
      "Ġmach": 2558,
      "Ġnar": 2559,
      "isms": 2560,
      "Ġcolor": 2561,
      "Ġfollows": 2562,
      "Ġspecifically": 2563,
      "Ġund": 2564,
      "Ġservices": 2565,
      "Ġgra": 2566,
      "Ġexpect": 2567,
      "Ġparts": 2568,
      "Ġrelevant": 2569,
      "Ġmodels": 2570,
      "Ġearly": 2571,
      "Ġalgorith": 2572,
      "Ġdive": 2573,
      "ĠGu": 2574,
      "Ġfinancial": 2575,
      "Ġadvent": 2576,
      "Ġmarket": 2577,
      "Ġgreat": 2578,
      "ground": 2579,
      "Ġbalance": 2580,
      "Ġgive": 2581,
      "ression": 2582,
      "Ġboo": 2583,
      "arah": 2584,
      "Ġnever": 2585,
      "isc": 2586,
      "pro": 2587,
      "Ġrun": 2588,
      "zz": 2589,
      "apter": 2590,
      "Ġshif": 2591,
      "Ġuser": 2592,
      "ient": 2593,
      "ecting": 2594,
      "Ġpolynom": 2595,
      "rig": 2596,
      "ĠZ": 2597,
      "ĠOur": 2598,
      "Ġbegan": 2599,
      "ats": 2600,
      "Ġappear": 2601,
      "ĠEach": 2602,
      "orem": 2603,
      "Ġwrit": 2604,
      "Ġcollaboration": 2605,
      "Ġenjoy": 2606,
      "Ġsociety": 2607,
      "Ġlea": 2608,
      "Ġroot": 2609,
      "ĠYour": 2610,
      "Ġindepend": 2611,
      "Ġadding": 2612,
      "However": 2613,
      "back": 2614,
      "Ġstory": 2615,
      "Ġexists": 2616,
      "Ġsty": 2617,
      "Ġfacilit": 2618,
      "plications": 2619,
      "Ġ[": 2620,
      "aim": 2621,
      "Ġblocks": 2622,
      "duce": 2623,
      "Ġsoft": 2624,
      "Ġorganizations": 2625,
      "Ġdesired": 2626,
      "Ġoperations": 2627,
      "Ġfactor": 2628,
      "time": 2629,
      "ids": 2630,
      "Ġ>": 2631,
      "Ġdoing": 2632,
      "Ġrich": 2633,
      "Ġradi": 2634,
      "Ġrequired": 2635,
      "Ġstate": 2636,
      "Ġmathematics": 2637,
      "ĠPl": 2638,
      "atory": 2639,
      "egin": 2640,
      "Ġerr": 2641,
      "Ġability": 2642,
      "Ġenvironmental": 2643,
      "Ġsymb": 2644,
      "Ġshort": 2645,
      "ĠConsequently": 2646,
      "Ġcontem": 2647,
      "Ġidentify": 2648,
      "ones": 2649,
      "ware": 2650,
      "Ġgam": 2651,
      "Ġsaid": 2652,
      "Ġsides": 2653,
      "Ġcalculate": 2654,
      "Ġpolitical": 2655,
      "Ġobjec": 2656,
      "ident": 2657,
      "Ġnamed": 2658,
      "expected": 2659,
      "ingly": 2660,
      "Ġnorm": 2661,
      "Ġinvolve": 2662,
      "Ġsources": 2663,
      "ĠÃĹ": 2664,
      "Ġpain": 2665,
      "Ġaddressing": 2666,
      "ours": 2667,
      "Ġevidence": 2668,
      "Another": 2669,
      "Ġultimately": 2670,
      "ĠComp": 2671,
      "inf": 2672,
      "Ġquanti": 2673,
      "eless": 2674,
      "ios": 2675,
      "}(": 2676,
      "ÏĢ": 2677,
      "Ġmeasures": 2678,
      "Ġengagement": 2679,
      "Ġlives": 2680,
      "Ġdiscovered": 2681,
      "Ġlandscap": 2682,
      "Ġtext": 2683,
      "ĠUnderstanding": 2684,
      "ny": 2685,
      "my": 2686,
      "met": 2687,
      "Ġquickly": 2688,
      "Ġrev": 2689,
      "ouse": 2690,
      "Ġcomplete": 2691,
      "Ġdesigned": 2692,
      "Ġencounter": 2693,
      "Ġexperim": 2694,
      "Ġdiag": 2695,
      "Ġstrugg": 2696,
      "wise": 2697,
      "Ġ$$": 2698,
      "ival": 2699,
      "arily": 2700,
      "Ġouts": 2701,
      "Ġstri": 2702,
      "ceed": 2703,
      "Ġreturn": 2704,
      "world": 2705,
      "udes": 2706,
      "Ġdecisions": 2707,
      "Ġtoys": 2708,
      "play": 2709,
      "Ġlarger": 2710,
      "rim": 2711,
      "Ġequals": 2712,
      "Ġconduc": 2713,
      "ury": 2714,
      "Ġtravel": 2715,
      "Ġrob": 2716,
      "Ġcannot": 2717,
      "Ġpriv": 2718,
      "Ġachieve": 2719,
      "Ġair": 2720,
      "Ġthinking": 2721,
      "Ġtalk": 2722,
      "Ġperspectives": 2723,
      "Ġproducts": 2724,
      "Ġrandom": 2725,
      "Ġadvanced": 2726,
      "acks": 2727,
      "Ġvo": 2728,
      "Ġpromoting": 2729,
      "Ġalgebra": 2730,
      "Conclusion": 2731,
      "Ġinfin": 2732,
      "Ġface": 2733,
      "cdot": 2734,
      "ĠSpecific": 2735,
      "Ġheart": 2736,
      "Ġcos": 2737,
      "Ġdoesn": 2738,
      "ken": 2739,
      "ging": 2740,
      "Ġrange": 2741,
      "Ġopp": 2742,
      "Ġcross": 2743,
      "Ġfavor": 2744,
      "verage": 2745,
      "ird": 2746,
      "Ġalign": 2747,
      "vation": 2748,
      "ensions": 2749,
      "atic": 2750,
      "-\\": 2751,
      "Ġanim": 2752,
      "Ġrepl": 2753,
      "Ġrefer": 2754,
      "Ġkind": 2755,
      "Ġassess": 2756,
      "Ġenhance": 2757,
      "Ġadapt": 2758,
      "Ġflow": 2759,
      "ission": 2760,
      "ĠRec": 2761,
      "Ġadm": 2762,
      "Ġcontinuous": 2763,
      "Ġold": 2764,
      "ĠImagine": 2765,
      "Ġput": 2766,
      "Ġonto": 2767,
      "ĠMan": 2768,
      "Ġsolid": 2769,
      "Ġavoid": 2770,
      "ised": 2771,
      "Ġresearchers": 2772,
      "Ġspeed": 2773,
      "Ġforce": 2774,
      "Ġgoals": 2775,
      "Ġappropriate": 2776,
      "ĠFrom": 2777,
      "ounts": 2778,
      "Ġlooking": 2779,
      "Ġrates": 2780,
      "Ġproject": 2781,
      "going": 2782,
      "ativity": 2783,
      "Ġexamples": 2784,
      "Ġsense": 2785,
      "Ġregion": 2786,
      "rad": 2787,
      "itable": 2788,
      "ĠCl": 2789,
      "Ġincorporating": 2790,
      "Ġunderlying": 2791,
      "ĠAlex": 2792,
      "uments": 2793,
      "Ġtest": 2794,
      "pping": 2795,
      "At": 2796,
      "Ġaspect": 2797,
      "Ġunexpected": 2798,
      "ĠTim": 2799,
      "Ġcloser": 2800,
      "ĠOnce": 2801,
      "Ġrigor": 2802,
      "ele": 2803,
      "rast": 2804,
      "Ġincreased": 2805,
      "Ġfree": 2806,
      "enced": 2807,
      "Ġdifferences": 2808,
      "ĠComm": 2809,
      "Ġpay": 2810,
      "Ġbody": 2811,
      "Ġrealized": 2812,
      "oms": 2813,
      "Ġappl": 2814,
      "Ġframe": 2815,
      "Ġmentioned": 2816,
      "Ġmeet": 2817,
      "anging": 2818,
      "Ġstatis": 2819,
      "Ġshaping": 2820,
      "ler": 2821,
      "Ġstandard": 2822,
      "auti": 2823,
      "}{\\": 2824,
      "Ġenables": 2825,
      "Ġgain": 2826,
      "Ġcateg": 2827,
      "Ġmass": 2828,
      "Ġcompeti": 2829,
      "ticians": 2830,
      "Ġcool": 2831,
      "}^": 2832,
      "tivity": 2833,
      "Ġrefers": 2834,
      "astly": 2835,
      "ĠInt": 2836,
      "orting": 2837,
      "Ġfeed": 2838,
      "Ġsun": 2839,
      "ifying": 2840,
      "cept": 2841,
      "Ġmere": 2842,
      "Ġensures": 2843,
      "!\"": 2844,
      "Ġcame": 2845,
      "igen": 2846,
      "Ġasked": 2847,
      "Ġ200": 2848,
      "Ġrespon": 2849,
      "io": 2850,
      "Ġmor": 2851,
      "Ġwhole": 2852,
      "Ġcoord": 2853,
      "Ġintricate": 2854,
      "Ġplays": 2855,
      "cal": 2856,
      "Ġworry": 2857,
      "ilarly": 2858,
      "effici": 2859,
      "Ġconsidering": 2860,
      "Ġlessons": 2861,
      "Ġ:": 2862,
      "hold": 2863,
      "ring": 2864,
      "ĠAcc": 2865,
      "ĠSpecifically": 2866,
      "oot": 2867,
      "Ġexploration": 2868,
      "ĠConsider": 2869,
      "Ġcontinued": 2870,
      "Ġrecent": 2871,
      "ibilities": 2872,
      ")(": 2873,
      "Ġdepending": 2874,
      "Ġspaces": 2875,
      "Ġsimply": 2876,
      "Ġinequ": 2877,
      "Ġfields": 2878,
      "Ġforward": 2879,
      "Ġexpressions": 2880,
      "alf": 2881,
      "Ġadjust": 2882,
      "Ġpieces": 2883,
      "Ġvariable": 2884,
      "bles": 2885,
      "Ġsurface": 2886,
      "Ġexamining": 2887,
      ")/": 2888,
      "idst": 2889,
      "Ġâī": 2890,
      "Ġsmoo": 2891,
      "Ġlower": 2892,
      "Ġplatforms": 2893,
      "pecially": 2894,
      "Ġplaying": 2895,
      "},": 2896,
      "Ġexh": 2897,
      "19": 2898,
      "Ġrisk": 2899,
      "Ġfail": 2900,
      "Ġwal": 2901,
      "Ġbusinesses": 2902,
      "Ġbasic": 2903,
      "ĠSarah": 2904,
      "âĪĴ": 2905,
      "Finally": 2906,
      "Ġthus": 2907,
      "Ġinstit": 2908,
      "Ġsal": 2909,
      "Ġexerc": 2910,
      "sum": 2911,
      "Ġcareful": 2912,
      "ably": 2913,
      "Ġbase": 2914,
      "ĠJust": 2915,
      "uing": 2916,
      "Ġapplication": 2917,
      "Ġschol": 2918,
      "side": 2919,
      "Ġheav": 2920,
      "ĠOr": 2921,
      "Ġespecially": 2922,
      "aper": 2923,
      "Ġsuper": 2924,
      "Ġindustry": 2925,
      "Ġconven": 2926,
      "action": 2927,
      "Ġfilled": 2928,
      "Ġgives": 2929,
      "Ġrate": 2930,
      "Ġserves": 2931,
      "Ġcorrect": 2932,
      "lam": 2933,
      "ellow": 2934,
      "Ġsafety": 2935,
      "ients": 2936,
      "Ġinput": 2937,
      "mathbf": 2938,
      "Ġengage": 2939,
      "Ġeasy": 2940,
      "Ġalternative": 2941,
      "adem": 2942,
      "When": 2943,
      "Ġexpand": 2944,
      "Ġinformed": 2945,
      "Ġname": 2946,
      "Ġreview": 2947,
      "Ġhy": 2948,
      "Ġanswer": 2949,
      "Ġinters": 2950,
      "Ġ\\(": 2951,
      "Ġinnovation": 2952,
      "Ġprimary": 2953,
      "Ġoutside": 2954,
      "Ġvital": 2955,
      "ello": 2956,
      "Ġhope": 2957,
      "Ġdefined": 2958,
      "inate": 2959,
      "Ġtarget": 2960,
      "ĠMr": 2961,
      "Ġangle": 2962,
      "ĠKeep": 2963,
      "Ġtopics": 2964,
      "Ġstates": 2965,
      "Ġinher": 2966,
      "Ġanalyzing": 2967,
      "Ġintegral": 2968,
      "Ġwee": 2969,
      "Ġinclus": 2970,
      "ton": 2971,
      "Ġeconomic": 2972,
      "Ġconnection": 2973,
      "pi": 2974,
      "Ġheight": 2975,
      "Ġchoose": 2976,
      "Ġpiece": 2977,
      "infty": 2978,
      "ighting": 2979,
      "Ġongoing": 2980,
      "ĠOver": 2981,
      "Here": 2982,
      "Ġcorresponding": 2983,
      "Ġtakes": 2984,
      "Ġstra": 2985,
      "roduction": 2986,
      "Ġguide": 2987,
      "ites": 2988,
      "ĠWhat": 2989,
      "Ġtool": 2990,
      "ĠAmerican": 2991,
      "Ġcontemporary": 2992,
      "iter": 2993,
      "umb": 2994,
      "Ġhealthcare": 2995,
      "Ġconsum": 2996,
      "Ġtoy": 2997,
      "Ġcarefully": 2998,
      "ores": 2999,
      "Ġprevent": 3000,
      "Ġstraight": 3001,
      "fact": 3002,
      "Ġpolicy": 3003,
      "ĠAc": 3004,
      "Ġmultipl": 3005,
      "Ġhor": 3006,
      "Ġnote": 3007,
      "Int": 3008,
      "Ġcore": 3009,
      "vice": 3010,
      "Ġprofessional": 3011,
      "ns": 3012,
      "Ġve": 3013,
      "making": 3014,
      "Ġnor": 3015,
      "Ġexisting": 3016,
      "Ġtrends": 3017,
      "Ġlow": 3018,
      "Ġspir": 3019,
      "Ġcircle": 3020,
      "Ġsearch": 3021,
      "Ġfelt": 3022,
      "ighb": 3023,
      "uter": 3024,
      "Ġtemper": 3025,
      "iny": 3026,
      "ystem": 3027,
      "Ġindeed": 3028,
      "theta": 3029,
      "Ġchallenging": 3030,
      "(-": 3031,
      "Ġcases": 3032,
      "like": 3033,
      "Ġinteresting": 3034,
      "Ġhid": 3035,
      "uit": 3036,
      "Ġpolicies": 3037,
      "Ġseemingly": 3038,
      "rant": 3039,
      "Ġjob": 3040,
      "rup": 3041,
      "ĠTheir": 3042,
      "Ġfaced": 3043,
      "Ġanalyze": 3044,
      "sh": 3045,
      "Ġfigure": 3046,
      "Ġfrac": 3047,
      "Ġclim": 3048,
      "Ġcounter": 3049,
      "Ġyields": 3050,
      "Ġinterests": 3051,
      "Ġchanging": 3052,
      "Ġdial": 3053,
      "exts": 3054,
      "uly": 3055,
      "Ġgeomet": 3056,
      "amples": 3057,
      "iosity": 3058,
      "Ġjoin": 3059,
      "Ġtypically": 3060,
      "Ġcity": 3061,
      "Ġbring": 3062,
      "Next": 3063,
      "athy": 3064,
      "Ġdenotes": 3065,
      "Ġdeliver": 3066,
      "Ġstarting": 3067,
      "ees": 3068,
      "Ġliving": 3069,
      "ching": 3070,
      "Ġcut": 3071,
      "align": 3072,
      "Ġdiffic": 3073,
      "Ġethical": 3074,
      "Ġactually": 3075,
      "ops": 3076,
      "let": 3077,
      "ager": 3078,
      "ilience": 3079,
      "Ġbecame": 3080,
      "On": 3081,
      "Ġsolve": 3082,
      "dd": 3083,
      "ares": 3084,
      "ixed": 3085,
      "ĠNew": 3086,
      "Ġinfluence": 3087,
      "Ġpossess": 3088,
      "ĠStud": 3089,
      "Ġagre": 3090,
      "Ġengaging": 3091,
      "Ġlegal": 3092,
      "Ġcouldn": 3093,
      "Ġenab": 3094,
      "Ġcurve": 3095,
      "ĠUsing": 3096,
      "ounting": 3097,
      "uck": 3098,
      "Ġamidst": 3099,
      "Ġrow": 3100,
      "term": 3101,
      "Ġadvant": 3102,
      "Ġconflic": 3103,
      "Ġarch": 3104,
      "Ġcoeffici": 3105,
      ")}": 3106,
      "Ġvi": 3107,
      "begin": 3108,
      "uts": 3109,
      "ĠReg": 3110,
      "Ġextra": 3111,
      "Ġfall": 3112,
      "Ġlater": 3113,
      "Ġobjects": 3114,
      "000": 3115,
      "Ġauthor": 3116,
      "Ġdealing": 3117,
      "Ġsignificance": 3118,
      "Ġarrang": 3119,
      "Ġfoster": 3120,
      "Ġdiscussion": 3121,
      "atter": 3122,
      "Ġbroader": 3123,
      "sp": 3124,
      "ued": 3125,
      "Ġneighb": 3126,
      "edi": 3127,
      "Ġunit": 3128,
      "Ġrights": 3129,
      "Ġfit": 3130,
      "Ġestablished": 3131,
      "ĠSu": 3132,
      "Ġvir": 3133,
      "ultane": 3134,
      "Ġprojects": 3135,
      "Ġmental": 3136,
      "Ġhold": 3137,
      "Ġclean": 3138,
      "emp": 3139,
      "Ġrisks": 3140,
      "ont": 3141,
      "Ġsole": 3142,
      "Ġitems": 3143,
      "Ġgeneral": 3144,
      "ĠSimilarly": 3145,
      "Ġinterpret": 3146,
      "Ġbar": 3147,
      "ĠIs": 3148,
      "nit": 3149,
      "ifies": 3150,
      "Ġpropos": 3151,
      "ener": 3152,
      "Ġbackground": 3153,
      "Ġresilience": 3154,
      "Ġhours": 3155,
      "Ġguid": 3156,
      "Ġamount": 3157,
      "Ġincreasingly": 3158,
      "Ġphen": 3159,
      "Ġarri": 3160,
      "Ġcontaining": 3161,
      "âĤģ": 3162,
      "Ġdaily": 3163,
      "icate": 3164,
      "Ġexpon": 3165,
      "inations": 3166,
      "Ġap": 3167,
      "ratic": 3168,
      "Ġmeaningful": 3169,
      "Ġsmooth": 3170,
      "Ġcomplexity": 3171,
      "erap": 3172,
      "Ġland": 3173,
      "Ġmis": 3174,
      "Ġrelative": 3175,
      "oney": 3176,
      "Ġcompos": 3177,
      "Ġrigorous": 3178,
      "Ġparamet": 3179,
      "head": 3180,
      "Ġadop": 3181,
      "Ġinteger": 3182,
      "Ġrelig": 3183,
      "Ġbelong": 3184,
      "Ġforces": 3185,
      "bit": 3186,
      "Ġopportunity": 3187,
      "Ġbeauti": 3188,
      "Ġtruly": 3189,
      "Ġweight": 3190,
      "oying": 3191,
      "Ġconcer": 3192,
      "Ġprograms": 3193,
      "Ġfair": 3194,
      "Ġreducing": 3195,
      "Ġsituations": 3196,
      "Î¸": 3197,
      "Ġdynamics": 3198,
      "appy": 3199,
      "ĠId": 3200,
      "------------": 3201,
      "pha": 3202,
      "Ġdetails": 3203,
      "Ġtraining": 3204,
      "Ġnarra": 3205,
      "icro": 3206,
      "akers": 3207,
      "Ġcondition": 3208,
      "Ġinitially": 3209,
      "esearch": 3210,
      "ched": 3211,
      "Ġcuriosity": 3212,
      "Ġplanning": 3213,
      "ĠThen": 3214,
      "rices": 3215,
      "Ġhalf": 3216,
      "Ġtook": 3217,
      "Ġleads": 3218,
      "apid": 3219,
      "ished": 3220,
      "Ġkne": 3221,
      "Ġwarm": 3222,
      "Ġcontent": 3223,
      "Ġconstrain": 3224,
      "ived": 3225,
      "ĠChin": 3226,
      "Ġfamiliar": 3227,
      "Ġissue": 3228,
      "Ġcomfort": 3229,
      "Ġacadem": 3230,
      "Ġcred": 3231,
      "Ġmoving": 3232,
      "Ġphenomen": 3233,
      "Ġled": 3234,
      "Ġeasier": 3235,
      "lation": 3236,
      "Ġdiscussing": 3237,
      "ony": 3238,
      "augh": 3239,
      "Ġnotice": 3240,
      "astic": 3241,
      "Ġdirection": 3242,
      "urs": 3243,
      "Ġsin": 3244,
      "Ġinnovative": 3245,
      "iven": 3246,
      "Ġappe": 3247,
      "sy": 3248,
      "Ġmanip": 3249,
      "orn": 3250,
      "ĠCont": 3251,
      "Ġcompany": 3252,
      "ĠEng": 3253,
      "ĠWor": 3254,
      "Ġdays": 3255,
      "ĠPar": 3256,
      "Ġelse": 3257,
      "Ġimplications": 3258,
      "Ġconstit": 3259,
      "Ġcosts": 3260,
      "Ġresponse": 3261,
      "while": 3262,
      "ĠFirst": 3263,
      "Ġchoices": 3264,
      "ĠBl": 3265,
      "Ġaimed": 3266,
      "elcome": 3267,
      "Ġwatch": 3268,
      "oti": 3269,
      "ster": 3270,
      "+\\": 3271,
      ")$,": 3272,
      "ubs": 3273,
      "Ġphot": 3274,
      "based": 3275,
      "Ġrout": 3276,
      "Ġpartn": 3277,
      "We": 3278,
      "ium": 3279,
      "Ġfindings": 3280,
      "Ġnu": 3281,
      "Ġenth": 3282,
      "Ġur": 3283,
      "Ġreli": 3284,
      "Ġprime": 3285,
      "Ġautom": 3286,
      "Ġtailored": 3287,
      "Ġassump": 3288,
      "alle": 3289,
      "Ġdefinition": 3290,
      "Ġprecise": 3291,
      "Ġsecurity": 3292,
      "Ġ\\\\": 3293,
      "usi": 3294,
      "Ġpromote": 3295,
      "Ġexch": 3296,
      "Ġmut": 3297,
      "Ġvalid": 3298,
      "Ġproduction": 3299,
      "Ġroles": 3300,
      "ĠHappy": 3301,
      "Ġartic": 3302,
      "Ġpush": 3303,
      "Ġdefine": 3304,
      "Ġactions": 3305,
      "Ġoptimal": 3306,
      "Ġpassion": 3307,
      "Ġconsistent": 3308,
      "Ġpurs": 3309,
      "ĠWell": 3310,
      "Ġlab": 3311,
      "Ġroots": 3312,
      "Ġmathematicians": 3313,
      "Ġtang": 3314,
      "Ġsyn": 3315,
      "ardless": 3316,
      "Ġlif": 3317,
      "Ġwhenever": 3318,
      "Ġcyc": 3319,
      "Ġembracing": 3320,
      "Ġrepresentation": 3321,
      "Ġaddition": 3322,
      "Ġworth": 3323,
      "lo": 3324,
      "Ġclaim": 3325,
      "aced": 3326,
      "Ġdam": 3327,
      "Ġblock": 3328,
      "Ġtasks": 3329,
      "}$.": 3330,
      "Ġjus": 3331,
      "Ġscientific": 3332,
      "Ġnovel": 3333,
      "Ġenabling": 3334,
      "Ġsolely": 3335,
      "jor": 3336,
      "Ġtack": 3337,
      "uzz": 3338,
      "Ġuni": 3339,
      "Ġinequality": 3340,
      "Ġ(-": 3341,
      "Ġderivative": 3342,
      "Ġreason": 3343,
      "Ġreflect": 3344,
      "Ġcomprehensive": 3345,
      "Ġrepresenting": 3346,
      "Ġcomputer": 3347,
      "owers": 3348,
      "ĠTips": 3349,
      "ultaneously": 3350,
      "Ġroom": 3351,
      "Ġfeedback": 3352,
      "alities": 3353,
      "onom": 3354,
      "Ġenthusi": 3355,
      "Ġpolynomial": 3356,
      "Ġdialog": 3357,
      "quad": 3358,
      "Ġwomen": 3359,
      "aste": 3360,
      "ulate": 3361,
      "Ch": 3362,
      "Ġdemand": 3363,
      "Ġhidden": 3364,
      "Ġupd": 3365,
      "Ġshapes": 3366,
      "Ġeffects": 3367,
      "Ġappreciate": 3368,
      "Ġmedical": 3369,
      "uted": 3370,
      "Ġwasn": 3371,
      "Ġtherap": 3372,
      "itation": 3373,
      "pose": 3374,
      "Ġalike": 3375,
      "ĠAnal": 3376,
      "etal": 3377,
      "hes": 3378,
      "ipl": 3379,
      "encing": 3380,
      "Ġcolle": 3381,
      "ĠRes": 3382,
      "Ġholds": 3383,
      "Ġresponsible": 3384,
      "mat": 3385,
      "Ġboundaries": 3386,
      "Ġvery": 3387,
      "Ġtown": 3388,
      "acts": 3389,
      "ĠAlthough": 3390,
      "Ġcamp": 3391,
      "reen": 3392,
      "Ġcomplic": 3393,
      "Ġhyp": 3394,
      "Ġgrad": 3395,
      "ufact": 3396,
      "Ġax": 3397,
      "Ġoffering": 3398,
      "uty": 3399,
      "areness": 3400,
      "ready": 3401,
      "Ġvectors": 3402,
      "Ġremind": 3403,
      "Ġresid": 3404,
      "Ġrapid": 3405,
      "Ġcollection": 3406,
      "Ġprofessionals": 3407,
      "Ġimag": 3408,
      "Ġsubst": 3409,
      "urning": 3410,
      "Ġadvoc": 3411,
      "Ġrobust": 3412,
      "ĠNo": 3413,
      "Ġmagical": 3414,
      "istics": 3415,
      "Ġtrying": 3416,
      "Ġtechnologies": 3417,
      "irm": 3418,
      "12": 3419,
      "Ġpaper": 3420,
      "osen": 3421,
      "Ġmanage": 3422,
      "yth": 3423,
      "ĊĠĠĠ": 3424,
      "Ġconsequ": 3425,
      "urop": 3426,
      "Ġyear": 3427,
      "Ġalready": 3428,
      "ger": 3429,
      "Ġcreative": 3430,
      "ĠMay": 3431,
      "resh": 3432,
      "Ġcommitment": 3433,
      "ested": 3434,
      "Ġ\\*": 3435,
      "Ġcreativity": 3436,
      "Ġrati": 3437,
      "Ġstudying": 3438,
      "use": 3439,
      "elebr": 3440,
      "Ġaccurate": 3441,
      "Ġpressure": 3442,
      "Ġvide": 3443,
      "ĠResearch": 3444,
      "sych": 3445,
      "Ġsoon": 3446,
      "ification": 3447,
      "Ġappreciation": 3448,
      "Ġcreated": 3449,
      "Ġpresented": 3450,
      "log": 3451,
      "Ġspirit": 3452,
      "ĠSam": 3453,
      "ĠAccording": 3454,
      "Ġcontain": 3455,
      "Ġaverage": 3456,
      "Ġinteractions": 3457,
      "ingu": 3458,
      "Ġexhib": 3459,
      "ternal": 3460,
      "Ġcollective": 3461,
      "Ġvary": 3462,
      "Ġefficiency": 3463,
      "Ġbag": 3464,
      "asts": 3465,
      "ĠCom": 3466,
      "Ġbelow": 3467,
      "Ġnavigate": 3468,
      "Ġcircum": 3469,
      "Ġsituation": 3470,
      "Ġbelief": 3471,
      "itiz": 3472,
      "Ġscholars": 3473,
      "Ġmonth": 3474,
      "Ġdeveloping": 3475,
      "Ġknowing": 3476,
      "Ġeyes": 3477,
      "Ġcapable": 3478,
      "Ġperm": 3479,
      "Ġcenter": 3480,
      "Ġleast": 3481,
      "Ġadvance": 3482,
      "ata": 3483,
      "Ġinternational": 3484,
      "Ġdiscipl": 3485,
      "}$,": 3486,
      "Ġrepe": 3487,
      "Ġnormal": 3488,
      "Ġwhose": 3489,
      "Ġdrawing": 3490,
      "Ġwritten": 3491,
      "Ġfoundation": 3492,
      "Ġstress": 3493,
      "Ġpotentially": 3494,
      "Ġloss": 3495,
      "^{-": 3496,
      "Ġgovernment": 3497,
      "Ġrespective": 3498,
      "Ġtrack": 3499,
      "Ġapplied": 3500,
      "Ġloved": 3501,
      "Ġbeautiful": 3502,
      "Ġtable": 3503,
      "Ġempathy": 3504,
      "Ġlandscape": 3505,
      "Ġscenarios": 3506,
      "Ġmachine": 3507,
      "Ġtoward": 3508,
      "ull": 3509,
      "Ġimpl": 3510,
      "Ġdifficult": 3511,
      "Be": 3512,
      "Ġdidn": 3513,
      "ultiv": 3514,
      "oman": 3515,
      "Ġincrease": 3516,
      "Ġadventure": 3517,
      "Ġmid": 3518,
      "ows": 3519,
      "Ġpic": 3520,
      "dom": 3521,
      "Ġmarketing": 3522,
      "Ġgather": 3523,
      "Ġobject": 3524,
      "Ġturned": 3525,
      "arth": 3526,
      "ogether": 3527,
      "olic": 3528,
      "Ġchosen": 3529,
      "Ġdiscussions": 3530,
      "Ġwebs": 3531,
      ".$$": 3532,
      "Ġwin": 3533,
      "Ġfavorite": 3534,
      "Ġexpectations": 3535,
      "Ġsoftware": 3536,
      "iction": 3537,
      "Ġscal": 3538,
      "Ġenhancing": 3539,
      "Ġlive": 3540,
      "Ġfive": 3541,
      "âĤĤ": 3542,
      "And": 3543,
      "Ġimmedi": 3544,
      "})": 3545,
      "Ġwide": 3546,
      "Ġmatrices": 3547,
      "ĠLe": 3548,
      "Ġinterven": 3549,
      "ĠHello": 3550,
      "ole": 3551,
      "Ġintegration": 3552,
      "esis": 3553,
      "Ġinstruc": 3554,
      "Ġknew": 3555,
      "ĠDespite": 3556,
      "ancy": 3557,
      "Ġinherent": 3558,
      "Ġrew": 3559,
      "Ġsn": 3560,
      "Ġgrowing": 3561,
      "Ġsafe": 3562,
      "rep": 3563,
      "com": 3564,
      "Ġwriting": 3565,
      "orough": 3566,
      "Ġ...": 3567,
      "Ġunits": 3568,
      "Ġann": 3569,
      "Ġstatement": 3570,
      "Ġlived": 3571,
      "Ġrequirements": 3572,
      "Ġexec": 3573,
      "Ġmanufact": 3574,
      "Ġhands": 3575,
      "Ġmovement": 3576,
      "Ġage": 3577,
      "Ġstrategy": 3578,
      "$$\\": 3579,
      "ball": 3580,
      "Ġspread": 3581,
      "Ġreduce": 3582,
      "Ġhoriz": 3583,
      "ective": 3584,
      "eanwhile": 3585,
      "Ġalgorithms": 3586,
      "ded": 3587,
      "Ġhappens": 3588,
      "Ġdemonstrate": 3589,
      "Ġactual": 3590,
      "Ġleaving": 3591,
      "Ġmoney": 3592,
      "cell": 3593,
      "ĠHis": 3594,
      "Ġdou": 3595,
      "Ġgetting": 3596,
      "ĠEurop": 3597,
      "Ġgender": 3598,
      "Ġflex": 3599,
      "ĠJam": 3600,
      "Ġwind": 3601,
      "ĠJoh": 3602,
      "Ġable": 3603,
      "Ġorganization": 3604,
      "ĠPh": 3605,
      "cent": 3606,
      "ĠAss": 3607,
      "Ġviol": 3608,
      "Ġcolors": 3609,
      "Ġclar": 3610,
      "Ġequival": 3611,
      "Ġthereby": 3612,
      "Ġthreat": 3613,
      "Ġservice": 3614,
      "Ġprove": 3615,
      "Ġsimultaneously": 3616,
      "Ġdise": 3617,
      "acing": 3618,
      "Ġillustrate": 3619,
      "Ġacknow": 3620,
      "alpha": 3621,
      "Ġexpos": 3622,
      "Ġfellow": 3623,
      "Ġconnected": 3624,
      "ĠPer": 3625,
      "With": 3626,
      "Ġcelebr": 3627,
      "ĠDon": 3628,
      "ticed": 3629,
      "Ġliterature": 3630,
      "Ġanti": 3631,
      "da": 3632,
      "force": 3633,
      "Ġplayed": 3634,
      "Ġplayers": 3635,
      "Ġgames": 3636,
      "Ġcurious": 3637,
      "cer": 3638,
      "Ġactive": 3639,
      "itor": 3640,
      "Ġing": 3641,
      "Ġourselves": 3642,
      "onic": 3643,
      "'(": 3644,
      "Ġfinite": 3645,
      "Ġalongside": 3646,
      "AA": 3647,
      "icated": 3648,
      "Ġflu": 3649,
      "Ġmajor": 3650,
      "Ġcode": 3651,
      "Introduction": 3652,
      "Ġcustomers": 3653,
      "Ġste": 3654,
      "Ġheard": 3655,
      "ishing": 3656,
      "ails": 3657,
      "Ġchildren": 3658,
      "Ġconcerning": 3659,
      "Ġtriangle": 3660,
      "ĠMy": 3661,
      "ructure": 3662,
      "ticip": 3663,
      "Ġ12": 3664,
      "Ġlocation": 3665,
      "Ġroll": 3666,
      "Ġvib": 3667,
      "Ã©": 3668,
      "akes": 3669,
      "Ġdenoted": 3670,
      "ought": 3671,
      "Ġetc": 3672,
      "Ġtreatment": 3673,
      "af": 3674,
      "Ġfoot": 3675,
      "Ġord": 3676,
      "Ġtou": 3677,
      "Ġprep": 3678,
      "olute": 3679,
      "Ġclosely": 3680,
      "Ġsil": 3681,
      "Ġenable": 3682,
      "Ġcombining": 3683,
      "uel": 3684,
      "ĠStep": 3685,
      "Ġrecall": 3686,
      "Ġintro": 3687,
      "cl": 3688,
      "Ġir": 3689,
      "Ġclimate": 3690,
      "Ġcomplicated": 3691,
      "Ġgreen": 3692,
      "onds": 3693,
      "Ġassign": 3694,
      "Ġmaterial": 3695,
      "Ġexperienced": 3696,
      "odes": 3697,
      "Ġmanaging": 3698,
      "ĠMath": 3699,
      "Ġblue": 3700,
      "Ġpracticing": 3701,
      "ects": 3702,
      "Ġeffort": 3703,
      "Ġseg": 3704,
      "Ġrequiring": 3705,
      "Ġsettings": 3706,
      "ille": 3707,
      "ensity": 3708,
      "Ġdomain": 3709,
      "land": 3710,
      "iles": 3711,
      "ĠGuidelines": 3712,
      "Ġreally": 3713,
      "Ġcompanies": 3714,
      "Ġtransformation": 3715,
      "Ġimproved": 3716,
      "odies": 3717,
      "orph": 3718,
      "Ġconstraints": 3719,
      "ĠDr": 3720,
      "Ġdiversity": 3721,
      "Through": 3722,
      "he": 3723,
      "Ġreveal": 3724,
      "udden": 3725,
      "Ġconversation": 3726,
      "Ġemotional": 3727,
      "Ġconsequences": 3728,
      "Ġcalculations": 3729,
      "Ġdetermining": 3730,
      "Ġrepresented": 3731,
      "Ġrein": 3732,
      "Ġpossibilities": 3733,
      "urr": 3734,
      "ĠFr": 3735,
      "Ġenvironments": 3736,
      "ĠAf": 3737,
      "Ġindependent": 3738,
      "Ġhon": 3739,
      "rete": 3740,
      "Lastly": 3741,
      "omin": 3742,
      "Ġpreferences": 3743,
      "oon": 3744,
      "Ġwar": 3745,
      "Ġwon": 3746,
      "Ġjustice": 3747,
      "Ġtell": 3748,
      "Ġacqu": 3749,
      "Ġpuzz": 3750,
      "dx": 3751,
      "Ġfollowed": 3752,
      "Ġla": 3753,
      "Ġshowc": 3754,
      "Ġnetworks": 3755,
      "Ġyield": 3756,
      "ĠFinally": 3757,
      "ĠDevelop": 3758,
      "Ġproced": 3759,
      "oes": 3760,
      "Ġgiving": 3761,
      "__": 3762,
      "Ġdevices": 3763,
      "tif": 3764,
      "plying": 3765,
      "Ġtechnique": 3766,
      "Ġlearners": 3767,
      "Ġsustainable": 3768,
      "Ġscientists": 3769,
      "ĠInter": 3770,
      "Ġrecip": 3771,
      "Ġcolum": 3772,
      "Ġinterval": 3773,
      "tition": 3774,
      "Ġproceed": 3775,
      "Ġcustomer": 3776,
      "Ġinstitutions": 3777,
      "itch": 3778,
      "Ġcoo": 3779,
      "Ġpairs": 3780,
      "Ġconversations": 3781,
      "Ġchem": 3782,
      "Ġsummary": 3783,
      "ĠÏ": 3784,
      "ĠSec": 3785,
      "Ġsymmet": 3786,
      "Ġwanted": 3787,
      "Ġsocietal": 3788,
      "}$$": 3789,
      "Ġthing": 3790,
      "',": 3791,
      "Ġhom": 3792,
      "ultural": 3793,
      "Ġthemes": 3794,
      "Ġthorough": 3795,
      "ĠAll": 3796,
      "Ġpros": 3797,
      "Ġtransport": 3798,
      "Ġquad": 3799,
      "Ġgoes": 3800,
      "Ġstrategic": 3801,
      "auty": 3802,
      "Ġmotion": 3803,
      "Ġintegers": 3804,
      "Ġsubstit": 3805,
      "Ġmill": 3806,
      ")$.": 3807,
      "Ġreading": 3808,
      "Ġpreserving": 3809,
      "Ġstream": 3810,
      "Ġsample": 3811,
      "Ġmaximum": 3812,
      "ik": 3813,
      "Ġgene": 3814,
      "Ġcapac": 3815,
      "Ġtheorem": 3816,
      "Ġpsych": 3817,
      "Ġvel": 3818,
      "ĠTrans": 3819,
      "Ġdedicated": 3820,
      "Ġcausing": 3821,
      "Ġengineering": 3822,
      "Ġefficient": 3823,
      "========": 3824,
      "Ġcombined": 3825,
      "ilos": 3826,
      "Ġnoticed": 3827,
      "Ġeducational": 3828,
      "Ġshows": 3829,
      "Ġactivity": 3830,
      "very": 3831,
      "Ġquite": 3832,
      "inist": 3833,
      "Ġcoin": 3834,
      "ĠNot": 3835,
      "ĠGiven": 3836,
      "$:": 3837,
      "Ġtrig": 3838,
      "Ġseemed": 3839,
      "Ġguess": 3840,
      "Ġangles": 3841,
      "Ġturns": 3842,
      "tise": 3843,
      "Ġexternal": 3844,
      "Ġinfinite": 3845,
      "Ġconnecting": 3846,
      "Ġoperation": 3847,
      "ightly": 3848,
      "Ġbook": 3849,
      "ficial": 3850,
      "wide": 3851,
      "Ġeye": 3852,
      "Ġmaster": 3853,
      "co": 3854,
      "Ġexpressed": 3855,
      "Ġadded": 3856,
      "Ġjud": 3857,
      "ĠSe": 3858,
      "ban": 3859,
      "Ġvirt": 3860,
      "Ġmotiv": 3861,
      "dle": 3862,
      "Ġdepend": 3863,
      "Ġstudent": 3864,
      "Ġmiss": 3865,
      "cip": 3866,
      "Ġrot": 3867,
      "Ġbreath": 3868,
      "reg": 3869,
      "inates": 3870,
      "Ġconve": 3871,
      "Ġguidelines": 3872,
      "Ġrecognizing": 3873,
      "Ġmoments": 3874,
      "Ġpack": 3875,
      "outh": 3876,
      "Ġbeauty": 3877,
      "ography": 3878,
      "Ġdatas": 3879,
      "Ġseek": 3880,
      "icit": 3881,
      "Ġawareness": 3882,
      "ĠSuch": 3883,
      "Ġcentral": 3884,
      "Ġdivide": 3885,
      "Ġcells": 3886,
      "Ġregardless": 3887,
      "Ġguidance": 3888,
      "Ġconsideration": 3889,
      "rought": 3890,
      "matrix": 3891,
      "Ġsubsequ": 3892,
      "acters": 3893,
      "Ġgenerations": 3894,
      "Ġexperiment": 3895,
      "holders": 3896,
      "man": 3897,
      "Ġsix": 3898,
      "Ġoverl": 3899,
      "Ġstage": 3900,
      "tices": 3901,
      "Ġidentifying": 3902,
      "Ġapart": 3903,
      "ĠRed": 3904,
      "Ġword": 3905,
      "ĠPrac": 3906,
      "bda": 3907,
      "ourse": 3908,
      "Ġslow": 3909,
      "light": 3910,
      "Ġcultiv": 3911,
      "Ġcheck": 3912,
      "itig": 3913,
      "Ġperspective": 3914,
      "ĠCol": 3915,
      "Ġchoice": 3916,
      "entic": 3917,
      "Ġapproximately": 3918,
      "Ġtaken": 3919,
      "ott": 3920,
      "Ġintrig": 3921,
      "igma": 3922,
      "It": 3923,
      "ĠSc": 3924,
      "Ġkeeping": 3925,
      "oud": 3926,
      "ĠSch": 3927,
      "Ġveloc": 3928,
      "pper": 3929,
      "Ġrecomm": 3930,
      "eter": 3931,
      "Ġimplementing": 3932,
      "ĠIts": 3933,
      "cious": 3934,
      "usion": 3935,
      "Ġstake": 3936,
      "Ġlimited": 3937,
      "Ġimage": 3938,
      "Ġlaws": 3939,
      "ivil": 3940,
      "Ġlimits": 3941,
      "being": 3942,
      "Ġdialogue": 3943,
      "Ġdispar": 3944,
      "bre": 3945,
      "Ġresource": 3946,
      "Before": 3947,
      "acking": 3948,
      "Ġprofound": 3949,
      "Ġsounds": 3950,
      "Ġmechanisms": 3951,
      "Ġeigen": 3952,
      "Ġthird": 3953,
      "Ġsubt": 3954,
      "Ġdynamic": 3955,
      "ompass": 3956,
      "Ġconfidence": 3957,
      "Ġdocument": 3958,
      "|\\": 3959,
      "unch": 3960,
      "Ġpick": 3961,
      "uits": 3962,
      "Ġoutput": 3963,
      "Ġchance": 3964,
      "Ġfeature": 3965,
      "Ġmarbles": 3966,
      "lessly": 3967,
      "Ġnotable": 3968,
      "cing": 3969,
      "partial": 3970,
      "Ġresistance": 3971,
      "Ġexpertise": 3972,
      "ĠHer": 3973,
      "tr": 3974,
      "Ġasking": 3975,
      "ured": 3976,
      "iences": 3977,
      "ector": 3978,
      "Ġ18": 3979,
      "ffer": 3980,
      "Ġweak": 3981,
      "Ġelectric": 3982,
      "ellig": 3983,
      "haps": 3984,
      "Ġlimitations": 3985,
      "ĠIdenti": 3986,
      "Ġabilities": 3987,
      "Ġalone": 3988,
      "Ġempower": 3989,
      "ĠMod": 3990,
      "Ġpopulation": 3991,
      "cient": 3992,
      "Ġartists": 3993,
      "rit": 3994,
      "Ġselecting": 3995,
      "$)": 3996,
      "Ġhab": 3997,
      "ades": 3998,
      "gence": 3999,
      "Ġseen": 4000,
      "Ġreaders": 4001,
      "Ġimplies": 4002,
      "Ġcomponent": 4003,
      "Ġchoosing": 4004,
      "Ġmultiplication": 4005,
      "ĠCan": 4006,
      "Ġfocused": 4007,
      "Ġimproving": 4008,
      "Ġtemperature": 4009,
      "Ġseason": 4010,
      "Ġcountless": 4011,
      "Ġsem": 4012,
      "Ġvisit": 4013,
      "Ġtask": 4014,
      "Ġdecre": 4015,
      "ray": 4016,
      "Ġpredic": 4017,
      "rel": 4018,
      "Ġtranspar": 4019,
      "Ġtheore": 4020,
      "xi": 4021,
      "Ġhighlights": 4022,
      "*(": 4023,
      "Ġdimensions": 4024,
      "Ġmovements": 4025,
      "Ġdeeply": 4026,
      "Ġextract": 4027,
      "otal": 4028,
      "ĠTw": 4029,
      "Ġcompute": 4030,
      "eli": 4031,
      "Ġuncertain": 4032,
      "Ġinj": 4033,
      "Ġincludes": 4034,
      "Ġfast": 4035,
      "Ġeasily": 4036,
      "Ġremaining": 4037,
      "aign": 4038,
      "ĠCal": 4039,
      "Ġfully": 4040,
      "eterm": 4041,
      "Ġrestric": 4042,
      "Ġteams": 4043,
      "Ġamb": 4044,
      "ipped": 4045,
      "Ġvolume": 4046,
      "\\)": 4047,
      "Ġtransl": 4048,
      "Ġcharacters": 4049,
      "inding": 4050,
      "unction": 4051,
      "Ġtiny": 4052,
      "Ġmys": 4053,
      "Ġcontributing": 4054,
      "ĠUse": 4055,
      "Ġmicro": 4056,
      "Ġgets": 4057,
      "ĠWhether": 4058,
      "Ġnich": 4059,
      "Ġpositions": 4060,
      "Ġten": 4061,
      "Ġcard": 4062,
      "Ġcutting": 4063,
      "Ġri": 4064,
      "anges": 4065,
      "Ġprepar": 4066,
      "known": 4067,
      "Ġmerely": 4068,
      "Ġfa": 4069,
      "race": 4070,
      "efin": 4071,
      "Des": 4072,
      "Ġahead": 4073,
      "vent": 4074,
      "Ġbrought": 4075,
      "Ġabsolute": 4076,
      "Ġgained": 4077,
      "Ġdest": 4078,
      "Ġemotions": 4079,
      "Ġparticipants": 4080,
      "iors": 4081,
      "Ġpurch": 4082,
      "Ġmatters": 4083,
      "Ġmutual": 4084,
      "Ġeventually": 4085,
      "umbled": 4086,
      "Ġhelping": 4087,
      "Ġphilos": 4088,
      "Ġacademic": 4089,
      "Ġselect": 4090,
      "life": 4091,
      "Ġconsidered": 4092,
      "Ġcircumst": 4093,
      "ensional": 4094,
      "Ġlooks": 4095,
      "Ġwrite": 4096,
      "Ġinsight": 4097,
      "Ġresponsibility": 4098,
      "ĠBoth": 4099,
      "ĠAfric": 4100,
      "uine": 4101,
      "pris": 4102,
      "Ġmarg": 4103,
      "Ġmix": 4104,
      "Ġport": 4105,
      "Ġsaw": 4106,
      "Ġwhereas": 4107,
      "Ġnarratives": 4108,
      "Ġlabor": 4109,
      ")]": 4110,
      "Ġstandards": 4111,
      "ĠGo": 4112,
      "ĠChris": 4113,
      "Ġinitiatives": 4114,
      "Ġcraf": 4115,
      "prise": 4116,
      "Ġfamil": 4117,
      "Ġaffect": 4118,
      "actions": 4119,
      "Ġstability": 4120,
      "Ġmagic": 4121,
      "II": 4122,
      "Ġcombinations": 4123,
      "Ġefficiently": 4124,
      "Ġmultiplying": 4125,
      "oli": 4126,
      "Ġequip": 4127,
      "Ġfinally": 4128,
      "lusive": 4129,
      "50": 4130,
      "Ġwait": 4131,
      "Ġalgebraic": 4132,
      "asp": 4133,
      "Ġcomputing": 4134,
      "Ġreson": 4135,
      ");": 4136,
      "Firstly": 4137,
      "Ġarchit": 4138,
      "Ġsent": 4139,
      "order": 4140,
      "roll": 4141,
      "Ġimprovement": 4142,
      "rich": 4143,
      "ĠAI": 4144,
      "Ġpersist": 4145,
      "ĠSet": 4146,
      "18": 4147,
      "Ġ${": 4148,
      "ups": 4149,
      "Ġoffic": 4150,
      "Ġaccordingly": 4151,
      "bility": 4152,
      "Ġexplained": 4153,
      "Ġconnect": 4154,
      "pped": 4155,
      ".$": 4156,
      "que": 4157,
      "Ġunf": 4158,
      "osph": 4159,
      "Ġcontains": 4160,
      "ills": 4161,
      "Ġeager": 4162,
      "rees": 4163,
      "unit": 4164,
      "Ġideal": 4165,
      "oor": 4166,
      "Ġotherwise": 4167,
      "Ġbuilt": 4168,
      "Ġencompass": 4169,
      "Ġfeeling": 4170,
      "Ġreduced": 4171,
      "Ġparties": 4172,
      "Ġnetwork": 4173,
      "arant": 4174,
      "Ġobserv": 4175,
      "Ġask": 4176,
      "lear": 4177,
      "Ġnecessit": 4178,
      "Ġexpans": 4179,
      "Ġtackle": 4180,
      "Ġcultures": 4181,
      "Ġaudience": 4182,
      "ĠSer": 4183,
      "celer": 4184,
      "Ġ(\\": 4185,
      "Ġdebates": 4186,
      "osed": 4187,
      "Ġgenuine": 4188,
      "ressive": 4189,
      "Ġseparate": 4190,
      "illing": 4191,
      "Ġsource": 4192,
      "Ġchann": 4193,
      "Ġstronger": 4194,
      "Ġexpected": 4195,
      "Ġpatient": 4196,
      "Ġemerging": 4197,
      "ference": 4198,
      "Ġexplicit": 4199,
      "arrow": 4200,
      "Ġthri": 4201,
      "Ġweek": 4202,
      "phi": 4203,
      "Ġbrand": 4204,
      "aff": 4205,
      "Ġunders": 4206,
      "elta": 4207,
      "Ġaccuracy": 4208,
      "Ġnavigating": 4209,
      "Ġcitiz": 4210,
      "Ġsymbol": 4211,
      "Ġtheoretical": 4212,
      "Ġprotect": 4213,
      "Ġerror": 4214,
      "Ġmaybe": 4215,
      "Ġattemp": 4216,
      "Ġbenefit": 4217,
      "ĠEarth": 4218,
      "Ġoffered": 4219,
      "Ġcircumstances": 4220,
      "Ġembark": 4221,
      "uil": 4222,
      "Ġtend": 4223,
      "Ġsequences": 4224,
      "Ġrect": 4225,
      "Ġacknowled": 4226,
      "ĠBen": 4227,
      "Ġcandid": 4228,
      "Ġlikely": 4229,
      "Ġincred": 4230,
      "Ġintegrating": 4231,
      "Ġcollect": 4232,
      "Ġheat": 4233,
      "ĠStr": 4234,
      "Ġlooked": 4235,
      "oke": 4236,
      "Ġtesting": 4237,
      "Ġcriter": 4238,
      "inated": 4239,
      "Ġdividing": 4240,
      "oints": 4241,
      "Ġcapabilities": 4242,
      "Ġstands": 4243,
      "Ġcompar": 4244,
      "Ġhouse": 4245,
      "Ġchapter": 4246,
      "ĠNon": 4247,
      "ĠKey": 4248,
      "Ġprice": 4249,
      "Ġanything": 4250,
      "Ġcam": 4251,
      "Ġleaders": 4252,
      "Ġobjectives": 4253,
      "mathcal": 4254,
      "Ġ#": 4255,
      "Ġthoughts": 4256,
      "Ġuncover": 4257,
      "Ġscenario": 4258,
      "Ġgenerate": 4259,
      "Ġcampaign": 4260,
      "Ġpatients": 4261,
      "Ġniche": 4262,
      "ket": 4263,
      "Ġprioriti": 4264,
      "Ġstakeholders": 4265,
      "ĠMathema": 4266,
      "ĠGr": 4267,
      "Ġcharacteristics": 4268,
      "uries": 4269,
      "essions": 4270,
      "Ġdiss": 4271,
      "Ġcountries": 4272,
      "Ġsubsequent": 4273,
      "ls": 4274,
      "ev": 4275,
      "Example": 4276,
      "Ġfacing": 4277,
      "Ġwis": 4278,
      "ellect": 4279,
      "{(": 4280,
      "alls": 4281,
      "Ġproduce": 4282,
      "angles": 4283,
      "Have": 4284,
      "ĠRep": 4285,
      "}_": 4286,
      "Ġcapture": 4287,
      "Ġspeaking": 4288,
      "Ġauthentic": 4289,
      "Ġfresh": 4290,
      "Ġassum": 4291,
      "Ġtechnical": 4292,
      "Ġlat": 4293,
      "rics": 4294,
      "Ġskin": 4295,
      "Ġcop": 4296,
      "ilon": 4297,
      "Ġnews": 4298,
      "utri": 4299,
      "Ġevaluating": 4300,
      "Ġintroduced": 4301,
      "^(": 4302,
      "Ġearn": 4303,
      "Ġaudiences": 4304,
      "Ġrecognize": 4305,
      "Ġtap": 4306,
      "enew": 4307,
      "ĠGod": 4308,
      "Ġiden": 4309,
      "oose": 4310,
      "Ġvast": 4311,
      "Ġmast": 4312,
      "Ġwonder": 4313,
      "Ġcareer": 4314,
      "Â°": 4315,
      "Ġsecure": 4316,
      "Ġcause": 4317,
      "Once": 4318,
      "yl": 4319,
      "Ġcoefficients": 4320,
      "Ġobserve": 4321,
      "which": 4322,
      "Ġlistening": 4323,
      "Ġpolitics": 4324,
      "Ġtax": 4325,
      "Ġreligious": 4326,
      "Ġstyle": 4327,
      "Ġseam": 4328,
      "Ġassumptions": 4329,
      "Ġhealthy": 4330,
      "Ġrealm": 4331,
      "Ġimages": 4332,
      "Ġinternal": 4333,
      "ĠQu": 4334,
      "Welcome": 4335,
      "dim": 4336,
      "Ġartis": 4337,
      "Ġpreviously": 4338,
      "Ġbud": 4339,
      "Ġsex": 4340,
      "Ġconser": 4341,
      "Ġguarant": 4342,
      "Ġanimals": 4343,
      "Ġintroduce": 4344,
      "ulner": 4345,
      "ĠOp": 4346,
      "Ġcrim": 4347,
      "Ġiter": 4348,
      "iance": 4349,
      "Ġincreases": 4350,
      "Ġminimize": 4351,
      "ĨĴ": 4352,
      "Ġsus": 4353,
      "Ġcountry": 4354,
      "Ġcapital": 4355,
      "Ġhighlight": 4356,
      "Ġep": 4357,
      "Ġvibrant": 4358,
      "Ġcry": 4359,
      "Ġpresence": 4360,
      "Ġmyself": 4361,
      "Ġlack": 4362,
      "Ġphysics": 4363,
      "ĠDuring": 4364,
      "Ġstumbled": 4365,
      "Ġancient": 4366,
      "Ġdefinitions": 4367,
      "11": 4368,
      "hand": 4369,
      "Ġcontributions": 4370,
      "bo": 4371,
      "puts": 4372,
      "Ġbust": 4373,
      "Ġtells": 4374,
      "}}{": 4375,
      "Ġtrade": 4376,
      "Ġfacilitate": 4377,
      "Ġnorms": 4378,
      "Ġconsists": 4379,
      "az": 4380,
      "Ġbeliefs": 4381,
      "Ġinvestment": 4382,
      "}=": 4383,
      "Ġpopulations": 4384,
      "Ġratio": 4385,
      "Ġvelocity": 4386,
      "Ġmemory": 4387,
      "Ġreflec": 4388,
      "ĠChristi": 4389,
      "lambda": 4390,
      "iration": 4391,
      "vals": 4392,
      "Ġprimarily": 4393,
      "ords": 4394,
      "ideline": 4395,
      "iet": 4396,
      "Ġbur": 4397,
      "Ġregions": 4398,
      "Ġphilosoph": 4399,
      "quality": 4400,
      "Ġmessage": 4401,
      "ift": 4402,
      "Ġdemoc": 4403,
      "ibly": 4404,
      "Ġreality": 4405,
      "Ġregul": 4406,
      "olve": 4407,
      "Ġingred": 4408,
      "Ġderived": 4409,
      "`,": 4410,
      "Ġaccurately": 4411,
      "Ġdescribe": 4412,
      "Ġintellig": 4413,
      "Ġtechnological": 4414,
      "Ġranging": 4415,
      "Ġdisplay": 4416,
      "ĠTechn": 4417,
      "enses": 4418,
      "Ġerrors": 4419,
      "gr": 4420,
      "Ġusage": 4421,
      "Ġfixed": 4422,
      "Ġnight": 4423,
      "ĠCre": 4424,
      "Ġspent": 4425,
      "ppose": 4426,
      "icious": 4427,
      "Ġdiscovery": 4428,
      "Ġpurpose": 4429,
      "Ġbecoming": 4430,
      "Ġchec": 4431,
      "Ġlate": 4432,
      "Ġmeeting": 4433,
      "Ġspot": 4434,
      "ĠMed": 4435,
      "Ġoutcome": 4436,
      "Ġbarri": 4437,
      "acement": 4438,
      "Ġcraft": 4439,
      "Ġpa": 4440,
      "Ġphenomena": 4441,
      "itting": 4442,
      "hic": 4443,
      "way": 4444,
      "Ġlonger": 4445,
      "Ġinstr": 4446,
      "Ġweb": 4447,
      "ky": 4448,
      "Ġinverse": 4449,
      "Ġclosed": 4450,
      "Ġnational": 4451,
      "Ġdegree": 4452,
      "Ġperp": 4453,
      "Ġworldwide": 4454,
      "Ġvulner": 4455,
      "Ġprocessing": 4456,
      "ĠMax": 4457,
      "Ġbreaking": 4458,
      "Ġarchitect": 4459,
      "Ġq": 4460,
      "Ġhost": 4461,
      "Ġhighlighting": 4462,
      "Ġinstances": 4463,
      "Ġfamilies": 4464,
      "Ġallowed": 4465,
      "],": 4466,
      "ugh": 4467,
      "Ġinstall": 4468,
      "Ġsched": 4469,
      "ronic": 4470,
      "Ġundersc": 4471,
      "Ġexcell": 4472,
      "Ġexplan": 4473,
      "Ġdemonstrated": 4474,
      "*}": 4475,
      "Ġrh": 4476,
      "Ġcalculated": 4477,
      "Ġimpacts": 4478,
      "ĠCar": 4479,
      "eral": 4480,
      "ville": 4481,
      "Ġcat": 4482,
      "apan": 4483,
      "Ġadvancements": 4484,
      "rary": 4485,
      "Ġbit": 4486,
      "Ġmatch": 4487,
      "Ġoption": 4488,
      "Ġexplored": 4489,
      "Ġabst": 4490,
      "mar": 4491,
      "Ġpredict": 4492,
      "Ġarbit": 4493,
      "Ġcentury": 4494,
      "mod": 4495,
      "urance": 4496,
      "`.": 4497,
      "fl": 4498,
      "Ġoppos": 4499,
      "oved": 4500,
      "Ġvideo": 4501,
      "Ġpeace": 4502,
      "Ġformed": 4503,
      "ĠTogether": 4504,
      "####": 4505,
      "Ġdemonstrating": 4506,
      "Ġsle": 4507,
      "ĠOb": 4508,
      "fficient": 4509,
      "book": 4510,
      "Ġpowers": 4511,
      "{{": 4512,
      "Ġwave": 4513,
      "Ġunity": 4514,
      "Ġmist": 4515,
      "Ġpatience": 4516,
      "Ġneighbor": 4517,
      "Pro": 4518,
      "atically": 4519,
      "Ġuses": 4520,
      "Ġcontrast": 4521,
      "Ġkids": 4522,
      "Ġfrequently": 4523,
      "Ġacceler": 4524,
      "Ġobst": 4525,
      "Ġ}": 4526,
      "fy": 4527,
      "ĠEnc": 4528,
      "Ġintellect": 4529,
      "ĠMe": 4530,
      "Ġrace": 4531,
      "Ġcell": 4532,
      "ĠExamples": 4533,
      "Ġcomprehension": 4534,
      "elihood": 4535,
      "uate": 4536,
      "Ġisol": 4537,
      "Ġprivacy": 4538,
      "omorph": 4539,
      "Ġprotection": 4540,
      "rical": 4541,
      "Ġ100": 4542,
      "Ġreput": 4543,
      "Ġsubject": 4544,
      "Ġdx": 4545,
      "Ġparalle": 4546,
      "Ġlik": 4547,
      "Ġbustling": 4548,
      "utive": 4549,
      "Ġdiving": 4550,
      "Ġsuppose": 4551,
      "Ġdesigns": 4552,
      "Ġexcess": 4553,
      "Ġhappened": 4554,
      "Ġcou": 4555,
      "Ġadvantages": 4556,
      "Ġarise": 4557,
      "Ġdiscussed": 4558,
      "Ġgot": 4559,
      "Ġdeveloped": 4560,
      "Throughout": 4561,
      "inant": 4562,
      "otes": 4563,
      "ĠMark": 4564,
      "Ġmitig": 4565,
      "16": 4566,
      "Ġleadership": 4567,
      "Ġbehaviors": 4568,
      "Ġready": 4569,
      "Ġclin": 4570,
      "edge": 4571,
      "Ġballs": 4572,
      "Ġwent": 4573,
      "off": 4574,
      "Ġtree": 4575,
      "Ġcitizens": 4576,
      "Ġdenomin": 4577,
      "Ġstrict": 4578,
      "ĠEven": 4579,
      "bon": 4580,
      "Ġplans": 4581,
      "Ġfaster": 4582,
      "tiveness": 4583,
      "Ġdifferenti": 4584,
      "Ġextensive": 4585,
      "Ġcompass": 4586,
      "Ġrenew": 4587,
      "Ġ15": 4588,
      "Ġdiagn": 4589,
      "What": 4590,
      "Ġevaluate": 4591,
      "iving": 4592,
      "Ġsimplify": 4593,
      "Ġdamage": 4594,
      "Ġargue": 4595,
      "Ġsubstanti": 4596,
      "azing": 4597,
      "Ġboxes": 4598,
      "Ġpicture": 4599,
      "Ġrac": 4600,
      "Ġmedic": 4601,
      "Ġdriving": 4602,
      "ĠMeanwhile": 4603,
      "Ġexercise": 4604,
      "iform": 4605,
      "Ġminds": 4606,
      "turing": 4607,
      "Ġfeelings": 4608,
      "ln": 4609,
      "Ġdemands": 4610,
      "Ġspark": 4611,
      "Ġsatisfying": 4612,
      "Ġcreates": 4613,
      "Ġtraditions": 4614,
      "Ġalloc": 4615,
      "inent": 4616,
      "acies": 4617,
      "Ġuseful": 4618,
      "Ġwisdom": 4619,
      "dis": 4620,
      "rastructure": 4621,
      "Ġcandies": 4622,
      "Ġcompetition": 4623,
      "Ġcontact": 4624,
      "Ġsustainability": 4625,
      "Ġrefin": 4626,
      "Ġprincip": 4627,
      "ĠJapan": 4628,
      "Ġknows": 4629,
      "erge": 4630,
      "Ġexamination": 4631,
      "ĠTimmy": 4632,
      "Ġslightly": 4633,
      "Ġcapacity": 4634,
      "Ġaffor": 4635,
      "Ġmultiply": 4636,
      "Ġseems": 4637,
      "unately": 4638,
      "axis": 4639,
      "Ġrational": 4640,
      "uddenly": 4641,
      "While": 4642,
      "ads": 4643,
      "ĠPers": 4644,
      "Ġmyster": 4645,
      "Ġvoice": 4646,
      "Ġlanguages": 4647,
      "dimensional": 4648,
      "uilding": 4649,
      "ught": 4650,
      "inom": 4651,
      "Ġmonths": 4652,
      "Since": 4653,
      "Ġextre": 4654,
      "esty": 4655,
      "rief": 4656,
      "Ġsuitable": 4657,
      "Ġconstruction": 4658,
      "hips": 4659,
      "uration": 4660,
      "Ġbran": 4661,
      "Ġsupporting": 4662,
      "Ġrely": 4663,
      "Ġdefining": 4664,
      "une": 4665,
      "Ġanyone": 4666,
      "Ġvarying": 4667,
      "Ġwaiting": 4668,
      "nal": 4669,
      "Ġvehic": 4670,
      "Ġemploying": 4671,
      "Ġcarry": 4672,
      "Ġsessions": 4673,
      "Ġcomparing": 4674,
      "Ġdiscrim": 4675,
      "Ġhelped": 4676,
      "iding": 4677,
      "Ġdegrees": 4678,
      "Ġdedication": 4679,
      "Ġcogn": 4680,
      "Ġdepends": 4681,
      "Ġcreation": 4682,
      "avors": 4683,
      "Ġrespond": 4684,
      "son": 4685,
      "ung": 4686,
      "Ġpen": 4687,
      "15": 4688,
      "AT": 4689,
      "Ġencourage": 4690,
      "Ġcaused": 4691,
      "Ġtopic": 4692,
      "Ġreaching": 4693,
      "There": 4694,
      "Ġformal": 4695,
      "ĠCommun": 4696,
      "ĠTheorem": 4697,
      "App": 4698,
      "Ġexcit": 4699,
      "Ġinvestigation": 4700,
      "tt": 4701,
      "eign": 4702,
      "Ġsports": 4703,
      "nected": 4704,
      "Ġfosters": 4705,
      "Ġequipment": 4706,
      "itoring": 4707,
      "gen": 4708,
      "Ġcivil": 4709,
      "Ġsigns": 4710,
      "Ġstatus": 4711,
      "Ġhimself": 4712,
      "Ġoutl": 4713,
      "Ġurban": 4714,
      "Ġcontexts": 4715,
      "ĠĊ": 4716,
      "Ġopin": 4717,
      "Ġdifferential": 4718,
      "Ġconfig": 4719,
      "Ġagreed": 4720,
      "leq": 4721,
      "Ġidentical": 4722,
      "Ġwaves": 4723,
      "Ġpaths": 4724,
      "Ġalgorithm": 4725,
      "coming": 4726,
      "iversity": 4727,
      "Ġfilm": 4728,
      "point": 4729,
      "jective": 4730,
      "ffic": 4731,
      "Ġutilizing": 4732,
      "uded": 4733,
      "Ġdivis": 4734,
      "Ġfear": 4735,
      "Ġflexibility": 4736,
      "Ġodd": 4737,
      "'.": 4738,
      "Ġfrequency": 4739,
      "Ġregulations": 4740,
      "Ġresponses": 4741,
      "Ġsales": 4742,
      "Ġclients": 4743,
      "esthe": 4744,
      "ĠSure": 4745,
      "Ġexistence": 4746,
      "Ġdream": 4747,
      "Ġstatistical": 4748,
      "Ġroc": 4749,
      "Ġmap": 4750,
      "Ġexchange": 4751,
      "here": 4752,
      "raction": 4753,
      "Ġdemonstrates": 4754,
      "arith": 4755,
      "Ġinner": 4756,
      "Ġforming": 4757,
      "Ġplane": 4758,
      "Ġintersection": 4759,
      "Ġfigures": 4760,
      "/(": 4761,
      "lor": 4762,
      "Ġcriteria": 4763,
      "box": 4764,
      "Ġlikelihood": 4765,
      "Ġprogramming": 4766,
      "Ġachieving": 4767,
      "Ġ199": 4768,
      "Ġstrengths": 4769,
      "eted": 4770,
      "Ġcategories": 4771,
      "Ġinfrastructure": 4772,
      "Despite": 4773,
      "Ġpartnership": 4774,
      "Ġemerged": 4775,
      "Ġpan": 4776,
      "Ġbooks": 4777,
      "ert": 4778,
      "ament": 4779,
      "Ġbrain": 4780,
      "Ġtruth": 4781,
      "Ġobjective": 4782,
      "Ġpractical": 4783,
      "Ġsurprise": 4784,
      "Ġwhite": 4785,
      "Ġtwist": 4786,
      "Ġmarginal": 4787,
      "ned": 4788,
      "umber": 4789,
      "Ġencourages": 4790,
      "ĠNote": 4791,
      "Ġexposure": 4792,
      "Ġexcitement": 4793,
      "ĊĠĠĠĠ": 4794,
      "Ġoccurs": 4795,
      "Ġimmers": 4796,
      "dy": 4797,
      "25": 4798,
      "Ġplot": 4799,
      "Ġbrid": 4800,
      "ools": 4801,
      "eel": 4802,
      "Ġmoves": 4803,
      "place": 4804,
      "Ġrise": 4805,
      "Ġframeworks": 4806,
      "Gu": 4807,
      "Ġnutri": 4808,
      "ister": 4809,
      "Ġenrich": 4810,
      "Ġcharg": 4811,
      "group": 4812,
      "Ġperforming": 4813,
      "Ġstyles": 4814,
      "metic": 4815,
      "nesses": 4816,
      "Ġslope": 4817,
      "ystems": 4818,
      "Ġcombination": 4819,
      "Ġhandling": 4820,
      "Ġdetermined": 4821,
      "ĠPre": 4822,
      "Ġequality": 4823,
      "Ġsquares": 4824,
      "ĠExpl": 4825,
      "Ġunivers": 4826,
      "riend": 4827,
      "Ġidentities": 4828,
      "ai": 4829,
      "ĠUltimately": 4830,
      "Ġrunning": 4831,
      "ometric": 4832,
      "Ġedge": 4833,
      "otyp": 4834,
      "ĠEqu": 4835,
      "Ġmastering": 4836,
      "ocial": 4837,
      "Ġconcl": 4838,
      "Ġshed": 4839,
      "Ġinteraction": 4840,
      "Ġnearby": 4841,
      "Ġbott": 4842,
      "Ġfuel": 4843,
      "ged": 4844,
      "Ġaffecting": 4845,
      "ounds": 4846,
      "faces": 4847,
      "Ġbrow": 4848,
      "Ġhear": 4849,
      "uality": 4850,
      "Ġcompl": 4851,
      "Ġequivalent": 4852,
      "uro": 4853,
      "ĠHave": 4854,
      "mosph": 4855,
      "most": 4856,
      "Ġlost": 4857,
      "Ġwellbeing": 4858,
      "Ġperiods": 4859,
      "Ġsuccessfully": 4860,
      "Ġparameters": 4861,
      "Ġgrasp": 4862,
      "Ġsuggested": 4863,
      "Our": 4864,
      "Ġdevelopments": 4865,
      "Ġspect": 4866,
      "Ġartistic": 4867,
      "whel": 4868,
      "Ġderivatives": 4869,
      "Ġwit": 4870,
      "Ġobservations": 4871,
      "atively": 4872,
      "Ġdivided": 4873,
      "aks": 4874,
      "tis": 4875,
      "icians": 4876,
      "You": 4877,
      "Ġtransparency": 4878,
      "||": 4879,
      "Ġment": 4880,
      ".âĢĿ": 4881,
      "pre": 4882,
      "asting": 4883,
      "Ġplants": 4884,
      "ĠNever": 4885,
      "amiliar": 4886,
      "Ġtransc": 4887,
      "Ġcub": 4888,
      "Ġconcent": 4889,
      "Ġmarkets": 4890,
      "Ġradius": 4891,
      "ĠDisc": 4892,
      "Ġheavily": 4893,
      "Ġplaces": 4894,
      "anning": 4895,
      "Ġdetermination": 4896,
      "Ġfem": 4897,
      "ror": 4898,
      "Ġscr": 4899,
      "Ġdu": 4900,
      "ipping": 4901,
      "Ġgoverning": 4902,
      "Ġsecret": 4903,
      "Ġ16": 4904,
      "Ġreceive": 4905,
      "Ġexten": 4906,
      "ĠCo": 4907,
      "ĠJamie": 4908,
      "Ġintellectual": 4909,
      "imal": 4910,
      "Ġapples": 4911,
      "Ġmanaged": 4912,
      "ectors": 4913,
      ")+": 4914,
      "iled": 4915,
      "Ġlink": 4916,
      "dfrac": 4917,
      "Ġprocedures": 4918,
      "Ġelim": 4919,
      "Ġdouble": 4920,
      "Ġalter": 4921,
      "Ġtour": 4922,
      "orders": 4923,
      "irect": 4924,
      "itivity": 4925,
      "ticism": 4926,
      "Ġrespectively": 4927,
      "Ġpractition": 4928,
      "Ġbarriers": 4929,
      "Ġremark": 4930,
      "Ġalthough": 4931,
      "Ġstic": 4932,
      "These": 4933,
      "Ġhypoth": 4934,
      "Ġminutes": 4935,
      "Ġjoy": 4936,
      "Ġcontinues": 4937,
      "Re": 4938,
      "Ġworked": 4939,
      "Ġoptimization": 4940,
      "Ġengaged": 4941,
      "Ġinspire": 4942,
      "antly": 4943,
      "Ġdisciplines": 4944,
      "Ġstore": 4945,
      "Ġperhaps": 4946,
      "Ġsymbols": 4947,
      "Ġminimizing": 4948,
      "Ġquadratic": 4949,
      "rin": 4950,
      "bl": 4951,
      "points": 4952,
      "Ġplayer": 4953,
      "Ġcorner": 4954,
      "issions": 4955,
      "Ġchannels": 4956,
      "Ġobserved": 4957,
      "mu": 4958,
      "Ġsoph": 4959,
      "Ġbir": 4960,
      "Ġanswers": 4961,
      "Ġhorizon": 4962,
      "och": 4963,
      "ĠUnited": 4964,
      "ners": 4965,
      "Ġsignal": 4966,
      "Ġreport": 4967,
      "ĊĠĠ": 4968,
      "Ġevolving": 4969,
      "Ġdesigning": 4970,
      "Ġdisapp": 4971,
      "Ġreflecting": 4972,
      "zero": 4973,
      "titude": 4974,
      "Ġraised": 4975,
      "ĠWar": 4976,
      "Ġsubset": 4977,
      "ompl": 4978,
      "Ġappears": 4979,
      "}_{": 4980,
      "Ġcompare": 4981,
      "Ġpropor": 4982,
      "Moreover": 4983,
      "Ġfreed": 4984,
      "ĠAre": 4985,
      "Ġatmosph": 4986,
      "Ġobstac": 4987,
      "Ġproving": 4988,
      "Ġaims": 4989,
      "Ġemployed": 4990,
      "ĠWorld": 4991,
      "ĠChina": 4992,
      "urb": 4993,
      "ulating": 4994,
      "Ġaesthe": 4995,
      "Ġcars": 4996,
      "Ġnod": 4997,
      "mon": 4998,
      "Ġconsiderations": 4999,
      "Ġproposed": 5000,
      "Ġcoordinates": 5001,
      "Ġspecialized": 5002,
      "Ġstring": 5003,
      "Ġmanif": 5004,
      "Ġamazing": 5005,
      "Ġsat": 5006,
      "aching": 5007,
      "Ġstor": 5008,
      "Ġcompassion": 5009,
      "Ġprobabilities": 5010,
      "Ġafford": 5011,
      "Ġclasses": 5012,
      "Ġpoll": 5013,
      "bal": 5014,
      "Ġecos": 5015,
      "iers": 5016,
      "Ġmusc": 5017,
      "Ġshift": 5018,
      "room": 5019,
      "Ġquantities": 5020,
      "ifications": 5021,
      "Ġcorresponds": 5022,
      "arian": 5023,
      "Ġconfid": 5024,
      "Ġdistances": 5025,
      "ĠSub": 5026,
      "etheless": 5027,
      "Ġnumerical": 5028,
      "Ġsnipp": 5029,
      "Ġcomprom": 5030,
      "ĠMon": 5031,
      "inter": 5032,
      "pe": 5033,
      "ĠAmerica": 5034,
      "ĠJohn": 5035,
      "Ġtaught": 5036,
      "Ġheld": 5037,
      "Ġbuy": 5038,
      "Ġsizes": 5039,
      "arness": 5040,
      "Ġsophistic": 5041,
      "Ġhers": 5042,
      "ĠAnalysis": 5043,
      "raw": 5044,
      "Ġconsistency": 5045,
      "Ġfunctional": 5046,
      "Ġimplementation": 5047,
      "Ġcaptiv": 5048,
      "After": 5049,
      "Ġaccompl": 5050,
      "ĠMar": 5051,
      "anks": 5052,
      "ĠCent": 5053,
      "Ġ($\\": 5054,
      "Ġtransfer": 5055,
      "Ġorigin": 5056,
      "ĠSometimes": 5057,
      "Ġexercises": 5058,
      "Ġqual": 5059,
      "amma": 5060,
      "Ġassume": 5061,
      "----------": 5062,
      "Ġcomputational": 5063,
      "Ġtrick": 5064,
      "Ġdrawn": 5065,
      "Ġminimum": 5066,
      "Ġgas": 5067,
      "//": 5068,
      "dt": 5069,
      "Ġreceived": 5070,
      "Ġvirtual": 5071,
      "Ġgenerating": 5072,
      "Ġsections": 5073,
      "Ġthanks": 5074,
      "Ġgeometric": 5075,
      "ĠÂ": 5076,
      "Ġgenerated": 5077,
      "Ġsuggests": 5078,
      "Ġchemical": 5079,
      "Ġproof": 5080,
      "Ġintu": 5081,
      "Ġweather": 5082,
      "Ġ{\\": 5083,
      "Ġbodies": 5084,
      "Ġcer": 5085,
      "Ġabstract": 5086,
      "Ġnegoti": 5087,
      "ĠGe": 5088,
      "Ġincome": 5089,
      "ections": 5090,
      "Ġhence": 5091,
      "Ġtransformed": 5092,
      "Ġaf": 5093,
      "Ġprioritize": 5094,
      "Ġsmart": 5095,
      "Ġthoughtful": 5096,
      "empl": 5097,
      "ĠRegular": 5098,
      "Ġconsumers": 5099,
      "Ġwebsite": 5100,
      "Ġring": 5101,
      "ĠAg": 5102,
      "Ġrecognition": 5103,
      "Ġcounting": 5104,
      "Ġspecies": 5105,
      "Ġencouraging": 5106,
      "Ġcontributes": 5107,
      "Ġfaith": 5108,
      "ieties": 5109,
      "step": 5110,
      "ublish": 5111,
      "Ġshowing": 5112,
      "Ġtac": 5113,
      "Ġcontroll": 5114,
      "Ġselection": 5115,
      "erman": 5116,
      "ara": 5117,
      "ithmetic": 5118,
      "Ġexcep": 5119,
      "Ġprote": 5120,
      "Ġske": 5121,
      "\\\\": 5122,
      "rial": 5123,
      "iber": 5124,
      "ĠSm": 5125,
      "Ġmessages": 5126,
      "ĠEncour": 5127,
      "Ġpractitioners": 5128,
      "Ġcris": 5129,
      "aly": 5130,
      "Ġserved": 5131,
      "Ġincorporate": 5132,
      "ĠDis": 5133,
      "Ġalle": 5134,
      "Ġinterview": 5135,
      "Ġhop": 5136,
      "Ġchain": 5137,
      "rm": 5138,
      "Ġversion": 5139,
      "Ġcompetitive": 5140,
      "Ġsubstantial": 5141,
      "Ġevolution": 5142,
      "racting": 5143,
      "Ġintelligence": 5144,
      "Ġintriguing": 5145,
      "ĠDec": 5146,
      "Ġhous": 5147,
      ")|": 5148,
      "Ġtransportation": 5149,
      "Ġconsistently": 5150,
      "Ġtalent": 5151,
      "olds": 5152,
      "Ġfraction": 5153,
      "Ġobtained": 5154,
      "Ġnur": 5155,
      "ĠAv": 5156,
      "umption": 5157,
      "Ġuniform": 5158,
      "Ġdisease": 5159,
      "ĠExp": 5160,
      "Ġprecisely": 5161,
      "ĠLear": 5162,
      "Ġvision": 5163,
      "Ġdescribed": 5164,
      "Ġschools": 5165,
      "xy": 5166,
      "ĠMake": 5167,
      "Ġvs": 5168,
      "Ġsought": 5169,
      "Ġconvergence": 5170,
      "Ġgrand": 5171,
      "Ġlogarith": 5172,
      "Ġarguments": 5173,
      "Ġsatisfaction": 5174,
      "Ġgrapp": 5175,
      "tor": 5176,
      "Ġparents": 5177,
      "...,": 5178,
      "itage": 5179,
      "Ġeffect": 5180,
      "oding": 5181,
      "NA": 5182,
      "Ġcompelling": 5183,
      "Ġamounts": 5184,
      "Ġconflicts": 5185,
      "Ġinspired": 5186,
      "}=\\": 5187,
      "}+": 5188,
      "((": 5189,
      "asons": 5190,
      "ĠHigh": 5191,
      "Ġrecover": 5192,
      "Ġingredients": 5193,
      "Ġdenominator": 5194,
      "Ġwaste": 5195,
      "solving": 5196,
      "Ġcircles": 5197,
      "Ġlabel": 5198,
      "Ġargument": 5199,
      "Ġinvesting": 5200,
      "âĪļ": 5201,
      "ils": 5202,
      "Ġreflection": 5203,
      "uous": 5204,
      "urally": 5205,
      "ison": 5206,
      "ĠEvery": 5207,
      "Ġvertical": 5208,
      "Ġmanufacturing": 5209,
      "Ġindustries": 5210,
      "Ġacknowledging": 5211,
      "Ġsnippet": 5212,
      "Ġtheories": 5213,
      "Ġlayers": 5214,
      "Ġwise": 5215,
      "aches": 5216,
      "Ġforth": 5217,
      "Ġequipped": 5218,
      "ographic": 5219,
      "Ġdisrup": 5220,
      "Ġcritically": 5221,
      "Ġfulf": 5222,
      "Ġpressing": 5223,
      "Ġstatistics": 5224,
      "Ġsurpris": 5225,
      "Ġreliable": 5226,
      "Ġblood": 5227,
      "Ġweeks": 5228,
      "asure": 5229,
      "Ġtexts": 5230,
      "ivity": 5231,
      "Ġheavy": 5232,
      "Ġhot": 5233,
      "theless": 5234,
      "Ġvac": 5235,
      "Ġedges": 5236,
      "Ġtransition": 5237,
      "Ġpor": 5238,
      "Ġprivate": 5239,
      "Ġsunny": 5240,
      "Ġthr": 5241,
      "ĠChapter": 5242,
      "Ġadvantage": 5243,
      "Ġmonitoring": 5244,
      "\",": 5245,
      "forward": 5246,
      "Ġimmediately": 5247,
      "Ġdispl": 5248,
      "Ġplant": 5249,
      "Ġapproached": 5250,
      "Ġsurv": 5251,
      "formation": 5252,
      "uff": 5253,
      "Ġbelieve": 5254,
      "Ġcommunicate": 5255,
      "Ġunw": 5256,
      "Ġattrib": 5257,
      "Ġlingu": 5258,
      "Ġbrings": 5259,
      "Ġremarkable": 5260,
      "Ġnuanced": 5261,
      "ĠChristian": 5262,
      "Ġanticip": 5263,
      "Ġstaying": 5264,
      "Ġneighborhood": 5265,
      "Ġsensitive": 5266,
      "Ġinteract": 5267,
      "Ġpartial": 5268,
      "Ġgeometry": 5269,
      "dit": 5270,
      "ĠChinese": 5271,
      "netic": 5272,
      "Ġframework": 5273,
      "pers": 5274,
      "Ġhighly": 5275,
      "Ġdivision": 5276,
      "Ġaccessible": 5277,
      "Ġuns": 5278,
      "Ġintegrity": 5279,
      "Ġaren": 5280,
      "Ġpassed": 5281,
      "Ġutilize": 5282,
      "Ġdark": 5283,
      "----------------------------": 5284,
      "Ġherself": 5285,
      "Ġleave": 5286,
      "Ġattend": 5287,
      "Ġrecords": 5288,
      "Ġcollege": 5289,
      "ĠNext": 5290,
      "ums": 5291,
      "oving": 5292,
      "Ġcater": 5293,
      "Ġdescrip": 5294,
      "Ġoverwhel": 5295,
      "Ġexcited": 5296,
      "Ġencountered": 5297,
      "Ġregional": 5298,
      "osp": 5299,
      "Ġrapidly": 5300,
      "Ġtwice": 5301,
      "Ġdecide": 5302,
      "Ġinterpretation": 5303,
      "venue": 5304,
      "Ġenhanced": 5305,
      "asm": 5306,
      "Ġaccept": 5307,
      "connected": 5308,
      "igration": 5309,
      "Rec": 5310,
      "Ġlibr": 5311,
      "Ġperfectly": 5312,
      "Ġinclusive": 5313,
      "Ġrecommend": 5314,
      "ĠPo": 5315,
      "Ġconfron": 5316,
      "ĠMany": 5317,
      "Ġdebate": 5318,
      "ete": 5319,
      "osition": 5320,
      "Ġharness": 5321,
      "Ġbasis": 5322,
      "tenance": 5323,
      "ittle": 5324,
      "Ġjump": 5325,
      "Ġcombine": 5326,
      "pond": 5327,
      "ĠPe": 5328,
      "values": 5329,
      "Ġexperts": 5330,
      "Ġversati": 5331,
      "Ġfarm": 5332,
      "Ġlaugh": 5333,
      "Ġmov": 5334,
      "Ġreplied": 5335,
      "Ġintervals": 5336,
      "Ġconflict": 5337,
      "Ġcook": 5338,
      "idth": 5339,
      "Ġdistributions": 5340,
      "Ġequally": 5341,
      "uct": 5342,
      "Ġstre": 5343,
      "Ġcorpor": 5344,
      "Ġreduces": 5345,
      "Ġadminist": 5346,
      "Ġhes": 5347,
      "Ġcooper": 5348,
      ")*": 5349,
      "Ġcharacterized": 5350,
      "Ġestablishing": 5351,
      "Ġpuzzle": 5352,
      "Ġdensity": 5353,
      "Ġ$|": 5354,
      "60": 5355,
      "Ġuncertainty": 5356,
      "Ġmagnit": 5357,
      ",$": 5358,
      "Ġpresents": 5359,
      "Ġsong": 5360,
      "Ġentirely": 5361,
      "Ġgold": 5362,
      "repr": 5363,
      "^{\\": 5364,
      "Ġobstacles": 5365,
      "ĠTip": 5366,
      "Ġblack": 5367,
      "reprene": 5368,
      "Ġtips": 5369,
      "Ġhyd": 5370,
      "Ġfeat": 5371,
      "Ġintim": 5372,
      "irical": 5373,
      "ĠTe": 5374,
      "Ġrad": 5375,
      "ĠLily": 5376,
      "Ġrecently": 5377,
      "If": 5378,
      "Ġadvice": 5379,
      "Ġcomplement": 5380,
      "Ġsurve": 5381,
      "fulness": 5382,
      "ading": 5383,
      "Ġnothing": 5384,
      "Ġsaving": 5385,
      "hat": 5386,
      "used": 5387,
      "}.": 5388,
      "Ġcolon": 5389,
      "Ġconv": 5390,
      "Ġcentered": 5391,
      "Ġsac": 5392,
      "struc": 5393,
      "Ġdil": 5394,
      "Ġ30": 5395,
      "Ġtests": 5396,
      "ĠAmong": 5397,
      "poses": 5398,
      "ĠExper": 5399,
      "ommod": 5400,
      "ĠTwo": 5401,
      "DE": 5402,
      "Ġhappen": 5403,
      "Ġtangent": 5404,
      "Ġvertices": 5405,
      "Ġrows": 5406,
      "Ġfirm": 5407,
      "Ġaffected": 5408,
      "14": 5409,
      "Ġserving": 5410,
      "Ġtouch": 5411,
      "Ġtrigon": 5412,
      "Ġschem": 5413,
      "Ġmember": 5414,
      "wards": 5415,
      "Ġexplo": 5416,
      "ĠHence": 5417,
      "Ġvoc": 5418,
      "Ġstraightforward": 5419,
      "ĠNonetheless": 5420,
      "Ġshifts": 5421,
      "ĠLa": 5422,
      "Ġpromising": 5423,
      "vi": 5424,
      "orrow": 5425,
      "Ġtransformations": 5426,
      "Ġcalculus": 5427,
      "Ġmission": 5428,
      "Ġbinary": 5429,
      "Ġfamous": 5430,
      "found": 5431,
      "ĠUtil": 5432,
      "\".": 5433,
      "ticul": 5434,
      "Ġdevi": 5435,
      "ĠNevertheless": 5436,
      "ĠSuppose": 5437,
      "Ġbeneath": 5438,
      ")-": 5439,
      "ux": 5440,
      "Ġprices": 5441,
      "Ġglance": 5442,
      "Ġobservation": 5443,
      "}}\\": 5444,
      "âģ": 5445,
      "Ġwealth": 5446,
      "Ġteaching": 5447,
      "cel": 5448,
      "izz": 5449,
      "unting": 5450,
      "ĠForm": 5451,
      "ĠThink": 5452,
      "Ġago": 5453,
      "Ġrelation": 5454,
      "Ġvariations": 5455,
      "Ġlever": 5456,
      "Ġbigger": 5457,
      "Ġice": 5458,
      "Ġprepared": 5459,
      "Ġunn": 5460,
      "ĠDesign": 5461,
      "cipl": 5462,
      "Ġpolynomials": 5463,
      "&=": 5464,
      ".'": 5465,
      "lean": 5466,
      "Ġclearly": 5467,
      "Ġimprovements": 5468,
      "olved": 5469,
      "Ġwalk": 5470,
      "ĠEnglish": 5471,
      "Ġassistance": 5472,
      "plement": 5473,
      "Ġcauses": 5474,
      "na": 5475,
      "Ġpul": 5476,
      "Ġcatch": 5477,
      "Ġconsumption": 5478,
      "ĠEuropean": 5479,
      "Ġaxis": 5480,
      "Ġchances": 5481,
      "Ġregularly": 5482,
      "mit": 5483,
      "Ġ:=": 5484,
      "eu": 5485,
      "Ġdenote": 5486,
      "ĠLaw": 5487,
      "Ġentities": 5488,
      "Ġgrab": 5489,
      "âĢĭ": 5490,
      "vance": 5491,
      "Ġvent": 5492,
      "Ġsaying": 5493,
      "Ġscale": 5494,
      "Ġswe": 5495,
      "backs": 5496,
      "Ġarticle": 5497,
      "$;": 5498,
      "Ġpurposes": 5499,
      "Ġheritage": 5500,
      "istor": 5501,
      "Ġsqrt": 5502,
      "Ġpiv": 5503,
      "Ġindicates": 5504,
      "Ġarray": 5505,
      "Ġindex": 5506,
      "ĠSee": 5507,
      "Ġarithmetic": 5508,
      "apping": 5509,
      "Ġalternatives": 5510,
      "oles": 5511,
      "Ġ&=": 5512,
      "Ġdone": 5513,
      "Ġrepresentations": 5514,
      "Ġminimal": 5515,
      "Ġturning": 5516,
      "Ġunderst": 5517,
      "Ġremained": 5518,
      "Ġstatements": 5519,
      "Ġthreats": 5520,
      "Ġactively": 5521,
      "ressing": 5522,
      "ĠUS": 5523,
      "Ġcognitive": 5524,
      "Unit": 5525,
      "onsider": 5526,
      "Ġfunctionality": 5527,
      "Ġupper": 5528,
      "aria": 5529,
      "ĠTime": 5530,
      "Ġath": 5531,
      "lines": 5532,
      "ried": 5533,
      "ĠNe": 5534,
      "Ġtension": 5535,
      "ĠEmb": 5536,
      "Ġdiscoveries": 5537,
      "Ġartist": 5538,
      "Ġmeticul": 5539,
      "Ġdomains": 5540,
      "Ġinten": 5541,
      "--------------------": 5542,
      "Ġresolution": 5543,
      "Ġpercep": 5544,
      "Ġstret": 5545,
      "Ġlisten": 5546,
      "Ġmeasuring": 5547,
      "oyal": 5548,
      "Ġembrace": 5549,
      "ĠNor": 5550,
      "Â³": 5551,
      "ĠStates": 5552,
      "Al": 5553,
      "Ġspecified": 5554,
      "Ġsocieties": 5555,
      "arity": 5556,
      "Ġaccommod": 5557,
      "Ġemphasizing": 5558,
      "active": 5559,
      "Ġcompati": 5560,
      "Ġexponential": 5561,
      "Ġcontrovers": 5562,
      "Ġfreedom": 5563,
      "Ġlasting": 5564,
      "Ġhumans": 5565,
      "Ġquantity": 5566,
      "Ġincredible": 5567,
      "Î±": 5568,
      "Ġstanding": 5569,
      "Ġreinfor": 5570,
      "ript": 5571,
      "Ġobserving": 5572,
      "Ġopposite": 5573,
      "Ġtriangles": 5574,
      "yses": 5575,
      "Ġmeasurements": 5576,
      "Ġcorrectly": 5577,
      "Ġreveals": 5578,
      "Ġlesson": 5579,
      "Ġdevice": 5580,
      "Ġcoefficient": 5581,
      "Ġarrangements": 5582,
      "Ġcredit": 5583,
      "antum": 5584,
      "ffective": 5585,
      "Ġtip": 5586,
      "Ġhorizontal": 5587,
      "Ġinfinity": 5588,
      "Ġintervention": 5589,
      "beta": 5590,
      "Ġnuances": 5591,
      "Ġcul": 5592,
      "arr": 5593,
      "Ġpushing": 5594,
      "Ġexpansion": 5595,
      "Ġprop": 5596,
      "Ġexhibit": 5597,
      "ae": 5598,
      "ho": 5599,
      "Ġlandscapes": 5600,
      ")=\\": 5601,
      "iling": 5602,
      "Ġche": 5603,
      "Ġrecord": 5604,
      "tex": 5605,
      "21": 5606,
      "Ġenter": 5607,
      "Ġmil": 5608,
      "ĠInteg": 5609,
      "Ġforget": 5610,
      "ĠSci": 5611,
      "ĠHealth": 5612,
      "telling": 5613,
      "ĠData": 5614,
      "Ġtut": 5615,
      "Ġcharge": 5616,
      "Ġreached": 5617,
      "Ġarbitrary": 5618,
      "Ġshaped": 5619,
      "Ġmob": 5620,
      "ĠMus": 5621,
      "asion": 5622,
      "Ġshown": 5623,
      "Ġpromise": 5624,
      "Ġstruggle": 5625,
      "Ġcomfortable": 5626,
      "Ġdiscourse": 5627,
      "ulture": 5628,
      "Ġconsult": 5629,
      "atin": 5630,
      "Ġlocated": 5631,
      "Ġdepth": 5632,
      "rite": 5633,
      "Ġwild": 5634,
      "^\\": 5635,
      "Ġholding": 5636,
      "Ġparent": 5637,
      "Ġemployees": 5638,
      "Ġbrief": 5639,
      "Ġstop": 5640,
      "Ġsignals": 5641,
      "Ġpublish": 5642,
      "Ġinduc": 5643,
      "la": 5644,
      "Ġhandle": 5645,
      "sigma": 5646,
      "xiety": 5647,
      "Ġperce": 5648,
      "Ġforeign": 5649,
      "Ġprecision": 5650,
      "Ġstorage": 5651,
      "Ġsuffer": 5652,
      "vari": 5653,
      "Ġsophisticated": 5654,
      "Ġgard": 5655,
      "Ġnotes": 5656,
      "That": 5657,
      "Ġroad": 5658,
      "Ġcomplexities": 5659,
      "fortunately": 5660,
      "ĠIndeed": 5661,
      "Ġconventional": 5662,
      "Ġparticles": 5663,
      "Ġwondered": 5664,
      "Ġcards": 5665,
      "Ġparty": 5666,
      "Ġexpanding": 5667,
      "Ġparticipation": 5668,
      "Ġproviders": 5669,
      "Ġende": 5670,
      "set": 5671,
      "Ġevaluation": 5672,
      "ĠEst": 5673,
      "Ġgently": 5674,
      "ĠMethod": 5675,
      "Ġmodeling": 5676,
      "Ġsite": 5677,
      "Ġfocuses": 5678,
      "Ġacts": 5679,
      "Ġregulatory": 5680,
      "Ġinspiration": 5681,
      "Why": 5682,
      "Ġsecre": 5683,
      "erv": 5684,
      "Ġlengths": 5685,
      "30": 5686,
      "Ġcrafting": 5687,
      "estern": 5688,
      "Ġsympt": 5689,
      "Ġhelpful": 5690,
      "Ġmemor": 5691,
      "Ġnone": 5692,
      "Ġadaptability": 5693,
      "Ġlocations": 5694,
      "tains": 5695,
      "ogle": 5696,
      "Ġformat": 5697,
      "Ġmaintenance": 5698,
      "ams": 5699,
      "Ġtraffic": 5700,
      "Ġgaps": 5701,
      "ĠâĪĪ": 5702,
      "Ġmemories": 5703,
      "such": 5704,
      "Ġneither": 5705,
      "Ġ11": 5706,
      "Ġphase": 5707,
      "Ġlayer": 5708,
      "Ġarts": 5709,
      "neg": 5710,
      "ĠRel": 5711,
      "ĠBefore": 5712,
      "_{\\": 5713,
      "taining": 5714,
      "Ġrevolution": 5715,
      "Ġviolence": 5716,
      "Ġcorrespond": 5717,
      "Ġsusp": 5718,
      "rative": 5719,
      "ĠChar": 5720,
      "ults": 5721,
      "Ġspeech": 5722,
      "ley": 5723,
      "ĠBr": 5724,
      "Ġbeloved": 5725,
      "anged": 5726,
      "Ġgrade": 5727,
      "Ġhu": 5728,
      "Ġtherapy": 5729,
      "\\[": 5730,
      "Ġinterconnected": 5731,
      "arly": 5732,
      "Ġentreprene": 5733,
      "Ġsleep": 5734,
      "big": 5735,
      "rightarrow": 5736,
      "Ġanalyses": 5737,
      "ĠPractice": 5738,
      "Ġconsumer": 5739,
      "Ġestimate": 5740,
      "Ġhur": 5741,
      "Ġmir": 5742,
      "Ġminor": 5743,
      "Ġreasoning": 5744,
      "Ġfractions": 5745,
      "âĪŀ": 5746,
      "discipl": 5747,
      "Ġentertain": 5748,
      "Ġsatisfy": 5749,
      "Ġdrug": 5750,
      "Ġcalculation": 5751,
      "Ġmaximize": 5752,
      "Ġqualities": 5753,
      "Ġfancy": 5754,
      "Ġcolumns": 5755,
      "Ġdrive": 5756,
      "Ġnotation": 5757,
      "Ġvoices": 5758,
      "Ġexcessive": 5759,
      "*:": 5760,
      "ork": 5761,
      "Ġcategory": 5762,
      "min": 5763,
      "Ġformation": 5764,
      "Ġnewly": 5765,
      "Ġâī¤": 5766,
      "ĠSocial": 5767,
      "Ġpoor": 5768,
      "ĠSecond": 5769,
      "Well": 5770,
      "ĠLittle": 5771,
      "ij": 5772,
      "olitical": 5773,
      "Ġprofici": 5774,
      "Ġcoming": 5775,
      "Ġbonds": 5776,
      "Ġhair": 5777,
      "ĠVal": 5778,
      "Ġparallel": 5779,
      "Ġdifferently": 5780,
      "vec": 5781,
      "versely": 5782,
      "Ġdiagnos": 5783,
      "Ġglass": 5784,
      "Ġnewfound": 5785,
      "Ġessence": 5786,
      "Ġorganized": 5787,
      "ief": 5788,
      "Ġsave": 5789,
      "Ġclassic": 5790,
      "Ġorganizing": 5791,
      "ana": 5792,
      "inds": 5793,
      "ĠâĨĴ": 5794,
      "Ġ$(\\": 5795,
      "ina": 5796,
      "iffer": 5797,
      "ilitary": 5798,
      "Ġprominent": 5799,
      "Ġrepeated": 5800,
      "vis": 5801,
      "Ġscreen": 5802,
      "Ġmer": 5803,
      "Ġdevelopers": 5804,
      "Ġsmallest": 5805,
      "Ġbond": 5806,
      "Ġbackgrounds": 5807,
      "Ġsupply": 5808,
      "Ġconduct": 5809,
      "}^{\\": 5810,
      "Ġcarbon": 5811,
      "Ġworksh": 5812,
      "anish": 5813,
      "igenous": 5814,
      "ĠColl": 5815,
      "Ġic": 5816,
      "Ġoil": 5817,
      "unning": 5818,
      "forcement": 5819,
      "ĠConf": 5820,
      "inder": 5821,
      "Ġstructural": 5822,
      "Ġwitness": 5823,
      "Ġenhances": 5824,
      "Ġsegment": 5825,
      "Ġfine": 5826,
      "Ġsatisfies": 5827,
      "mer": 5828,
      "aving": 5829,
      "Ġcher": 5830,
      "uity": 5831,
      "efined": 5832,
      "Ġampl": 5833,
      "Ġextreme": 5834,
      "ĠAb": 5835,
      "Ġstaff": 5836,
      "Ġabsor": 5837,
      "Ġstrive": 5838,
      "Ġleaves": 5839,
      "lig": 5840,
      "uli": 5841,
      "inks": 5842,
      "Ġengineers": 5843,
      "Guideline": 5844,
      "Ġphr": 5845,
      "Ġappearance": 5846,
      "Ġequil": 5847,
      "Ġspeak": 5848,
      "Ġanxiety": 5849,
      "Ġcommunic": 5850,
      "Ġbottom": 5851,
      "Ġconvey": 5852,
      "friend": 5853,
      "Ġparticipate": 5854,
      "ĠEurope": 5855,
      "ĠDo": 5856,
      "Ġcrow": 5857,
      "ĠGerman": 5858,
      "Ġsou": 5859,
      "Ġoperating": 5860,
      "Ġrevealing": 5861,
      "col": 5862,
      "raft": 5863,
      "Ġconstitutes": 5864,
      "Ġnodded": 5865,
      "Ġproductivity": 5866,
      "Ġworkers": 5867,
      "chool": 5868,
      "Ġwrong": 5869,
      "Ġopening": 5870,
      "Ġadequ": 5871,
      "Ġfire": 5872,
      "\")": 5873,
      "Ġexcellent": 5874,
      "ewel": 5875,
      "Ġgrid": 5876,
      "Ġhyper": 5877,
      "Ġaccounts": 5878,
      "Ġmoral": 5879,
      "Ġteacher": 5880,
      "ordinary": 5881,
      "Ġdance": 5882,
      "Ġfeaturing": 5883,
      ":*": 5884,
      "Ġsummar": 5885,
      "Ġ$$\\": 5886,
      "Ġfluid": 5887,
      "Ġcalculating": 5888,
      "Ġexplicitly": 5889,
      "down": 5890,
      "orial": 5891,
      "Ġstages": 5892,
      ")}{": 5893,
      "Ġtrees": 5894,
      "Ġunderstood": 5895,
      "ymakers": 5896,
      "Ġdirections": 5897,
      "Ġrelax": 5898,
      "Ġempirical": 5899,
      "Ġroutine": 5900,
      "Ġrelying": 5901,
      "Ġreturns": 5902,
      "Ġletters": 5903,
      "ĠFour": 5904,
      "ecessary": 5905,
      "etary": 5906,
      "Ġgraphs": 5907,
      "mathrm": 5908,
      "Ġthous": 5909,
      "Ġcontrad": 5910,
      "Ġentails": 5911,
      "Ġethn": 5912,
      "Ġatmosphere": 5913,
      "ĠÏĢ": 5914,
      "utional": 5915,
      "Ġaccomplish": 5916,
      "Ġinterventions": 5917,
      "Ġren": 5918,
      "Sim": 5919,
      "Ġemerge": 5920,
      "ĠChoose": 5921,
      "ĠIns": 5922,
      "Ġ14": 5923,
      "pling": 5924,
      "Ġaccountability": 5925,
      "Ġstruggles": 5926,
      "Ġcampaigns": 5927,
      "ĠAnaly": 5928,
      "Ġequitable": 5929,
      "Ġemail": 5930,
      "lice": 5931,
      "âĪĤ": 5932,
      "Ġrain": 5933,
      "'d": 5934,
      "$).": 5935,
      "Ġcompact": 5936,
      "Ġbiases": 5937,
      "Ġprinciple": 5938,
      "Ġcoordinate": 5939,
      "Ġdetailed": 5940,
      "Ġsubtle": 5941,
      "Ġextraordinary": 5942,
      "Ġupdates": 5943,
      "Ġdatasets": 5944,
      "Ġfaces": 5945,
      "ĠYet": 5946,
      "Ġcha": 5947,
      "Ġeffectiveness": 5948,
      "Ġstarts": 5949,
      "ĠRuss": 5950,
      "Ġimmediate": 5951,
      "Ġpositively": 5952,
      "Ġspiritual": 5953,
      "Ġdiscrimination": 5954,
      "Ġboard": 5955,
      "Ġfewer": 5956,
      "roc": 5957,
      "Ġelev": 5958,
      "Ġsignifies": 5959,
      "Ġintricacies": 5960,
      "Ġmusical": 5961,
      "Ġimper": 5962,
      "Ġec": 5963,
      "Ġconcrete": 5964,
      "Ġpassing": 5965,
      "disciplinary": 5966,
      "ĠMat": 5967,
      "Ġadds": 5968,
      "aves": 5969,
      "Ġspl": 5970,
      "Ġdelicate": 5971,
      "Ġgeneration": 5972,
      "Ġcolumn": 5973,
      "Ġfacilitating": 5974,
      "$\\": 5975,
      "gent": 5976,
      "ĠInc": 5977,
      "Ġmarked": 5978,
      "ĠLastly": 5979,
      "Ġinfluencing": 5980,
      "ĠAfrican": 5981,
      "Ġappeal": 5982,
      "Ġsuggest": 5983,
      "Ġmaps": 5984,
      "17": 5985,
      "Ġacting": 5986,
      "Ġcontinuity": 5987,
      "Understanding": 5988,
      "Ġhabits": 5989,
      "mental": 5990,
      "ĠCO": 5991,
      "://": 5992,
      "Ġgenetic": 5993,
      "Ġmedicine": 5994,
      "Ġinterested": 5995,
      "AB": 5996,
      "Ġinputs": 5997,
      "Ġcurves": 5998,
      "Ġconstruct": 5999,
      "anger": 6000,
      "airs": 6001,
      "ga": 6002,
      "Ġmiddle": 6003,
      "athering": 6004,
      "ĠStrateg": 6005,
      "Ġenthusiasts": 6006,
      "Ġoccup": 6007,
      "Ġgenerally": 6008,
      "13": 6009,
      "Ġorganiz": 6010,
      "Ġalmost": 6011,
      "ĠPri": 6012,
      "Is": 6013,
      "Ġtall": 6014,
      "ĠSur": 6015,
      "Ġstorytelling": 6016,
      "angular": 6017,
      "Ġlatest": 6018,
      "ĠIdentify": 6019,
      "Ġmarginalized": 6020,
      "Ġacceleration": 6021,
      "ses": 6022,
      "Ġvill": 6023,
      "ĠFollow": 6024,
      "Ġnonzero": 6025,
      "Ġdiagonal": 6026,
      "ĠProf": 6027,
      "Ġhesit": 6028,
      "}-": 6029,
      "Ġmeant": 6030,
      "tan": 6031,
      "jection": 6032,
      "Ġpercent": 6033,
      "top": 6034,
      "Ġneuro": 6035,
      "Ġprem": 6036,
      "Ġcomposition": 6037,
      "Ġ50": 6038,
      "ĠMore": 6039,
      "Ġorth": 6040,
      "ulated": 6041,
      "Ġprotecting": 6042,
      "atial": 6043,
      "Ġanimal": 6044,
      "ran": 6045,
      "Ġpartnerships": 6046,
      "Ġposed": 6047,
      "Ġdelicious": 6048,
      "ĠTyp": 6049,
      "Ġfeet": 6050,
      "Ġillum": 6051,
      "house": 6052,
      "Ġsamples": 6053,
      "Ġ25": 6054,
      "Ġcancer": 6055,
      "Ġemotion": 6056,
      "Ġcoun": 6057,
      "Ġusually": 6058,
      "ĠSouth": 6059,
      "Ġnotion": 6060,
      "Ġunlike": 6061,
      "Ġmel": 6062,
      "iment": 6063,
      "ĠGoogle": 6064,
      "Ġdoll": 6065,
      "Ġunl": 6066,
      "bmatrix": 6067,
      "Ġple": 6068,
      "umes": 6069,
      "agues": 6070,
      "Ġsho": 6071,
      "ĠMulti": 6072,
      "Ġband": 6073,
      "Ġraw": 6074,
      "100": 6075,
      "cean": 6076,
      "ĠCommon": 6077,
      "Ġresist": 6078,
      "Ġcompletely": 6079,
      "Ġstead": 6080,
      "ĠFin": 6081,
      "Ġexpressing": 6082,
      "Ġtried": 6083,
      "Ġexclusive": 6084,
      "Ġcities": 6085,
      "ĠGener": 6086,
      "Ġdiver": 6087,
      "alse": 6088,
      "Ġarrived": 6089,
      "Ġdisparities": 6090,
      "Ġhappy": 6091,
      "Ġcy": 6092,
      "Ġdocuments": 6093,
      "Ġign": 6094,
      "Ġmachines": 6095,
      "Ġunknown": 6096,
      "Ġtradition": 6097,
      "ĠMain": 6098,
      "Ġimplying": 6099,
      "Ġidentified": 6100,
      "Ġexcl": 6101,
      "Ġloyal": 6102,
      "Ġdear": 6103,
      "Ġhit": 6104,
      "ĠOrgan": 6105,
      "Ġrelease": 6106,
      "herence": 6107,
      "Ġ13": 6108,
      "ĠMia": 6109,
      "Ġarrive": 6110,
      "Ġcycle": 6111,
      "Ġcandidates": 6112,
      "Ġextended": 6113,
      "ĠRef": 6114,
      "ĠApplying": 6115,
      "Ġscene": 6116,
      "Ġbudget": 6117,
      "Ġgradually": 6118,
      "water": 6119,
      "ĠCur": 6120,
      "ecutive": 6121,
      "related": 6122,
      "Ġremote": 6123,
      "ime": 6124,
      "Ġprompt": 6125,
      "ĠII": 6126,
      "$),": 6127,
      "Ġpolicymakers": 6128,
      "Ġrare": 6129,
      "mission": 6130,
      "ĠEmily": 6131,
      "Ġclassical": 6132,
      "ĠĠĠĠĠĠĠĠĠĠĠĠĠĠĠĠ": 6133,
      "Ġgir": 6134,
      "Ġpeers": 6135,
      "ederal": 6136,
      "Ġstrange": 6137,
      "=(": 6138,
      "agon": 6139,
      "Ġgravity": 6140,
      "ibri": 6141,
      "Ġ198": 6142,
      "Ġsurfaces": 6143,
      "Ġclinical": 6144,
      "idents": 6145,
      "Ġbeginning": 6146,
      "Ġparticipating": 6147,
      "Ġsine": 6148,
      "Ġtrip": 6149,
      "Ġaftern": 6150,
      "Ġintroducing": 6151,
      "Ġequity": 6152,
      "Ġformulas": 6153,
      "ĠGroup": 6154,
      "Ġlinguistic": 6155,
      "Ġsymmetry": 6156,
      "Ġdataset": 6157,
      "Ġround": 6158,
      "Ġtreatments": 6159,
      "Ġpromp": 6160,
      "Ġmagnitude": 6161,
      "ompson": 6162,
      "Ġwoman": 6163,
      "Ġdog": 6164,
      "Ġtiss": 6165,
      "Ġregression": 6166,
      "Ġracial": 6167,
      "Ġinstructions": 6168,
      "Ġsymptoms": 6169,
      "Ġorient": 6170,
      "lusions": 6171,
      "Ġcollaborative": 6172,
      "ĠDi": 6173,
      "Ġinnovations": 6174,
      "Ac": 6175,
      "Ġdecades": 6176,
      "Ġwatching": 6177,
      "ĠâīĪ": 6178,
      "value": 6179,
      "Ġparameter": 6180,
      "rist": 6181,
      "urch": 6182,
      "Ġhumanity": 6183,
      "Ġrecon": 6184,
      "Ġmetrics": 6185,
      "uler": 6186,
      "Add": 6187,
      ")^{": 6188,
      "Ġbat": 6189,
      "Ġincluded": 6190,
      "Ġsimpler": 6191,
      "onomic": 6192,
      "Ġcoff": 6193,
      "pread": 6194,
      "Ġinfluences": 6195,
      "Ġthrow": 6196,
      "Ġreflects": 6197,
      "Ġconducting": 6198,
      "Ġleveraging": 6199,
      "ĠBlack": 6200,
      "ĠPower": 6201,
      "ython": 6202,
      "egu": 6203,
      "zy": 6204,
      "ĠCor": 6205,
      "Ġmanipulation": 6206,
      "ĠThroughout": 6207,
      "Ġsubgroup": 6208,
      "ĠStudy": 6209,
      "Ġmixed": 6210,
      "Ġintegrals": 6211,
      "irms": 6212,
      "Ġflat": 6213,
      "Ġnecessarily": 6214,
      "Em": 6215,
      "hear": 6216,
      "ĠEast": 6217,
      "mic": 6218,
      "inomial": 6219,
      "enty": 6220,
      "ubstit": 6221,
      "vision": 6222,
      "Ġrelevance": 6223,
      "Ġboundary": 6224,
      "Ġmilitary": 6225,
      "ID": 6226,
      "Ġphone": 6227,
      "Ġvertex": 6228,
      "rew": 6229,
      "gar": 6230,
      "âĢĵ": 6231,
      "Ġconservation": 6232,
      "Ġfacts": 6233,
      "Ġphenomenon": 6234,
      "$-": 6235,
      "Ġfish": 6236,
      "ompan": 6237,
      "ĠIntern": 6238,
      "idespread": 6239,
      "ĠNational": 6240,
      "Ġpict": 6241,
      "ossible": 6242,
      "Ġinspiring": 6243,
      "ewelry": 6244,
      "Ġjournal": 6245,
      "Ġcultivate": 6246,
      "Ġmetal": 6247,
      "ption": 6248,
      "ĠPat": 6249,
      "Ġpun": 6250,
      "Ġarmed": 6251,
      "inning": 6252,
      "Consider": 6253,
      "Ġshares": 6254,
      "Ġreasons": 6255,
      "Ġopinions": 6256,
      "Ġthread": 6257,
      "Ġanalytical": 6258,
      "Ġmagn": 6259,
      "Ġlens": 6260,
      "Ġquantum": 6261,
      "plicity": 6262,
      "Ġwidespread": 6263,
      "Ġpainting": 6264,
      "ĠProper": 6265,
      "Ġwood": 6266,
      "Ġsevere": 6267,
      "Ġreminder": 6268,
      "Ġimpressive": 6269,
      "ĠOut": 6270,
      "Ġmarble": 6271,
      "Ġsecrets": 6272,
      "Ġbed": 6273,
      "Ġinsurance": 6274,
      "Ġafternoon": 6275,
      "Ġvolun": 6276,
      "ĠThompson": 6277,
      "Ġbright": 6278,
      "Ġmechanics": 6279,
      "anted": 6280,
      "Ġexceptional": 6281,
      "AR": 6282,
      "circ": 6283,
      "estry": 6284,
      "Ġ...,": 6285,
      "Ġeleg": 6286,
      "Ġpreserve": 6287,
      "Ġcommitted": 6288,
      "Ġfriendly": 6289,
      "Ġhappening": 6290,
      "Ġmissing": 6291,
      "iant": 6292,
      "verti": 6293,
      "ula": 6294,
      "ocol": 6295,
      "AC": 6296,
      "psilon": 6297,
      "Ġdescribes": 6298,
      "Ġexpert": 6299,
      "Ġnoise": 6300,
      "Ġpersever": 6301,
      "Ġrooted": 6302,
      "tors": 6303,
      "ĠEstablish": 6304,
      "Ġavoiding": 6305,
      "Ġaccessibility": 6306,
      "Ġeconomy": 6307,
      "tw": 6308,
      "Ġpharm": 6309,
      "Ġgoods": 6310,
      "Ġdiseases": 6311,
      "Ġgathered": 6312,
      "htt": 6313,
      "using": 6314,
      "Ġpresentation": 6315,
      "ierarch": 6316,
      "Ġ${\\": 6317,
      "racy": 6318,
      "Thus": 6319,
      "ĠCalcul": 6320,
      "aught": 6321,
      "Ġcoffee": 6322,
      "Ġfrag": 6323,
      "Ġraising": 6324,
      "Ġreactions": 6325,
      "Ġweaknesses": 6326,
      "ives": 6327,
      "Ġjudg": 6328,
      "Ġplaced": 6329,
      "Ġattending": 6330,
      "ĠProg": 6331,
      "Ġassumption": 6332,
      "Ġclarity": 6333,
      "[\\": 6334,
      "Ġclarify": 6335,
      "Ġvict": 6336,
      "Ġinterpre": 6337,
      "ĠAvoid": 6338,
      "Ġbuck": 6339,
      "Ġperpet": 6340,
      "Ġeveryday": 6341,
      "Ġdelivering": 6342,
      "Ġfab": 6343,
      "Ġtalking": 6344,
      "emb": 6345,
      "Ġdeath": 6346,
      "rench": 6347,
      "Ġsafegu": 6348,
      "Ġslowly": 6349,
      "Ġdelivery": 6350,
      "that": 6351,
      "Ġsites": 6352,
      "fac": 6353,
      "Ġtargeted": 6354,
      "eps": 6355,
      "Ġwebsites": 6356,
      "Ġsubjects": 6357,
      "ek": 6358,
      "ressed": 6359,
      "hering": 6360,
      "Ġimportantly": 6361,
      "Ġempty": 6362,
      "Ġnarrow": 6363,
      "Ġunus": 6364,
      "ĠMaya": 6365,
      "ĠMaybe": 6366,
      "ĠSk": 6367,
      "Ġvig": 6368,
      "Ġera": 6369,
      "Ġsmoothly": 6370,
      "Ġcaptivating": 6371,
      "Ġtactics": 6372,
      "Ġunch": 6373,
      "Ġpartners": 6374,
      "Ġresponsibilities": 6375,
      "ĠCri": 6376,
      "âĪ«": 6377,
      "Ġfront": 6378,
      "ploy": 6379,
      "Ġstrengthen": 6380,
      "Ġpictures": 6381,
      "Ġgovernance": 6382,
      "Ġfans": 6383,
      "Ġhypothesis": 6384,
      "Ġconclude": 6385,
      "board": 6386,
      "Ġagg": 6387,
      "Ġtun": 6388,
      "Ġattrac": 6389,
      "ĠâĪ«": 6390,
      "ĠImplement": 6391,
      "asy": 6392,
      "ashion": 6393,
      "Ġfing": 6394,
      "ĠLeg": 6395,
      "Ġinclusivity": 6396,
      "Ġenthusiasm": 6397,
      "Ġattach": 6398,
      "Ġcooperation": 6399,
      "Using": 6400,
      "Ġordinary": 6401,
      "Ġbol": 6402,
      "Ġvariance": 6403,
      "Ġentry": 6404,
      "omb": 6405,
      "Ġhealing": 6406,
      "ĠÎ¸": 6407,
      "Ġperformances": 6408,
      "Ġbelieved": 6409,
      "Ġdram": 6410,
      "Ġfix": 6411,
      "Ġclaims": 6412,
      "Ġmysterious": 6413,
      "Ġfinance": 6414,
      "ola": 6415,
      "arp": 6416,
      "Ġprepare": 6417,
      "erb": 6418,
      "ĠBal": 6419,
      "Ġthousands": 6420,
      "Ġdepart": 6421,
      "Ġdeal": 6422,
      "Ġdoors": 6423,
      "ĠJack": 6424,
      "till": 6425,
      "Ġoptimize": 6426,
      "Ġsand": 6427,
      "Ġartificial": 6428,
      "Ġsimplifies": 6429,
      "Ġcenturies": 6430,
      "ormal": 6431,
      "Ġagric": 6432,
      "onomy": 6433,
      "ologists": 6434,
      "ĠEth": 6435,
      "ĠExample": 6436,
      "ibrium": 6437,
      "bar": 6438,
      "Ġimaginary": 6439,
      "Ġstick": 6440,
      "Ġexplain": 6441,
      "Ġmanageable": 6442,
      "CD": 6443,
      "Of": 6444,
      "ĠLike": 6445,
      "Ġdry": 6446,
      "Ġconclusions": 6447,
      "Ġproducing": 6448,
      "Ġpage": 6449,
      "Ġwouldn": 6450,
      "Ġbias": 6451,
      "igure": 6452,
      "Ġtransforming": 6453,
      "Ġadvances": 6454,
      "friendly": 6455,
      "agers": 6456,
      "Ġolder": 6457,
      "Ġlie": 6458,
      "Ġharmon": 6459,
      "Ġmomentum": 6460,
      "Ġresidents": 6461,
      "Ġunnecessary": 6462,
      "Ġnamely": 6463,
      "oys": 6464,
      "Ġrevenue": 6465,
      "Ġreference": 6466,
      "ĠUniversity": 6467,
      "ĠReddit": 6468,
      "Ġtensions": 6469,
      "Ġmatches": 6470,
      "Ġunfor": 6471,
      "Ġgent": 6472,
      "!)": 6473,
      "istrib": 6474,
      "ĠFun": 6475,
      "Ġauthors": 6476,
      "Ġserious": 6477,
      "Ġfant": 6478,
      "Ġapplicable": 6479,
      "Ġpivotal": 6480,
      ",'": 6481,
      "Ġsufficient": 6482,
      "Ġconverges": 6483,
      "Ġpret": 6484,
      "ague": 6485,
      "Ġsell": 6486,
      "Ġfilter": 6487,
      "Ġtracking": 6488,
      "titudes": 6489,
      "ales": 6490,
      "Ġdelight": 6491,
      "vr": 6492,
      "ĠCity": 6493,
      "Ġcamer": 6494,
      "just": 6495,
      "acent": 6496,
      "Ġdecomp": 6497,
      "Ġthoughtfully": 6498,
      "Ġwilling": 6499,
      "Ġreform": 6500,
      "Ġcreatures": 6501,
      "Ġlargest": 6502,
      "Ġclub": 6503,
      "\\,": 6504,
      "ĠâĪļ": 6505,
      "Ġoverview": 6506,
      "Ġassets": 6507,
      "Ġharmony": 6508,
      "99": 6509,
      "Ġliber": 6510,
      "Ġ(\"": 6511,
      "ĠEns": 6512,
      "otion": 6513,
      "Ġdimension": 6514,
      "Ġtemperatures": 6515,
      "aters": 6516,
      "Ġshall": 6517,
      "Ġaccounting": 6518,
      "Ġtaste": 6519,
      "ĠCase": 6520,
      "Ġparam": 6521,
      "Ġnation": 6522,
      "Ġversus": 6523,
      "elly": 6524,
      "ĠFact": 6525,
      "ighter": 6526,
      "Ġdiscrete": 6527,
      "ocal": 6528,
      "Ġpark": 6529,
      "lity": 6530,
      "oking": 6531,
      "throp": 6532,
      "Ġassist": 6533,
      "vention": 6534,
      "omfort": 6535,
      "othing": 6536,
      "ĠFl": 6537,
      "Ġindicating": 6538,
      "owned": 6539,
      "Ġmagnetic": 6540,
      "Ġconfidently": 6541,
      "Ġyes": 6542,
      "breaking": 6543,
      "Ġdead": 6544,
      "Ġ17": 6545,
      "Ġfile": 6546,
      "ĠAppro": 6547,
      "Ġdur": 6548,
      "Ġconj": 6549,
      "rack": 6550,
      "ĠSum": 6551,
      "geq": 6552,
      "ĠProv": 6553,
      "mark": 6554,
      "Ġaccompan": 6555,
      "Ġmarvel": 6556,
      "Ġethics": 6557,
      "parts": 6558,
      "Ġextend": 6559,
      "Ġlogic": 6560,
      "Ġcream": 6561,
      "Ġdilig": 6562,
      "Ġspatial": 6563,
      "oper": 6564,
      "ĠEmp": 6565,
      "ta": 6566,
      "Ġfruit": 6567,
      "Ġmultiplied": 6568,
      "Ġmillions": 6569,
      "faceted": 6570,
      "Ġchecking": 6571,
      "scale": 6572,
      "Ġcredibility": 6573,
      "ĠDefin": 6574,
      "Ġaspiring": 6575,
      "Ġnarrative": 6576,
      "Ġfer": 6577,
      "Ġinfluential": 6578,
      "Ġplanet": 6579,
      "ocking": 6580,
      "Ġbelonging": 6581,
      "Ġadversity": 6582,
      "rons": 6583,
      "Ġoverlook": 6584,
      "Ġcompleting": 6585,
      "âī": 6586,
      "Ġliqu": 6587,
      "Ġimmense": 6588,
      "otic": 6589,
      "rate": 6590,
      "Ġcomputers": 6591,
      "Ġpreventing": 6592,
      "ĠAB": 6593,
      "aved": 6594,
      "Ġbul": 6595,
      "Ġadjustments": 6596,
      "Ġsky": 6597,
      "ĠGl": 6598,
      "overty": 6599,
      "Ġovercome": 6600,
      "Ġinh": 6601,
      "Ġaid": 6602,
      "Ġfruits": 6603,
      "ĠMa": 6604,
      "Ġrhyth": 6605,
      "uman": 6606,
      "Ġmeasurement": 6607,
      "ĠSchool": 6608,
      "omega": 6609,
      "Rem": 6610,
      "sec": 6611,
      "Ġ-\\": 6612,
      "Ġgovernments": 6613,
      "ĠImp": 6614,
      "Ġwidely": 6615,
      "Ġrelatively": 6616,
      "etit": 6617,
      "Ġinvestors": 6618,
      "level": 6619,
      "Ġrevealed": 6620,
      "Ġguarantees": 6621,
      "Ġmotivation": 6622,
      "Ġcompeting": 6623,
      "Ġsocio": 6624,
      "Ġgathering": 6625,
      "ĠCap": 6626,
      "Ġjewelry": 6627,
      "olding": 6628,
      "Ġembed": 6629,
      "ĠReal": 6630,
      "Ġassuming": 6631,
      "Ġfeas": 6632,
      "illed": 6633,
      "Ġarticles": 6634,
      "blem": 6635,
      "ĠCollabor": 6636,
      "Ġscores": 6637,
      "Ġtherm": 6638,
      "Ġarrangement": 6639,
      "Ġsuggesting": 6640,
      "ader": 6641,
      "Ġteachers": 6642,
      "Ġunusual": 6643,
      "Ġattempting": 6644,
      "ĠJapanese": 6645,
      "Ġforever": 6646,
      "istry": 6647,
      "ĠMathematically": 6648,
      "^-": 6649,
      "Ġworkshops": 6650,
      "Ġconsecutive": 6651,
      "Ġnaturally": 6652,
      "ĠTest": 6653,
      "Ġfoundational": 6654,
      "ĠPlay": 6655,
      "Ġmedium": 6656,
      "Ġsuppl": 6657,
      "etry": 6658,
      "ĠGree": 6659,
      "ĠFrench": 6660,
      "Ġbalanced": 6661,
      "working": 6662,
      "Ġmanufactur": 6663,
      "Ġgrew": 6664,
      "Ġagencies": 6665,
      "Ġmitigate": 6666,
      "Ġpassionate": 6667,
      "Ġbatter": 6668,
      "Ġconstructing": 6669,
      "ĠHar": 6670,
      "ĠWestern": 6671,
      "Tr": 6672,
      "Ġbra": 6673,
      "Ġnuc": 6674,
      "pace": 6675,
      "rect": 6676,
      "Ġrotation": 6677,
      "Ġauthority": 6678,
      "Ġearth": 6679,
      "otypes": 6680,
      "Ġseeing": 6681,
      "ĠAng": 6682,
      "Ġcounterparts": 6683,
      "Ġaccep": 6684,
      "Ġfeels": 6685,
      "negative": 6686,
      "Ġtold": 6687,
      "asive": 6688,
      "Ġfalls": 6689,
      "Ġawa": 6690,
      "Ġletter": 6691,
      "Ġconvert": 6692,
      "Ġassessment": 6693,
      "ĠÎ»": 6694,
      "Ġhierarch": 6695,
      "ĠMaria": 6696,
      "ĠTom": 6697,
      "ĠSw": 6698,
      "Ġformer": 6699,
      "================": 6700,
      "Ġ2018": 6701,
      "Ġran": 6702,
      "Ġtit": 6703,
      "ĠLatin": 6704,
      "^(-": 6705,
      "Ġstood": 6706,
      "Ġviews": 6707,
      "Ġadopting": 6708,
      "ĠGreen": 6709,
      "Ġsparked": 6710,
      "Ġeight": 6711,
      "Ġmeets": 6712,
      "uals": 6713,
      "eat": 6714,
      "ĠEduc": 6715,
      "ielding": 6716,
      "Ġmistakes": 6717,
      "Ġdistingu": 6718,
      "ĠMin": 6719,
      "ĠâĪĴ": 6720,
      "Ġseamless": 6721,
      "venues": 6722,
      "Applying": 6723,
      "Ġpit": 6724,
      "Ġwish": 6725,
      "Ar": 6726,
      "Ġcolleagues": 6727,
      "ER": 6728,
      "Ġrend": 6729,
      "rest": 6730,
      "Ġhar": 6731,
      "Ġcovered": 6732,
      "ĠImport": 6733,
      "ĠIniti": 6734,
      "Ġdisparate": 6735,
      "Ġliterary": 6736,
      "Ġstem": 6737,
      "Ġlegacy": 6738,
      "Ġachievements": 6739,
      "Ġveget": 6740,
      "Ġentries": 6741,
      "}(\\": 6742,
      "Ġemphasize": 6743,
      "Ġlifesty": 6744,
      "Ġsuit": 6745,
      "Ġpassage": 6746,
      "Ġcompet": 6747,
      "bing": 6748,
      "pective": 6749,
      "Ġenjoying": 6750,
      "ĠBuilding": 6751,
      "Ġlots": 6752,
      "Ġcaught": 6753,
      "Ġactors": 6754,
      "economic": 6755,
      "ĠClear": 6756,
      "Ġsam": 6757,
      "ĠWho": 6758,
      "crip": 6759,
      "ĠPres": 6760,
      "Ġexempl": 6761,
      "Ġasym": 6762,
      "Ġdiscovering": 6763,
      "Ġech": 6764,
      "ĠNotice": 6765,
      "Ġclient": 6766,
      "Ġcoverage": 6767,
      "Ġproduced": 6768,
      "rams": 6769,
      "Ġwidth": 6770,
      "uation": 6771,
      "ĠEl": 6772,
      "Ġrock": 6773,
      ".)": 6774,
      "anting": 6775,
      "arter": 6776,
      "Ġsmiled": 6777,
      "Ġconstants": 6778,
      "Ġindependence": 6779,
      "Delta": 6780,
      "Ġdeals": 6781,
      "ĠBenny": 6782,
      "bert": 6783,
      "Ġwear": 6784,
      "ooks": 6785,
      "Ġample": 6786,
      "empt": 6787,
      "Ġparamount": 6788,
      "Ġreferred": 6789,
      "Ġrecommendations": 6790,
      "ĠDef": 6791,
      ")`": 6792,
      "delta": 6793,
      "Ġfluct": 6794,
      "ĊĠĠĠĠĠĠĠ": 6795,
      "ĠDep": 6796,
      "uses": 6797,
      "Ġcompetit": 6798,
      "Ġarchitecture": 6799,
      "tile": 6800,
      "Ġharmful": 6801,
      "roud": 6802,
      "Ġindicate": 6803,
      "Ġimpossible": 6804,
      "Ġsegments": 6805,
      "Ġcompliance": 6806,
      "Ġconstructive": 6807,
      "Ġpromotes": 6808,
      "ĠUnfortunately": 6809,
      "ĠDel": 6810,
      "Ġalignment": 6811,
      "ĠDem": 6812,
      "https": 6813,
      "ĠConversely": 6814,
      "Ġcosine": 6815,
      "Ġstere": 6816,
      "Ġban": 6817,
      "ercial": 6818,
      "Ġmultifaceted": 6819,
      "ĠCreate": 6820,
      "Ġconsisting": 6821,
      "Ġrewards": 6822,
      "Ġorganizational": 6823,
      "âĤĢ": 6824,
      "ĠLook": 6825,
      "Ġhabit": 6826,
      "Ġpursuing": 6827,
      "40": 6828,
      "asures": 6829,
      "Ġfunds": 6830,
      "icular": 6831,
      "Ġconfusion": 6832,
      "ĠRecogn": 6833,
      "Ġ$[": 6834,
      "Ġcenters": 6835,
      "mm": 6836,
      "ĠJohns": 6837,
      "ĠFamiliar": 6838,
      "ĠEncourage": 6839,
      "owing": 6840,
      "Ġflour": 6841,
      "Ġcultivating": 6842,
      "Ġemissions": 6843,
      "Ġfunding": 6844,
      "Ġhosp": 6845,
      "Ġarranged": 6846,
      "Ġfrustr": 6847,
      "ĠJew": 6848,
      "Ġoperator": 6849,
      "Ġsubsets": 6850,
      "fit": 6851,
      "Ġexecution": 6852,
      "Ġ$\\{": 6853,
      "Ġextends": 6854,
      "Ġmodul": 6855,
      "ĠRo": 6856,
      "Ġstunning": 6857,
      "Ġskep": 6858,
      "IV": 6859,
      "Ġcycles": 6860,
      "abul": 6861,
      "Ġnoting": 6862,
      "inema": 6863,
      "Ġprofit": 6864,
      "arsh": 6865,
      "Ġ.": 6866,
      "Ġscatter": 6867,
      "Ġestimates": 6868,
      "iveness": 6869,
      "Ġadventures": 6870,
      "Ġselling": 6871,
      "Ġinterpretations": 6872,
      "Ġnecessitates": 6873,
      "------------------------": 6874,
      "Ġmobile": 6875,
      "key": 6876,
      "Ġ->": 6877,
      "emic": 6878,
      "Ġphotograph": 6879,
      "ĠBas": 6880,
      "Ġoutd": 6881,
      "Ġscore": 6882,
      "Ġfiles": 6883,
      "Ġcollecting": 6884,
      "Ġmathematically": 6885,
      "Ġinvent": 6886,
      "ateral": 6887,
      "Ph": 6888,
      "Ġreduction": 6889,
      "Ġadequate": 6890,
      "Ġshifting": 6891,
      "bi": 6892,
      "ĠPlus": 6893,
      "Ġkn": 6894,
      "Ġseed": 6895,
      "ĠNet": 6896,
      "Ġaccum": 6897,
      "Ġhandy": 6898,
      "Ġcommonly": 6899,
      "Ġboost": 6900,
      "Ġanalog": 6901,
      "ĠAct": 6902,
      "neys": 6903,
      "Ġtrials": 6904,
      "Ġeigenvalues": 6905,
      "Î»": 6906,
      "Ġamongst": 6907,
      "Ġannoun": 6908,
      "Ġfootball": 6909,
      "Ġends": 6910,
      "Ġpolar": 6911,
      "Ġtapestry": 6912,
      "He": 6913,
      "Ġequilibrium": 6914,
      "dots": 6915,
      "Ġstable": 6916,
      "ĠPerform": 6917,
      "Ġtrain": 6918,
      "Ġtransformative": 6919,
      "Ġhighest": 6920,
      "Ġhousing": 6921,
      "Case": 6922,
      "Ġinvestigate": 6923,
      "Ġfailure": 6924,
      "Ġspanning": 6925,
      "Ġdy": 6926,
      "ometry": 6927,
      "Ġexperiencing": 6928,
      "Ġcooking": 6929,
      "Ġthrive": 6930,
      "ape": 6931,
      "Ġpreparation": 6932,
      "[(": 6933,
      "Ġstriking": 6934,
      "ocols": 6935,
      "ounters": 6936,
      "Ġperseverance": 6937,
      "\\*": 6938,
      "Ġcompatibility": 6939,
      "ĠSol": 6940,
      "Ġscope": 6941,
      "ĠDeb": 6942,
      "Ġexplanations": 6943,
      "Ġreputation": 6944,
      "abulary": 6945,
      "Ġchanged": 6946,
      "Ġsea": 6947,
      "Ġpoverty": 6948,
      "Ġheads": 6949,
      "Ġexperiments": 6950,
      "Ġrecognized": 6951,
      "Ġtransitions": 6952,
      "Ġ2017": 6953,
      "Ġproficiency": 6954,
      "Ġrough": 6955,
      "Ġnations": 6956,
      "Ġdesigners": 6957,
      "ĠUnder": 6958,
      "ĠChrist": 6959,
      "Ġexpenses": 6960,
      "Ġreports": 6961,
      "Ġcohes": 6962,
      "Ġmillion": 6963,
      "Ġindustrial": 6964,
      "Ġrelate": 6965,
      "Ġconfident": 6966,
      "Ġtrigonometric": 6967,
      "Ġow": 6968,
      "Ġspeakers": 6969,
      "____": 6970,
      "endicular": 6971,
      "Ġscalar": 6972,
      "ĠProt": 6973,
      "Ġsuppor": 6974,
      "Ġinvestments": 6975,
      "Ġpreparing": 6976,
      "Ġtale": 6977,
      "From": 6978,
      "ĠStay": 6979,
      "Ġattitudes": 6980,
      "Section": 6981,
      "Ġhob": 6982,
      "Ġreligion": 6983,
      "Ġvariety": 6984,
      "Ġsolar": 6985,
      "ĠUpon": 6986,
      "Ġavailability": 6987,
      "Ġoffice": 6988,
      "Ġproud": 6989,
      "rific": 6990,
      "ila": 6991,
      "Ġnumerator": 6992,
      "Ġguiding": 6993,
      "Ġdecimal": 6994,
      "Ġvisually": 6995,
      "Ġderive": 6996,
      "Ġtech": 6997,
      "ww": 6998,
      "Ġplacing": 6999,
      "name": 7000,
      "Ġdiscrep": 7001,
      "Ġcompris": 7002,
      "Ġcalls": 7003,
      "Ġprecious": 7004,
      "ĠLearning": 7005,
      "Ġlean": 7006,
      "Ġbasket": 7007,
      "Ġshowed": 7008,
      "Ġtangible": 7009,
      "riting": 7010,
      "Ġwalking": 7011,
      "lecular": 7012,
      "aylor": 7013,
      "Ġshad": 7014,
      "Ġstim": 7015,
      "linear": 7016,
      "=-": 7017,
      "Ġfloor": 7018,
      "ĠYork": 7019,
      "Ġagency": 7020,
      "ogene": 7021,
      "Ġrealize": 7022,
      "Ġinterviews": 7023,
      "appro": 7024,
      "Ġrestrictions": 7025,
      "Ġwhis": 7026,
      "esian": 7027,
      "uccess": 7028,
      "Ġseasoned": 7029,
      "Ġinclusion": 7030,
      "Ġlegis": 7031,
      "ĠGreat": 7032,
      ")$$": 7033,
      "Ġ((": 7034,
      "tedly": 7035,
      "Ġbiology": 7036,
      "Ġexcept": 7037,
      "Ġphilosophy": 7038,
      "Ġelectricity": 7039,
      "Ġquiet": 7040,
      "Sc": 7041,
      "EO": 7042,
      "Ġsold": 7043,
      "CA": 7044,
      "Ġshowcasing": 7045,
      "Ġsoil": 7046,
      "Ġentrepreneurs": 7047,
      "Ġfairness": 7048,
      "Ġvisiting": 7049,
      "Ġperceived": 7050,
      "Ġstars": 7051,
      "Ġsession": 7052,
      "Ġvideos": 7053,
      "ĠAnother": 7054,
      "ferences": 7055,
      "]$": 7056,
      "Ġcourt": 7057,
      "------------------------------------": 7058,
      "ĠVis": 7059,
      "Ġtreating": 7060,
      "oe": 7061,
      "fol": 7062,
      "Ġinjury": 7063,
      "Ġstruck": 7064,
      "Ġmonitor": 7065,
      "enders": 7066,
      "ĠUp": 7067,
      "ĠJohnson": 7068,
      "Ġappar": 7069,
      "Ġaffects": 7070,
      "Ġbirth": 7071,
      "Ġcircular": 7072,
      "epsilon": 7073,
      "ĠTake": 7074,
      "sub": 7075,
      "subs": 7076,
      "Ġdefinite": 7077,
      "enth": 7078,
      "---|": 7079,
      "Ġprotocols": 7080,
      "200": 7081,
      "ĠDiv": 7082,
      "Ġchaos": 7083,
      "ogen": 7084,
      "Ġannual": 7085,
      "Ġreminded": 7086,
      "auss": 7087,
      "].": 7088,
      "Ġexceed": 7089,
      "Ġarises": 7090,
      "Ġcollections": 7091,
      "ĠNorth": 7092,
      "Ġraise": 7093,
      "estim": 7094,
      "word": 7095,
      "Ġpricing": 7096,
      "Ġtraits": 7097,
      "utical": 7098,
      "tage": 7099,
      "Ġdiscipline": 7100,
      "ĠPeople": 7101,
      "}+\\": 7102,
      "aint": 7103,
      "gi": 7104,
      "Ġdrop": 7105,
      "Ġdecl": 7106,
      "Ġrewrite": 7107,
      "Ġsearching": 7108,
      "Sh": 7109,
      "nel": 7110,
      "Ġsuddenly": 7111,
      "free": 7112,
      "22": 7113,
      "Ġcongr": 7114,
      "Ġbridge": 7115,
      "Ġwel": 7116,
      "uating": 7117,
      "Ġvisitors": 7118,
      "Ġselected": 7119,
      "Ġreporting": 7120,
      "ĊĠĠĠĠĠĠĠĠ": 7121,
      "tention": 7122,
      "Ġtopology": 7123,
      "onsist": 7124,
      "Ġseamlessly": 7125,
      "roph": 7126,
      "Ġbill": 7127,
      "aceutical": 7128,
      "crib": 7129,
      "ok": 7130,
      "Ġadaptation": 7131,
      ",âĢĿ": 7132,
      "Ġencounters": 7133,
      "Ġsexual": 7134,
      "Cl": 7135,
      "cont": 7136,
      "Ġmusicians": 7137,
      "Ġemployment": 7138,
      "urm": 7139,
      "ĠStudents": 7140,
      "ĠGreek": 7141,
      "Ġinternet": 7142,
      "Ġhomes": 7143,
      "Ġpresenting": 7144,
      "Ġreplace": 7145,
      "Ġdism": 7146,
      "ĠLim": 7147,
      "ecause": 7148,
      "Ġcontributed": 7149,
      "Ġcovering": 7150,
      "Ġrecovery": 7151,
      "Remember": 7152,
      "Ġbank": 7153,
      "Ġevening": 7154,
      "Ġgroundbreaking": 7155,
      "Ġpal": 7156,
      "Ġvehicles": 7157,
      "ĠManagement": 7158,
      "Ġvolunte": 7159,
      "Ġranges": 7160,
      "Ġlinked": 7161,
      "Ġreliability": 7162,
      "ĠSym": 7163,
      "Ġinteractive": 7164,
      "Ġtraject": 7165,
      "Ġdescribing": 7166,
      "Ġsummarize": 7167,
      "Ġconscious": 7168,
      "Ġrecipe": 7169,
      "Ġintuitive": 7170,
      "Ġ$-": 7171,
      "Ġcomputation": 7172,
      "Ġremainder": 7173,
      "Ġspots": 7174,
      "Ġflavors": 7175,
      "Ġdistributed": 7176,
      "eyond": 7177,
      "Ġethnic": 7178,
      "Ġpermut": 7179,
      "Ġneat": 7180,
      "umbers": 7181,
      "yd": 7182,
      "Ġdigits": 7183,
      "atever": 7184,
      "ĠLife": 7185,
      "medi": 7186,
      "Ġweigh": 7187,
      "Ġintegrated": 7188,
      "Ġsupports": 7189,
      "Ġcommercial": 7190,
      "Ġcategor": 7191,
      "Ġnative": 7192,
      "Ġ60": 7193,
      "Ġexperimental": 7194,
      "Ġpredictions": 7195,
      "Ġmeals": 7196,
      "aur": 7197,
      "Ġcleaning": 7198,
      "Ġgentle": 7199,
      "Ġmetric": 7200,
      "Ġfalse": 7201,
      "irt": 7202,
      "stream": 7203,
      "tica": 7204,
      "Ġease": 7205,
      "oted": 7206,
      "Ġemphasizes": 7207,
      "Ġsupportive": 7208,
      "Ġplus": 7209,
      "Ġlogical": 7210,
      "Ġadjacent": 7211,
      "Ġdelving": 7212,
      "ancies": 7213,
      "Ġownership": 7214,
      "Ġremove": 7215,
      "Ġemphasis": 7216,
      "Ġenduring": 7217,
      ")/(": 7218,
      "Ġthoroughly": 7219,
      "Expl": 7220,
      "75": 7221,
      "ĠSl": 7222,
      "Ġbags": 7223,
      "Ġexac": 7224,
      "Ġoccasion": 7225,
      "Ġ2016": 7226,
      "Ġhour": 7227,
      "Ġuniversal": 7228,
      "Ġelectrical": 7229,
      "Ġdepic": 7230,
      "Ad": 7231,
      "ĠDevelopment": 7232,
      "Ġreceiving": 7233,
      "AS": 7234,
      "Ġtele": 7235,
      "Ġrectangle": 7236,
      "Ġnodes": 7237,
      "Ġ24": 7238,
      "estiv": 7239,
      "qquad": 7240,
      "ĠDeterm": 7241,
      "Ġsimplicity": 7242,
      "Ġcurric": 7243,
      "Ġelectronic": 7244,
      "igr": 7245,
      "Ġspending": 7246,
      "ĠDiffer": 7247,
      "Ġjoint": 7248,
      "icks": 7249,
      "Ġappealing": 7250,
      "DF": 7251,
      "vare": 7252,
      "Ġcloud": 7253,
      "pection": 7254,
      "ĠEd": 7255,
      "ailing": 7256,
      "Ġnurturing": 7257,
      "Âł": 7258,
      "ĠFunction": 7259,
      "arader": 7260,
      "Ġdeepen": 7261,
      "araderie": 7262,
      "Sub": 7263,
      "Ġsugges": 7264,
      "ĠThough": 7265,
      "Ġcombat": 7266,
      "school": 7267,
      "Ġsentence": 7268,
      "Ġrealizing": 7269,
      "vial": 7270,
      "Ġkeeps": 7271,
      "Ġmeters": 7272,
      "Ġeconomics": 7273,
      "Ġunderscores": 7274,
      "Ġpure": 7275,
      "Ġelectron": 7276,
      "Ġenforcement": 7277,
      "apers": 7278,
      "Meanwhile": 7279,
      "Ġwants": 7280,
      "24": 7281,
      "Ġgrace": 7282,
      "Ġcamaraderie": 7283,
      "Ġcandy": 7284,
      "}.$$": 7285,
      "Ġdomes": 7286,
      "Ġintense": 7287,
      "PS": 7288,
      "Ġexacerb": 7289,
      "Ġwindow": 7290,
      "inner": 7291,
      "Ġtutorial": 7292,
      "Ġthick": 7293,
      "ĠKnow": 7294,
      "ĠAlways": 7295,
      "Ġmoved": 7296,
      "Ġclassroom": 7297,
      "Ġrefining": 7298,
      "Ġbranch": 7299,
      "Ġdatab": 7300,
      "Ġsector": 7301,
      "Ġincident": 7302,
      "onents": 7303,
      "zed": 7304,
      "Ġtrou": 7305,
      "23": 7306,
      "Ġsacrific": 7307,
      "Ġcourses": 7308,
      "ĠComb": 7309,
      "Un": 7310,
      "Ġmole": 7311,
      "ĠSqu": 7312,
      "Ġpsychological": 7313,
      "Pl": 7314,
      "Ġlimiting": 7315,
      "idating": 7316,
      "Ġmastery": 7317,
      "ags": 7318,
      "Ġputting": 7319,
      "Ġvulnerable": 7320,
      "boxed": 7321,
      "ĠâĢĺ": 7322,
      "Ġfacilities": 7323,
      "Ġ2019": 7324,
      "Ġvehicle": 7325,
      "Ġecosystems": 7326,
      "Ġofficial": 7327,
      "Ġproved": 7328,
      "Ġcriticism": 7329,
      "Ġmemorable": 7330,
      "Ġindependently": 7331,
      "Ġdoub": 7332,
      "Ġocean": 7333,
      "Ġfashion": 7334,
      "Ġinjuries": 7335,
      "Ġwalls": 7336,
      "MS": 7337,
      "Ġsad": 7338,
      "Ġoutlined": 7339,
      "omorphism": 7340,
      "Ġdot": 7341,
      "sim": 7342,
      "Ġproperly": 7343,
      "Ġobtaining": 7344,
      "ND": 7345,
      "Ġcombines": 7346,
      "Ġreturned": 7347,
      "taking": 7348,
      "Ġpartner": 7349,
      "Ġdisag": 7350,
      "Ġratios": 7351,
      "Ġsensitivity": 7352,
      "&\\": 7353,
      "Ġparab": 7354,
      "mates": 7355,
      "oly": 7356,
      "ographical": 7357,
      "ctive": 7358,
      "ĠEv": 7359,
      "ĠConn": 7360,
      "Ġmapping": 7361,
      "Ġcodes": 7362,
      "Ġcounts": 7363,
      "Ġunderp": 7364,
      "During": 7365,
      "uations": 7366,
      "Ġexplanation": 7367,
      "Over": 7368,
      "Ġdesire": 7369,
      "ĠCare": 7370,
      "Ġadvocating": 7371,
      "varepsilon": 7372,
      "Ġlosing": 7373,
      "Ġreviews": 7374,
      "Ġeagerly": 7375,
      "Ġexplaining": 7376,
      "Ġconversion": 7377,
      "Ġtrend": 7378,
      "oration": 7379,
      "cules": 7380,
      "Ġterrit": 7381,
      "Ġdigit": 7382,
      "ĠFinding": 7383,
      "Ġgradi": 7384,
      "eros": 7385,
      "antit": 7386,
      "Ġbeneficial": 7387,
      "ĠPol": 7388,
      "Ġjelly": 7389,
      "Ġnames": 7390,
      "Ġinstruments": 7391,
      "Ġdemocratic": 7392,
      "ĠInternational": 7393,
      "Ġentertainment": 7394,
      "Ġattempts": 7395,
      "alian": 7396,
      "ĠVari": 7397,
      "also": 7398,
      "ĠBay": 7399,
      "ĠFirstly": 7400,
      "Ġhappiness": 7401,
      "ĠFuture": 7402,
      "Ġdaunting": 7403,
      "Ġadvancing": 7404,
      "Ġrefine": 7405,
      "Ġmorph": 7406,
      "Ġweights": 7407,
      "Ġgaming": 7408,
      "Ġpec": 7409,
      "Ġgap": 7410,
      "Ġwriters": 7411,
      "Ġsynth": 7412,
      "ĠRecall": 7413,
      "ĠUnlike": 7414,
      "urations": 7415,
      "Ġvigil": 7416,
      "Ġfric": 7417,
      "Ġasks": 7418,
      "los": 7419,
      "Ġpurchasing": 7420,
      "ault": 7421,
      "Ġdisorders": 7422,
      "Ġrenowned": 7423,
      "Ġmentors": 7424,
      "Ġtopological": 7425,
      "Ġfriendship": 7426,
      "Ġboasts": 7427,
      "Ġfilms": 7428,
      "Ġperpendicular": 7429,
      "ĠOther": 7430,
      "ĠAmericans": 7431,
      "ĠIndia": 7432,
      "Ġstruggling": 7433,
      "ucl": 7434,
      "Ġsuff": 7435,
      "Ġangular": 7436,
      "Ġca": 7437,
      "ker": 7438,
      "Ġitem": 7439,
      "Ġupcoming": 7440,
      "My": 7441,
      "Ġfabric": 7442,
      "Ġcontract": 7443,
      "Ġorganize": 7444,
      "Ġcrafts": 7445,
      "Ġaudio": 7446,
      "Ġseparately": 7447,
      "Ġcoding": 7448,
      "Ġpet": 7449,
      "ateful": 7450,
      "Ġunp": 7451,
      "de": 7452,
      "Ġtransactions": 7453,
      "ES": 7454,
      "Ġsugar": 7455,
      "Ġbranches": 7456,
      "ĠLuc": 7457,
      "iff": 7458,
      "Ġloyalty": 7459,
      "eline": 7460,
      "Ġsquared": 7461,
      "}|": 7462,
      "Ġmeetings": 7463,
      "Ġimposed": 7464,
      "eries": 7465,
      "ĠSystem": 7466,
      "Ġpassions": 7467,
      "Ġbeans": 7468,
      "IS": 7469,
      "ented": 7470,
      "ĠNumber": 7471,
      "Ġofferings": 7472,
      "stery": 7473,
      "En": 7474,
      "Ġcriminal": 7475,
      "Ġviewpoints": 7476,
      "ste": 7477,
      "ĠWhy": 7478,
      "Ġlaughter": 7479,
      "Ġflo": 7480,
      "bf": 7481,
      "Ġoperational": 7482,
      "Ġcrypt": 7483,
      "inc": 7484,
      "ibl": 7485,
      "Ġsubstitution": 7486,
      "Inter": 7487,
      "ino": 7488,
      "ĠTheory": 7489,
      "Ġbringing": 7490,
      "Ġmuscle": 7491,
      "Ġschemes": 7492,
      "Ġbad": 7493,
      "Ġpollution": 7494,
      "Ġtrial": 7495,
      "ĠProduc": 7496,
      "Ġiconic": 7497,
      "Ġbuildings": 7498,
      "Ġbiological": 7499,
      "Ġthriving": 7500,
      "Ġtherefore": 7501,
      "Ġsuperior": 7502,
      "eles": 7503,
      "Ġcommand": 7504,
      "Ġsymmetric": 7505,
      "Ġinfluenced": 7506,
      "Ġendless": 7507,
      "Ġinvolvement": 7508,
      "ĠChall": 7509,
      "Ġtargeting": 7510,
      "Ġsto": 7511,
      "Ġregulation": 7512,
      "Ġunderm": 7513,
      "Ġorganic": 7514,
      "urrent": 7515,
      "Ġtast": 7516,
      "Ġremoving": 7517,
      "Ġintegrate": 7518,
      "Ġload": 7519,
      "orean": 7520,
      "Ġsphere": 7521,
      "Ġcontained": 7522,
      "Chapter": 7523,
      "Ġkindness": 7524,
      "Ġpaid": 7525,
      "ĠLine": 7526,
      "](": 7527,
      "Ġfinish": 7528,
      "Ġmechanical": 7529,
      "Ġmeditation": 7530,
      "ĠAfrica": 7531,
      "Ġwall": 7532,
      "ĠClass": 7533,
      "Ġdeviation": 7534,
      "70": 7535,
      "Ġcharm": 7536,
      "Ġblog": 7537,
      "},\\": 7538,
      "ameter": 7539,
      "Ġanalytics": 7540,
      "ĠArt": 7541,
      "rum": 7542,
      "Ġtherapeu": 7543,
      "Ġtales": 7544,
      "worth": 7545,
      "Ġescap": 7546,
      "essor": 7547,
      "Ġtens": 7548,
      "fying": 7549,
      "Ġsunlight": 7550,
      "Ġconjug": 7551,
      "Ġdie": 7552,
      "Ġallocation": 7553,
      "Ġhighlighted": 7554,
      "\\}$": 7555,
      "Ġdro": 7556,
      "ĠEval": 7557,
      "ĠÎ±": 7558,
      "Ġjoining": 7559,
      "umer": 7560,
      "pled": 7561,
      "Ġheights": 7562,
      "Ġstated": 7563,
      "ĠIde": 7564,
      "Ġobsc": 7565,
      "Ġapproximation": 7566,
      "Ġbounds": 7567,
      "--------------------------------------------": 7568,
      "antitative": 7569,
      "ulum": 7570,
      "ĠSally": 7571,
      "Ġmanipulate": 7572,
      "Ġflexible": 7573,
      "Ġmort": 7574,
      "Ġeducators": 7575,
      "Ġblend": 7576,
      "Ġfirsthand": 7577,
      "ĠFourier": 7578,
      "Ġorientation": 7579,
      "Ġirre": 7580,
      "Ġcontrac": 7581,
      "Ġrenewed": 7582,
      "abil": 7583,
      "Ġbalancing": 7584,
      "bability": 7585,
      "Ġagents": 7586,
      "udd": 7587,
      "Ġcolonial": 7588,
      "Ġbelongs": 7589,
      "overn": 7590,
      "long": 7591,
      "ĠExc": 7592,
      "Ġviewers": 7593,
      "Ġgave": 7594,
      "ĠMag": 7595,
      "rol": 7596,
      "Ġskilled": 7597,
      "Ġpenc": 7598,
      "Ġcharacteristic": 7599,
      "FT": 7600,
      "osis": 7601,
      "Ġsett": 7602,
      "Ġacquis": 7603,
      "Ġlemon": 7604,
      "Ġdishes": 7605,
      "gamma": 7606,
      "Ġtricky": 7607,
      ")!": 7608,
      "Ġinterplay": 7609,
      "Ġuniverse": 7610,
      "Ġcompetitors": 7611,
      "Ġholistic": 7612,
      "Ġbacter": 7613,
      "OT": 7614,
      "Ġloop": 7615,
      "Ġoverwhelming": 7616,
      "{{\\": 7617,
      "Ġfol": 7618,
      "Ġpeculi": 7619,
      "Ġarrow": 7620,
      "Ġcoins": 7621,
      "Ġvocabulary": 7622,
      "opy": 7623,
      "Ġfederal": 7624,
      "Ġindividually": 7625,
      "rangle": 7626,
      "ĠTaylor": 7627,
      ".*": 7628,
      "inator": 7629,
      "Ġmovie": 7630,
      "{-": 7631,
      "Ġcorporate": 7632,
      "No": 7633,
      "EM": 7634,
      "erce": 7635,
      "owed": 7636,
      "Ġinconsist": 7637,
      "Ġflavor": 7638,
      "Ġforg": 7639,
      "Ġgratitude": 7640,
      "Ġsubstitute": 7641,
      "can": 7642,
      "Ġproportion": 7643,
      "ED": 7644,
      "ega": 7645,
      "apters": 7646,
      "ĠOverview": 7647,
      "tures": 7648,
      "omic": 7649,
      "ersonal": 7650,
      "ĠRegularly": 7651,
      "Ġrevel": 7652,
      "Ġpages": 7653,
      "ooking": 7654,
      "Ġcash": 7655,
      "ĠBre": 7656,
      "Ġleverage": 7657,
      "ĠList": 7658,
      "ube": 7659,
      "Ġneighbors": 7660,
      "Ġconducted": 7661,
      "otor": 7662,
      "Ġconfirm": 7663,
      "ĠJake": 7664,
      "piec": 7665,
      "Ġtheme": 7666,
      "year": 7667,
      "ĠExam": 7668,
      "ĠFocus": 7669,
      "Ġrepeti": 7670,
      "ĠGauss": 7671,
      "Ġreaches": 7672,
      "Ġpull": 7673,
      "arc": 7674,
      "Ġfan": 7675,
      "Ġsavings": 7676,
      "Ġ40": 7677,
      "Ġgrows": 7678,
      "ĠWelcome": 7679,
      "Ġconfigurations": 7680,
      "angers": 7681,
      "fits": 7682,
      "ĠBri": 7683,
      "Ġped": 7684,
      "Ġconstantly": 7685,
      "bol": 7686,
      "Ġpeculiar": 7687,
      "Ġwherein": 7688,
      "comm": 7689,
      "Ġagreement": 7690,
      "Ġversatile": 7691,
      "Ġauthenticity": 7692,
      "Ġsharp": 7693,
      "Ġfirms": 7694,
      "ravel": 7695,
      "Ġrelies": 7696,
      "Ġcreations": 7697,
      "Ġmodifications": 7698,
      "ĠOf": 7699,
      "Ġtends": 7700,
      "Ġvic": 7701,
      "letes": 7702,
      "Ġachieved": 7703,
      "Just": 7704,
      "Ġrecording": 7705,
      "29": 7706,
      "Ġimplemented": 7707,
      "idity": 7708,
      "Ġmeasured": 7709,
      "Ġpand": 7710,
      "*,": 7711,
      "Ġdoor": 7712,
      "Ġstock": 7713,
      "AAAA": 7714,
      "ĠApplic": 7715,
      "Ġapparent": 7716,
      "chain": 7717,
      "ively": 7718,
      "oral": 7719,
      "Ġlighting": 7720,
      "Ġresonate": 7721,
      "Ġdots": 7722,
      "Ġarising": 7723,
      "Ġindigenous": 7724,
      "Ġbounded": 7725,
      "usiness": 7726,
      "Ġoperators": 7727,
      "Ġutility": 7728,
      "Ġendeavors": 7729,
      "iddle": 7730,
      "ĠProcess": 7731,
      "ĠMrs": 7732,
      "Ġcollected": 7733,
      "Ġoneself": 7734,
      "oses": 7735,
      "Ġenjoyed": 7736,
      "Ġln": 7737,
      "Ġstrictly": 7738,
      "Ġpromises": 7739,
      "Ġauthorities": 7740,
      "Ġscrut": 7741,
      "Ġdisplacement": 7742,
      "Ġcriti": 7743,
      "Ġadherence": 7744,
      "Ġclever": 7745,
      "Ġarrange": 7746,
      "anation": 7747,
      "ĠWill": 7748,
      "Ġmoun": 7749,
      "Ġbegins": 7750,
      "Ġmolecules": 7751,
      "Ġlibrary": 7752,
      "irable": 7753,
      "Ġparad": 7754,
      "tes": 7755,
      "var": 7756,
      "Ġpopularity": 7757,
      "Ġsystematically": 7758,
      "ĠPolic": 7759,
      "Su": 7760,
      "oning": 7761,
      "Ġunlock": 7762,
      "Ġlic": 7763,
      "Ġdreams": 7764,
      "arking": 7765,
      "Ġpayment": 7766,
      "Ġwaters": 7767,
      "Ġpursuit": 7768,
      "Ġsampling": 7769,
      "Ġraises": 7770,
      "Ġcryst": 7771,
      "racing": 7772,
      "Ġcritics": 7773,
      "Ġadvocate": 7774,
      "anguage": 7775,
      "ĠContin": 7776,
      "Ġmul": 7777,
      "Ġpose": 7778,
      "BT": 7779,
      "Ġdiff": 7780,
      "Ġhuh": 7781,
      "Ġscenes": 7782,
      "ĠAdv": 7783,
      "ĠDraw": 7784,
      "Ġjobs": 7785,
      "ĠBox": 7786,
      "Ġmethodologies": 7787,
      "opes": 7788,
      "wood": 7789,
      "Ġmorning": 7790,
      "Ġadopt": 7791,
      "Ġcolored": 7792,
      "Ġlifestyle": 7793,
      "Ref": 7794,
      "Ġavenues": 7795,
      "rolling": 7796,
      "Ġleader": 7797,
      "Ġgains": 7798,
      "Ġvisibility": 7799,
      "Ġaesthetic": 7800,
      "through": 7801,
      "Ġquestioning": 7802,
      "Ġstruggled": 7803,
      "Ġinterpreting": 7804,
      "ĠUs": 7805,
      "Ġsurg": 7806,
      "ĠBar": 7807,
      "stone": 7808,
      "Ġcarrying": 7809,
      "ena": 7810,
      "Ġmas": 7811,
      "Ġtargets": 7812,
      "Ġprotein": 7813,
      "Ġintended": 7814,
      "Ġeating": 7815,
      "Ġcandidate": 7816,
      "}{(": 7817,
      "ĠMicro": 7818,
      "Ġorders": 7819,
      "plex": 7820,
      "?!": 7821,
      "load": 7822,
      "Ġeverywhere": 7823,
      "Ġpersistent": 7824,
      "Ġchose": 7825,
      "Ġpercentage": 7826,
      "Ġpretty": 7827,
      "Ġasser": 7828,
      "Ġrecurs": 7829,
      "Ġattempt": 7830,
      "ĠAlso": 7831,
      "ldots": 7832,
      "Ġcopy": 7833,
      "Ġradical": 7834,
      "etic": 7835,
      "Ġpharmaceutical": 7836,
      "Ġassessments": 7837,
      "Ġadhering": 7838,
      "Ġreaction": 7839,
      "Ġbow": 7840,
      "Ġorigins": 7841,
      "Ġfemale": 7842,
      "Ġmisu": 7843,
      "Ġrub": 7844,
      "Ġclues": 7845,
      "Ġcolorful": 7846,
      "Ġtight": 7847,
      "rime": 7848,
      "Ġclust": 7849,
      "Ġtextbook": 7850,
      "umph": 7851,
      "Ġcoast": 7852,
      "Ġdish": 7853,
      "istorical": 7854,
      "Ġemergency": 7855,
      "Ġcompens": 7856,
      "itative": 7857,
      "Ġneut": 7858,
      "ĠTechniques": 7859,
      "Ġrolling": 7860,
      "ques": 7861,
      "Ġstereotypes": 7862,
      "Ġborrow": 7863,
      "Ġadults": 7864,
      "Ġshop": 7865,
      "Ġmindfulness": 7866,
      "Ġstrike": 7867,
      "Ġvisualize": 7868,
      "Ġconcise": 7869,
      "quis": 7870,
      "itim": 7871,
      "tish": 7872,
      "Ġdivine": 7873,
      "Ġcharges": 7874,
      "Ġstays": 7875,
      "Ġcalm": 7876,
      "Ġconvenience": 7877,
      "anship": 7878,
      "ĠPublic": 7879,
      "ĠEucl": 7880,
      "Ġshor": 7881,
      "Ġtrib": 7882,
      "rown": 7883,
      "Ġrings": 7884,
      "Ġtherapeutic": 7885,
      "80": 7886,
      "ĠPrin": 7887,
      "rie": 7888,
      "ĠObser": 7889,
      "Ġchat": 7890,
      "Ġpreferred": 7891,
      "words": 7892,
      "Ġcold": 7893,
      "ĠStudies": 7894,
      "riad": 7895,
      "Ġhaz": 7896,
      "Ġ90": 7897,
      "Ġfell": 7898,
      "Ġimaging": 7899,
      "cultural": 7900,
      "gue": 7901,
      "Ġmolecular": 7902,
      "Ġaware": 7903,
      "Ġportion": 7904,
      "Ġmanual": 7905,
      "Ġcounsel": 7906,
      "Ġdivides": 7907,
      "Ġtables": 7908,
      "Ġopens": 7909,
      "Ġadoption": 7910,
      "Ġpreced": 7911,
      "ĠRev": 7912,
      "Ġdominant": 7913,
      "Ġnice": 7914,
      "Ġbasics": 7915,
      "Ġsimilarly": 7916,
      "ĠState": 7917,
      "Ġversions": 7918,
      "Ġwire": 7919,
      "function": 7920,
      "Ġyielding": 7921,
      "Ġaffordable": 7922,
      "isons": 7923,
      "Ġwonders": 7924,
      "Ġofficials": 7925,
      "ĠBi": 7926,
      "Ġapplies": 7927,
      "Ġinterdisciplinary": 7928,
      "Ġseconds": 7929,
      "Ġpoetry": 7930,
      "ĠAltern": 7931,
      "Ġcrisis": 7932,
      "Ġhydro": 7933,
      "Ġfeasible": 7934,
      "acting": 7935,
      "Ġinfinitely": 7936,
      "ĠStrategies": 7937,
      "ĠShare": 7938,
      "ĠOl": 7939,
      "Ġunion": 7940,
      "Ġvoltage": 7941,
      "Ġguarantee": 7942,
      "ĠSun": 7943,
      "ĠStand": 7944,
      "Ġgarden": 7945,
      "Ġapple": 7946,
      "Ġvolumes": 7947,
      "Ġverify": 7948,
      "Ġdetection": 7949,
      "Ġaesthetics": 7950,
      "ĠBob": 7951,
      "Ġgenres": 7952,
      "aligned": 7953,
      "ĠRoman": 7954,
      "Ġdanger": 7955,
      "Ġdate": 7956,
      "otient": 7957,
      "Ġrendering": 7958,
      "Ġoperate": 7959,
      "Ġpublished": 7960,
      "any": 7961,
      "aul": 7962,
      "ĠPay": 7963,
      "Ġcapturing": 7964,
      "Ġell": 7965,
      "Ġbinomial": 7966,
      "Ġcurv": 7967,
      "Ġlosses": 7968,
      "Ġfees": 7969,
      "range": 7970,
      "Ġinterior": 7971,
      "Ġ<=": 7972,
      "Ġ,": 7973,
      "Ġeluc": 7974,
      "rated": 7975,
      "Ġshowcase": 7976,
      "Ġstack": 7977,
      "Ġarc": 7978,
      "pens": 7979,
      "Ġrenewable": 7980,
      "from": 7981,
      "Ġtempor": 7982,
      "ĠDNA": 7983,
      "Ġcloth": 7984,
      "Ġneural": 7985,
      "Ġsystemic": 7986,
      "Ġpizz": 7987,
      "Ġlabeled": 7988,
      "Ġbrush": 7989,
      "Ġforest": 7990,
      "Ġautonomy": 7991,
      "erve": 7992,
      "Ġmyriad": 7993,
      "Ġecosystem": 7994,
      "Ġstation": 7995,
      "Ġenjoyable": 7996,
      "Ġsummer": 7997,
      "Ġcup": 7998,
      "Ġwalked": 7999,
      "Ġcareers": 8000,
      "Ġdomestic": 8001,
      "Ġdemocracy": 8002,
      "Ġ||": 8003,
      "Ġproven": 8004,
      "Ġmeal": 8005,
      "Ġequivalence": 8006,
      "Ġexponent": 8007,
      "Ġmysteries": 8008,
      "Ġaspir": 8009,
      "45": 8010,
      "Ġrepeat": 8011,
      "Ġmilest": 8012,
      "Ġpersonality": 8013,
      "Ġflows": 8014,
      "Ġeld": 8015,
      "Ġassessing": 8016,
      "Ġjudgment": 8017,
      "Ġharmonious": 8018,
      "Ġjoined": 8019,
      "Ġappropriately": 8020,
      "AP": 8021,
      "Ġoutputs": 8022,
      "ki": 8023,
      "Ġspoke": 8024,
      "Ġinviting": 8025,
      "Ġchecks": 8026,
      "Ġunless": 8027,
      "Ġmanifest": 8028,
      "Ġfluctuations": 8029,
      "ĠPersonal": 8030,
      "90": 8031,
      "ship": 8032,
      "enges": 8033,
      "ĠIndian": 8034,
      "Ġmal": 8035,
      "Ġcongru": 8036,
      "ĠPart": 8037,
      "ĠStart": 8038,
      "Ġmassive": 8039,
      "brid": 8040,
      "rations": 8041,
      "Ġbreaks": 8042,
      "Ġagree": 8043,
      "ĠEuler": 8044,
      "Ġscales": 8045,
      "eeling": 8046,
      "ĠEducation": 8047,
      "Ġconverting": 8048,
      "Ġnearly": 8049,
      "rigued": 8050,
      "ĠBC": 8051,
      "rating": 8052,
      "ros": 8053,
      "ĠJour": 8054,
      "ĠRead": 8055,
      "Ġloans": 8056,
      "table": 8057,
      "vest": 8058,
      "Ġsums": 8059,
      "Ġkinds": 8060,
      "date": 8061,
      "ufficient": 8062,
      "urable": 8063,
      "Ġtire": 8064,
      "Ġspend": 8065,
      "ĠSystems": 8066,
      "ycle": 8067,
      "exic": 8068,
      "ayer": 8069,
      "Ġlaun": 8070,
      "ĠAccess": 8071,
      "Ġautomatically": 8072,
      "Ġallevi": 8073,
      "Ġcelebrate": 8074,
      "iforn": 8075,
      "ĠTrad": 8076,
      "Ġintersect": 8077,
      "Ġreputable": 8078,
      "Ġgar": 8079,
      "Ġchronic": 8080,
      "ront": 8081,
      "represent": 8082,
      "Ġcollaborate": 8083,
      "Ġpond": 8084,
      "Ġadvocacy": 8085,
      "obal": 8086,
      "They": 8087,
      "Ġmother": 8088,
      "Ġambig": 8089,
      "Ġmystery": 8090,
      "road": 8091,
      "Ġdemanding": 8092,
      "Ġpersonalized": 8093,
      "Ġcustoms": 8094,
      "Ġsmile": 8095,
      "')": 8096,
      "ĊĠ": 8097,
      "Cont": 8098,
      "Ġriver": 8099,
      "Ġzeros": 8100,
      "Ġseven": 8101,
      "Ġworlds": 8102,
      "Ġmoist": 8103,
      "ĠHarm": 8104,
      "Ġpriorities": 8105,
      "Ġembedded": 8106,
      "ictions": 8107,
      "Ġtraveling": 8108,
      "ointed": 8109,
      "ĠKing": 8110,
      "Ġtriumph": 8111,
      "tification": 8112,
      "âĨĴ": 8113,
      "Ġcast": 8114,
      "ashing": 8115,
      "dri": 8116,
      "Ġpurchase": 8117,
      "Ġsweet": 8118,
      "Ġcube": 8119,
      "Ġrandomly": 8120,
      "Ġadjusting": 8121,
      "Ġsort": 8122,
      "Ġreb": 8123,
      "Ġsentences": 8124,
      "ĠOpen": 8125,
      "Ind": 8126,
      "Ġpin": 8127,
      "Ġque": 8128,
      "cons": 8129,
      "Ġsectors": 8130,
      "Ġ2015": 8131,
      "Ġfrequencies": 8132,
      "tious": 8133,
      "Ġrearr": 8134,
      "Ġparticle": 8135,
      "ĠBet": 8136,
      "gn": 8137,
      "Ġclick": 8138,
      "Ġsocioeconomic": 8139,
      "Ġordered": 8140,
      "uests": 8141,
      "Ġpool": 8142,
      "Ġhistories": 8143,
      "Ġrecommended": 8144,
      "Ġprosper": 8145,
      "Ġincorrect": 8146,
      "Ġbases": 8147,
      "Ġempowers": 8148,
      "Ġeigenv": 8149,
      "Ġhoping": 8150,
      "Ġecho": 8151,
      "ĠAsian": 8152,
      "Ġconfront": 8153,
      "Ġincredibly": 8154,
      "Ġod": 8155,
      "Ġintr": 8156,
      "ĠGeor": 8157,
      "pmatrix": 8158,
      "Ġsingular": 8159,
      "ĠJes": 8160,
      "Ġbird": 8161,
      "Ġtypical": 8162,
      "Ġestate": 8163,
      "ĠWork": 8164,
      "Ġcompromise": 8165,
      "Ġphotos": 8166,
      "Ġpra": 8167,
      "Ġapps": 8168,
      "lamm": 8169,
      "Ġju": 8170,
      "Ġdeterminant": 8171,
      "\\{": 8172,
      "ĠAut": 8173,
      "Ġclothing": 8174,
      "Ã¡": 8175,
      "Ġaligns": 8176,
      "}}$": 8177,
      "Ġast": 8178,
      "Ġsudden": 8179,
      "Ġcourage": 8180,
      "inity": 8181,
      "Ġvictim": 8182,
      "33": 8183,
      "Ġ_": 8184,
      "ĠCourse": 8185,
      "Ġyellow": 8186,
      "Ġconcentration": 8187,
      "mega": 8188,
      "Ġagreements": 8189,
      "Ġmatching": 8190,
      "unt": 8191,
      "oga": 8192,
      "Ġdifferentiation": 8193,
      "ka": 8194,
      "vertising": 8195,
      "ĠRather": 8196,
      "Ġoral": 8197,
      "ĠAP": 8198,
      "Ġattacks": 8199,
      "Ġcollaborations": 8200,
      "Ġcm": 8201,
      "limits": 8202,
      "ĠFind": 8203,
      "ĠQues": 8204,
      "Ġfacilitates": 8205,
      "Ġmeticulously": 8206,
      "ĠParticip": 8207,
      "Ġwash": 8208,
      "Ġthrilling": 8209,
      "jected": 8210,
      "Ġharsh": 8211,
      "Ġhealthier": 8212,
      "ruption": 8213,
      "Ġplastic": 8214,
      "}-\\": 8215,
      "Ġ\\{": 8216,
      "Ġbunch": 8217,
      "sty": 8218,
      "Ġcues": 8219,
      "idean": 8220,
      "Ġmood": 8221,
      "enn": 8222,
      "Ġtissue": 8223,
      "Ġstone": 8224,
      "thern": 8225,
      "emed": 8226,
      "Ġtimely": 8227,
      "Ġoblig": 8228,
      "ĠSpanish": 8229,
      "Ġgreatest": 8230,
      "Ġdisagre": 8231,
      "Ġou": 8232,
      "ĠÐ": 8233,
      "Ġexpanded": 8234,
      "itarian": 8235,
      "ames": 8236,
      "}\\\\": 8237,
      "Ġcyl": 8238,
      "Ġdual": 8239,
      "Ġlists": 8240,
      "ĠCheck": 8241,
      "Ġaligned": 8242,
      "Ġpossibility": 8243,
      "Ġpip": 8244,
      "?âĢĿ": 8245,
      "Ġlistened": 8246,
      "ava": 8247,
      "Ġorthog": 8248,
      "Ġsongs": 8249,
      "AM": 8250,
      "Ġgram": 8251,
      "igg": 8252,
      "ĠMo": 8253,
      "aimed": 8254,
      "pecial": 8255,
      "Ġdeliber": 8256,
      "sm": 8257,
      "Ġvalued": 8258,
      "Ġathletes": 8259,
      "Ġreinforcing": 8260,
      "Ġessentially": 8261,
      "manship": 8262,
      "Ġinches": 8263,
      "Ġperception": 8264,
      "rho": 8265,
      "Ġanc": 8266,
      "Ġpreval": 8267,
      "Ġdocumentation": 8268,
      "Ġportfol": 8269,
      "ĠBo": 8270,
      "Ġcaution": 8271,
      "Ġhumor": 8272,
      "Ġphrases": 8273,
      "Ġsurvival": 8274,
      "ention": 8275,
      "Ġsecuring": 8276,
      "Ġbrands": 8277,
      "Ġfriction": 8278,
      "Ġirr": 8279,
      "bed": 8280,
      "^{(": 8281,
      "Ġpride": 8282,
      "ĠEnviron": 8283,
      "Ġprogression": 8284,
      "Ġcorners": 8285,
      "ocolate": 8286,
      "Ġeco": 8287,
      "ĠTur": 8288,
      "Ġecological": 8289,
      "Ġthin": 8290,
      "Ġlux": 8291,
      "Ġcomment": 8292,
      "Ġproteins": 8293,
      "Ġhardware": 8294,
      "Ġradiation": 8295,
      "Sec": 8296,
      "ĠCaliforn": 8297,
      "Ġmigration": 8298,
      "Ġopt": 8299,
      "Î¼": 8300,
      "Ġspring": 8301,
      "Ġprocedure": 8302,
      "Ġkine": 8303,
      "how": 8304,
      "ĠGrade": 8305,
      "Ġpsychology": 8306,
      "Ġperiodic": 8307,
      "Ġlegitim": 8308,
      "Ġtreasure": 8309,
      "cup": 8310,
      "Ġharnessing": 8311,
      "Ġtough": 8312,
      "Ġvariation": 8313,
      "Ġidentification": 8314,
      "Ġpile": 8315,
      "Ġwhatever": 8316,
      "ĠTransform": 8317,
      "Ġunt": 8318,
      "ĠValue": 8319,
      "inded": 8320,
      "Ġ2014": 8321,
      "Ġdipl": 8322,
      "ĠScience": 8323,
      "Ġtackling": 8324,
      "Ġpuzzles": 8325,
      "\\]": 8326,
      "Ġextending": 8327,
      "Ġpointing": 8328,
      "Ġassigned": 8329,
      "olves": 8330,
      "Ġtrading": 8331,
      "Ġoptimizing": 8332,
      "ĠAssoci": 8333,
      "ĠWithin": 8334,
      "Ġindices": 8335,
      "Ġtermin": 8336,
      "Ġapproximate": 8337,
      "Ġconfiguration": 8338,
      "Ġoverlooked": 8339,
      "ĠSammy": 8340,
      "ette": 8341,
      "Ġparenthes": 8342,
      "ĠBegin": 8343,
      "Ġfailures": 8344,
      "Ġpitch": 8345,
      "Ġopened": 8346,
      "Ġhund": 8347,
      "ĠGre": 8348,
      "with": 8349,
      "Ġcontrolling": 8350,
      "exist": 8351,
      "Ġacceptance": 8352,
      "Ġindis": 8353,
      "ĠChange": 8354,
      "Ġeliminate": 8355,
      "Ġsteady": 8356,
      "grad": 8357,
      "ĠImpact": 8358,
      "Ġpeak": 8359,
      "max": 8360,
      "Ġheightened": 8361,
      "Ġsafely": 8362,
      "ĠSuccess": 8363,
      "OS": 8364,
      "Ġincenti": 8365,
      "ĠImportance": 8366,
      "Ġattributes": 8367,
      "Ġreass": 8368,
      "Ġathle": 8369,
      "Ġtransmission": 8370,
      "ressions": 8371,
      "Ġtexture": 8372,
      "ĠPark": 8373,
      "Ġspeeds": 8374,
      "uris": 8375,
      "Ġnetworking": 8376,
      "Ġfoods": 8377,
      "Ġfulfilling": 8378,
      "ĠModel": 8379,
      "ĠBusiness": 8380,
      "Ġevenly": 8381,
      "storm": 8382,
      "Ġconsent": 8383,
      "Ġlocally": 8384,
      "Ġhonest": 8385,
      "Ġdiplom": 8386,
      "ada": 8387,
      "Ġ\\(\\": 8388,
      "Ġchapters": 8389,
      "Ġpicked": 8390,
      "falls": 8391,
      "Ġcas": 8392,
      "Ġdestination": 8393,
      "Ġtalents": 8394,
      "ulty": 8395,
      "Ġwinning": 8396,
      "ĠJesus": 8397,
      "imming": 8398,
      "Ġestimation": 8399,
      "Ġappeared": 8400,
      "Ġscaling": 8401,
      "ford": 8402,
      "ĠBack": 8403,
      "Ġnull": 8404,
      "Ġloan": 8405,
      "Ġfascinated": 8406,
      "ĠMove": 8407,
      "Ġlogarithm": 8408,
      "Ġpayments": 8409,
      "uitive": 8410,
      "Ġgeographical": 8411,
      "Ġschedule": 8412,
      "Ġrelaxation": 8413,
      "Ġdimin": 8414,
      "ounded": 8415,
      "abel": 8416,
      "Ġprospects": 8417,
      "Ġsour": 8418,
      "ĠÎµ": 8419,
      "Ġcinema": 8420,
      "Ġexponents": 8421,
      "Ġwarmly": 8422,
      "Ġemployee": 8423,
      "imes": 8424,
      "illy": 8425,
      "ĠYes": 8426,
      "ĠProblem": 8427,
      "Ġseparation": 8428,
      "ulties": 8429,
      "Recent": 8430,
      "Ġbehave": 8431,
      "Ġrush": 8432,
      "atural": 8433,
      "Ġmeticulous": 8434,
      "Given": 8435,
      "oub": 8436,
      "Ġfitness": 8437,
      "Sarah": 8438,
      "eren": 8439,
      "Ġproactive": 8440,
      "Ġdecrease": 8441,
      "Ġling": 8442,
      "Ġdriven": 8443,
      "ĠCoun": 8444,
      "ĠUtilize": 8445,
      "Ġaspirations": 8446,
      "Ġconsiderable": 8447,
      "Ġstored": 8448,
      "Ġconstitute": 8449,
      "aver": 8450,
      "Ġconventions": 8451,
      "Ïī": 8452,
      "Ġarm": 8453,
      "Ġhearts": 8454,
      "Ġupdated": 8455,
      "ĠGood": 8456,
      "ĠVer": 8457,
      "Ġculinary": 8458,
      "Ġversatility": 8459,
      "Ġevolved": 8460,
      "Ġacid": 8461,
      "Ġcookies": 8462,
      "Ġlot": 8463,
      "ĠIslam": 8464,
      "Ġhearing": 8465,
      "Ġdelved": 8466,
      "Ġconvex": 8467,
      "Ġfilling": 8468,
      "Ġrestaur": 8469,
      "Alex": 8470,
      "Ġpressures": 8471,
      "print": 8472,
      "ĠHam": 8473,
      "ĠUnderstand": 8474,
      "Ġevolve": 8475,
      "Ġpromptly": 8476,
      "ĠReview": 8477,
      "apped": 8478,
      "Ġanthrop": 8479,
      "Ġapproaching": 8480,
      "Ġmouth": 8481,
      "Ġindispens": 8482,
      "Ġmiles": 8483,
      "ĠSuddenly": 8484,
      "Ġperceptions": 8485,
      "urg": 8486,
      "Ġinstitutional": 8487,
      "âģ¡": 8488,
      "Ġperformed": 8489,
      "Ġstreet": 8490,
      "cases": 8491,
      "Ġnecessitating": 8492,
      "Ġexhibits": 8493,
      "ĠTV": 8494,
      "Ġsuggestions": 8495,
      "ĠModern": 8496,
      "Ġduration": 8497,
      "Ġgaining": 8498,
      "Ġcorrel": 8499,
      "xygen": 8500,
      "ĠMexic": 8501,
      "Ġplanned": 8502,
      "Ġhole": 8503,
      "Ġrelief": 8504,
      "Ġguests": 8505,
      "ĠOffer": 8506,
      "Ġcorrelation": 8507,
      "Ġly": 8508,
      "Ġpackage": 8509,
      "Ġfantastic": 8510,
      "Ġyouth": 8511,
      "uling": 8512,
      "ĠEconom": 8513,
      "ĠEss": 8514,
      "ĠEnter": 8515,
      "ician": 8516,
      "Ġextension": 8517,
      "Ġteamwork": 8518,
      "Ġindispensable": 8519,
      "rog": 8520,
      "eday": 8521,
      "Ġmobility": 8522,
      "Ġstreets": 8523,
      "field": 8524,
      "Ġpaying": 8525,
      "ĠArab": 8526,
      "Ġstrings": 8527,
      "ĠItalian": 8528,
      "aker": 8529,
      "Am": 8530,
      "Ġgest": 8531,
      "Ġadapting": 8532,
      "abet": 8533,
      "Ġimplic": 8534,
      "64": 8535,
      "ĠDoc": 8536,
      "Ġswit": 8537,
      "Ġride": 8538,
      "Hello": 8539,
      "ĠCalifornia": 8540,
      "Ġspher": 8541,
      "Ġsucceed": 8542,
      "Ġintensity": 8543,
      "ario": 8544,
      "CT": 8545,
      "Ġdict": 8546,
      "Ġbirds": 8547,
      "Ps": 8548,
      "Ġgenerates": 8549,
      "ĠAtt": 8550,
      "Ġcherished": 8551,
      "_\\": 8552,
      "igital": 8553,
      "Ġrealistic": 8554,
      "Ġdistinguish": 8555,
      "Beyond": 8556,
      "Ġwarn": 8557,
      "Ġdependent": 8558,
      "Ġlights": 8559,
      "Ġmodulo": 8560,
      "Hey": 8561,
      "Ġresearching": 8562,
      "Ġacquisition": 8563,
      "ĠHuman": 8564,
      "Ġlaid": 8565,
      "RI": 8566,
      "Ġpaint": 8567,
      "Ġnode": 8568,
      "Ġsimulations": 8569,
      "Ġtraum": 8570,
      "ĠÎ¼": 8571,
      "Ġlinearly": 8572,
      "Ġresili": 8573,
      "amin": 8574,
      "Ob": 8575,
      "ĠAlice": 8576,
      "ĠBased": 8577,
      "Ġusual": 8578,
      "Ġempowerment": 8579,
      "------------------": 8580,
      "ĠDiscuss": 8581,
      "Ġattract": 8582,
      "Ġfalling": 8583,
      "tau": 8584,
      "Ġimmune": 8585,
      "Ġunfamiliar": 8586,
      "Ġpenal": 8587,
      "ographics": 8588,
      "Ġhinder": 8589,
      "Ġscre": 8590,
      "Ġcontinuing": 8591,
      "vit": 8592,
      "Ġpersu": 8593,
      "Ġcelebrating": 8594,
      "edia": 8595,
      "ĠPost": 8596,
      "Ġsimilarities": 8597,
      "eration": 8598,
      "umental": 8599,
      "Ġopinion": 8600,
      "Ġposes": 8601,
      "elfare": 8602,
      "Ġencaps": 8603,
      "Ġdile": 8604,
      "Ġaccident": 8605,
      "ĠJewish": 8606,
      "Ġcontribution": 8607,
      "Ġsetup": 8608,
      "Ġsubtract": 8609,
      "Ġunchanged": 8610,
      "Ġcamera": 8611,
      "night": 8612,
      "Ġsettle": 8613,
      "Ġneighboring": 8614,
      "ĠEuclidean": 8615,
      "Ġreti": 8616,
      "Ġintroduction": 8617,
      "Ġfestiv": 8618,
      "ĠMem": 8619,
      "Ġsuffering": 8620,
      "Ġrank": 8621,
      "Ġtrusted": 8622,
      "ĠFil": 8623,
      "LS": 8624,
      "Ġcompleted": 8625,
      "Ġupdate": 8626,
      "du": 8627,
      "Ġsomeday": 8628,
      "Ġeat": 8629,
      "ĠÂ±": 8630,
      "Ġdecor": 8631,
      "matic": 8632,
      "atching": 8633,
      "Ġbear": 8634,
      "Ġcomparison": 8635,
      "nam": 8636,
      "Ġinvestigations": 8637,
      "ĠBel": 8638,
      "etor": 8639,
      "Ġsimplified": 8640,
      "Ġacquired": 8641,
      "Ġconfin": 8642,
      "Ġtick": 8643,
      "Ġaxes": 8644,
      "Ġmarks": 8645,
      "vable": 8646,
      "Ġinsufficient": 8647,
      "Ġvillage": 8648,
      "Ġegg": 8649,
      "ivers": 8650,
      "Ġhaven": 8651,
      "Ġtum": 8652,
      "Ġpeer": 8653,
      "ĠCustom": 8654,
      "ĠMaintain": 8655,
      "Ġdisput": 8656,
      "Ġtrigg": 8657,
      "Ġintuition": 8658,
      "ĠAssess": 8659,
      "ĠCong": 8660,
      "Ġelusive": 8661,
      "Ġrever": 8662,
      "ltimate": 8663,
      "Ġcovers": 8664,
      "Ġgrounded": 8665,
      "Ġproves": 8666,
      "Ġsoccer": 8667,
      "Ġfits": 8668,
      "overline": 8669,
      "Ġloops": 8670,
      "Ġ\\,": 8671,
      "Ġquantitative": 8672,
      "Ġbutton": 8673,
      "})$": 8674,
      "Ġdescriptions": 8675,
      "istory": 8676,
      "Ġencompasses": 8677,
      "ĠDistrib": 8678,
      "Ġvalidity": 8679,
      "Ġstreamline": 8680,
      "ĠVol": 8681,
      "Ġluck": 8682,
      "ĠEnergy": 8683,
      "Ġcrime": 8684,
      "uming": 8685,
      "dep": 8686,
      "Ġkid": 8687,
      "Ġcompromising": 8688,
      "Ġmac": 8689,
      "ii": 8690,
      "Ġrab": 8691,
      "Additionally": 8692,
      "ĠSign": 8693,
      "OR": 8694,
      "Ġsetbacks": 8695,
      "fast": 8696,
      "Ġreturning": 8697,
      "Ġencouraged": 8698,
      "Ġillustrating": 8699,
      "tific": 8700,
      "PR": 8701,
      "ĠLever": 8702,
      "tri": 8703,
      "ĠWithout": 8704,
      "tible": 8705,
      "Ġchamp": 8706,
      "Ġroutines": 8707,
      "alled": 8708,
      "Ġhumility": 8709,
      "Ġborders": 8710,
      "ĠMost": 8711,
      "Ġcontinuously": 8712,
      "Ġempowering": 8713,
      "ĠEvent": 8714,
      "Ġmuscles": 8715,
      "Ġfamiliarity": 8716,
      "Ġsigh": 8717,
      "Ġresponding": 8718,
      "Mr": 8719,
      "ĠRecent": 8720,
      "ĠDay": 8721,
      "Ġsenti": 8722,
      "urring": 8723,
      "lin": 8724,
      "Ġgrappling": 8725,
      "Ġstems": 8726,
      "ĠCho": 8727,
      "ĠFace": 8728,
      "Ġaddressed": 8729,
      "Ġspo": 8730,
      "Ġsilence": 8731,
      "Ġalt": 8732,
      "ĠPr": 8733,
      "emble": 8734,
      "ĠRole": 8735,
      "Ġmarine": 8736,
      "Ġhosting": 8737,
      "Ġmand": 8738,
      "Ġswitch": 8739,
      "Ġreminding": 8740,
      "ĠPython": 8741,
      "earing": 8742,
      "Ġrevis": 8743,
      "Ġmode": 8744,
      "Ġcontempl": 8745,
      "ĠResp": 8746,
      "ham": 8747,
      "Ġtranslate": 8748,
      "ĠBritish": 8749,
      "gener": 8750,
      "Ġdele": 8751,
      "Ġvoila": 8752,
      "Ġfoundations": 8753,
      "ĠDebates": 8754,
      "Ġsolace": 8755,
      "ĠAir": 8756,
      "Ġbriefly": 8757,
      "zon": 8758,
      "Ïĥ": 8759,
      "Ġtom": 8760,
      "Ġorganisms": 8761,
      "Ġweren": 8762,
      "OU": 8763,
      "Ġdebt": 8764,
      "omorphic": 8765,
      "Ġcontrolled": 8766,
      "+(": 8767,
      "ĠTri": 8768,
      "ĠOthers": 8769,
      "}]": 8770,
      "Ġoccurred": 8771,
      "Ġpi": 8772,
      "Ġsurprising": 8773,
      "Ġdismiss": 8774,
      "Ġfra": 8775,
      "Ġfails": 8776,
      "dles": 8777,
      "Ġanymore": 8778,
      "Ġinvestigating": 8779,
      "etermined": 8780,
      "Ġscholarly": 8781,
      "Reg": 8782,
      "rote": 8783,
      "Ġstuff": 8784,
      "Ġoccurring": 8785,
      "Ġrepeating": 8786,
      "ĠCentral": 8787,
      "ĠEr": 8788,
      "scill": 8789,
      "Ġinstruction": 8790,
      "Ġglobe": 8791,
      "ĠEffective": 8792,
      "Ġgirl": 8793,
      "Ġescal": 8794,
      "Ġmetaph": 8795,
      "Ġsubtracting": 8796,
      "*.": 8797,
      "Ġfather": 8798,
      "Ġcontainer": 8799,
      "des": 8800,
      "Ġlose": 8801,
      "Ġreflected": 8802,
      "otional": 8803,
      "Ġdispos": 8804,
      "ÎĶ": 8805,
      "Ġbon": 8806,
      "Ġcomplications": 8807,
      "Ġbrowsing": 8808,
      "Ġdifficulties": 8809,
      "Ġbrill": 8810,
      "Ġlabels": 8811,
      "Ġliquid": 8812,
      "Ġprompting": 8813,
      "pass": 8814,
      "Ġexcitedly": 8815,
      "Ġfulfill": 8816,
      "Ġparentheses": 8817,
      "</": 8818,
      "uis": 8819,
      "Ġtor": 8820,
      "Ġintermedi": 8821,
      "Ġstorm": 8822,
      "Ġbroken": 8823,
      "Ġposts": 8824,
      "Ġruns": 8825,
      "iam": 8826,
      "Ġlinks": 8827,
      "ĠCour": 8828,
      "Ġrelates": 8829,
      "Ġentering": 8830,
      "Ġaccommodate": 8831,
      "Ġmovies": 8832,
      "Figure": 8833,
      "Ġpresentations": 8834,
      "Ġjuris": 8835,
      "Ġellip": 8836,
      "ractions": 8837,
      "Ġcomparisons": 8838,
      "ĠImpro": 8839,
      "nab": 8840,
      "Ġslic": 8841,
      "loor": 8842,
      "Ġselec": 8843,
      "Ġconditional": 8844,
      "Ġmodes": 8845,
      "Ġsupported": 8846,
      "Ġdefense": 8847,
      "ysical": 8848,
      "Ġsays": 8849,
      "ĠÏĨ": 8850,
      "\\}": 8851,
      "Ġschedules": 8852,
      "Ġseeks": 8853,
      "Ġmotor": 8854,
      "Ġpandemic": 8855,
      "organ": 8856,
      "Ġestimated": 8857,
      "Ġpizza": 8858,
      "SS": 8859,
      "Ġflowers": 8860,
      "Ġwider": 8861,
      "ĠSolving": 8862,
      "Ġquotient": 8863,
      "jud": 8864,
      "Ġclosure": 8865,
      "AD": 8866,
      "Ġrewarding": 8867,
      "Ġadvertising": 8868,
      "Ġreinforce": 8869,
      "ĠCa": 8870,
      "Ġvacc": 8871,
      "Ġcrafted": 8872,
      "ĠAsia": 8873,
      "Ġcauti": 8874,
      "Ġimagery": 8875,
      "Ġasc": 8876,
      "ubstituting": 8877,
      ")).": 8878,
      "even": 8879,
      "ĠExcited": 8880,
      "Ġbuying": 8881,
      "Ġsurroundings": 8882,
      "28": 8883,
      "varphi": 8884,
      "Ġprofiles": 8885,
      "Ġvivid": 8886,
      "ĠHel": 8887,
      "ĠIntroduction": 8888,
      "Ġdialogues": 8889,
      "Ġrecr": 8890,
      "36": 8891,
      "aming": 8892,
      "ĠFre": 8893,
      "Ġgenre": 8894,
      "ĠEmbrace": 8895,
      "ception": 8896,
      "iders": 8897,
      "Ġinfer": 8898,
      "Ġphysically": 8899,
      "anch": 8900,
      "ĠTry": 8901,
      "Ġencry": 8902,
      "ointment": 8903,
      "Ġradio": 8904,
      "Ġcomplementary": 8905,
      "ĠFollowing": 8906,
      "Ġbab": 8907,
      "entral": 8908,
      "ench": 8909,
      "Ġrequest": 8910,
      "Ġcurrently": 8911,
      "Ġtone": 8912,
      "ĠFe": 8913,
      "ĠTop": 8914,
      "urious": 8915,
      "ðŁ": 8916,
      "Ġestimating": 8917,
      "Ġtranslation": 8918,
      "Ġrectangular": 8919,
      "Ġwelfare": 8920,
      "Ġplenty": 8921,
      "Ġdiameter": 8922,
      "ĠMathematica": 8923,
      "omas": 8924,
      "Ġblockchain": 8925,
      "Ġpron": 8926,
      "Ġediting": 8927,
      "Ġembod": 8928,
      "CM": 8929,
      "ircul": 8930,
      "icking": 8931,
      "Ġmanufacturers": 8932,
      "ĠDefine": 8933,
      "Ġideals": 8934,
      "Ġcertainly": 8935,
      "Ġoxygen": 8936,
      "Ġimmersive": 8937,
      "ulative": 8938,
      "Ġpropag": 8939,
      "ocurr": 8940,
      "Ġaver": 8941,
      "Ġisolate": 8942,
      "aneous": 8943,
      "ĠPrior": 8944,
      "neq": 8945,
      "Ġdelves": 8946,
      "Ġwarmth": 8947,
      "Ġexpensive": 8948,
      "Ġ2020": 8949,
      "Ġfriendships": 8950,
      "overy": 8951,
      "langle": 8952,
      "ĠGal": 8953,
      "thetic": 8954,
      "PT": 8955,
      "Ġcrowd": 8956,
      "Ġheated": 8957,
      "Ġvulnerability": 8958,
      "Ġinstrument": 8959,
      "Ġinterpersonal": 8960,
      "Ġdetect": 8961,
      "Furthermore": 8962,
      "ama": 8963,
      "Ġgradient": 8964,
      "Ġdt": 8965,
      "minded": 8966,
      "Ġorthogonal": 8967,
      "Ġcommut": 8968,
      "Ġlad": 8969,
      "ĠPrep": 8970,
      "ĠApply": 8971,
      "Ġepis": 8972,
      ".).": 8973,
      "nov": 8974,
      "Ġelsewhere": 8975,
      "Ġgrass": 8976,
      "Ġsecondary": 8977,
      "Ġgrammar": 8978,
      "Ġastr": 8979,
      "Ġshot": 8980,
      "Ġ(*": 8981,
      "ĠDav": 8982,
      "Ġpointed": 8983,
      "Ġyounger": 8984,
      "Ġshowcases": 8985,
      "Ġdiscrepancies": 8986,
      "Ġcoupled": 8987,
      "Ġsteep": 8988,
      "Ġelementary": 8989,
      "erves": 8990,
      "Ġappreciating": 8991,
      "Ġstores": 8992,
      "Ġbold": 8993,
      "Ġcrop": 8994,
      "Ġfavorable": 8995,
      "ĠBu": 8996,
      "ĠOnly": 8997,
      "ãģ": 8998,
      "Ġgau": 8999,
      "Ġcouple": 9000,
      "no": 9001,
      "ĠUtilizing": 9002,
      "ĠRet": 9003,
      "Ġsuccesses": 9004,
      "Ġdetermin": 9005,
      "Wor": 9006,
      "anes": 9007,
      "ĠInstit": 9008,
      "power": 9009,
      "Ġdesirable": 9010,
      "phones": 9011,
      "Ġrising": 9012,
      "Ġdurability": 9013,
      "ept": 9014,
      "ĠLanguage": 9015,
      "Ġquest": 9016,
      "offs": 9017,
      "Ġnerv": 9018,
      "Ġshel": 9019,
      "Ġcombinator": 9020,
      "Ġprofile": 9021,
      "Ġcomments": 9022,
      "Ġturb": 9023,
      "Ġportray": 9024,
      "nings": 9025,
      "ĠElect": 9026,
      "Therefore": 9027,
      "Ġpicking": 9028,
      "ĠRelations": 9029,
      "'m": 9030,
      "mers": 9031,
      "Ġroute": 9032,
      "Ġfinger": 9033,
      "itter": 9034,
      "lets": 9035,
      "Ġpersonnel": 9036,
      "\").": 9037,
      "Ġcomprehend": 9038,
      "Ġmaximizing": 9039,
      "Ġforced": 9040,
      "first": 9041,
      "Ġmessaging": 9042,
      "ĠAddressing": 9043,
      "ĠPort": 9044,
      "Ġcontrols": 9045,
      "well": 9046,
      "Ġagriculture": 9047,
      "Ġdecreases": 9048,
      "Ġrecre": 9049,
      "ĠClearly": 9050,
      "ĠPresident": 9051,
      "ato": 9052,
      "overs": 9053,
      "Ġmodule": 9054,
      "ius": 9055,
      "Ġoverwhelmed": 9056,
      "Ġflip": 9057,
      "Ġinterface": 9058,
      "Mod": 9059,
      "ĠLog": 9060,
      "Ġclubs": 9061,
      "pm": 9062,
      "Ġtestament": 9063,
      "Ġsitting": 9064,
[...]
