{
  "version": "1.0",
  "truncation": null,
  "padding": null,
  "added_tokens": [
    {
      "id": 0,
      "content": "<|endoftext|>",
      "single_word": false,
      "lstrip": false,
      "rstrip": false,
      "normalized": false,
      "special": true
    },
    {
      "id": 1,
      "content": "<|im_start|>",
      "single_word": false,
      "lstrip": false,
      "rstrip": false,
      "normalized": false,
      "special": true
    },
    {
      "id": 2,
      "content": "<|im_end|>",
      "single_word": false,
      "lstrip": false,
      "rstrip": false,
      "normalized": false,
      "special": true
    },
    {
      "id": 3,
      "content": "<|reserved_0|>",
      "single_word": false,
      "lstrip": false,
      "rstrip": false,
      "normalized": false,
      "special": true
    },
    {
      "id": 4,
      "content": "<|reserved_1|>",
      "single_word": false,
      "lstrip": false,
      "rstrip": false,
      "normalized": false,
      "special": true
    },
    {
      "id": 5,
      "content": "<|reserved_2|>",
      "single_word": false,
      "lstrip": false,
      "rstrip": false,
      "normalized": false,
      "special": true
    },
    {
      "id": 6,
      "content": "<|reserved_3|>",
      "single_word": false,
      "lstrip": false,
      "rstrip": false,
      "normalized": false,
      "special": true
    },
    {
      "id": 7,
      "content": "<|reserved_4|>",
      "single_word": false,
      "lstrip": false,
      "rstrip": false,
      "normalized": false,
      "special": true
    },
    {
      "id": 8,
      "content": "<|reserved_5|>",
      "single_word": false,
      "lstrip": false,
      "rstrip": false,
      "normalized": false,
      "special": true
    },
    {
      "id": 9,
      "content": "<|reserved_6|>",
      "single_word": false,
      "lstrip": false,
      "rstrip": false,
      "normalized": false,
      "special": true
    },
    {
      "id": 10,
      "content": "<|reserved_7|>",
      "single_word": false,
      "lstrip": false,
      "rstrip": false,
      "normalized": false,
      "special": true
    },
    {
      "id": 11,
      "content": "<|reserved_8|>",
      "single_word": false,
      "lstrip": false,
      "rstrip": false,
      "normalized": false,
      "special": true
    },
    {
      "id": 12,
      "content": "<|reserved_9|>",
      "single_word": false,
      "lstrip": false,
      "rstrip": false,
      "normalized": false,
      "special": true
    },
    {
      "id": 13,
      "content": "<|reserved_10|>",
      "single_word": false,
      "lstrip": false,
      "rstrip": false,
      "normalized": false,
      "special": true
    },
    {
      "id": 14,
      "content": "<|reserved_11|>",
      "single_word": false,
      "lstrip": false,
      "rstrip": false,
      "normalized": false,
      "special": true
    },
    {
      "id": 15,
      "content": "<|reserved_12|>",
      "single_word": false,
      "lstrip": false,
      "rstrip": false,
      "normalized": false,
      "special": true
    },
    {
      "id": 16,
      "content": "<|reserved_13|>",
      "single_word": false,
      "lstrip": false,
      "rstrip": false,
      "normalized": false,
      "special": true
    },
    {
      "id": 17,
      "content": "<|reserved_14|>",
      "single_word": false,
      "lstrip": false,
      "rstrip": false,
      "normalized": false,
      "special": true
    },
    {
      "id": 18,
      "content": "<|reserved_15|>",
      "single_word": false,
      "lstrip": false,
      "rstrip": false,
      "normalized": false,
      "special": true
    },
    {
      "id": 19,
      "content": "<|reserved_16|>",
      "single_word": false,
      "lstrip": false,
      "rstrip": false,
      "normalized": false,
      "special": true
    },
    {
      "id": 20,
      "content": "<|reserved_17|>",
      "single_word": false,
      "lstrip": false,
      "rstrip": false,
      "normalized": false,
      "special": true
    },
    {
      "id": 21,
      "content": "<|reserved_18|>",
      "single_word": false,
      "lstrip": false,
      "rstrip": false,
      "normalized": false,
      "special": true
    },
    {
      "id": 22,
      "content": "<|reserved_19|>",
      "single_word": false,
      "lstrip": false,
      "rstrip": false,
      "normalized": false,
      "special": true
    },
    {
      "id": 23,
      "content": "<|reserved_20|>",
      "single_word": false,
      "lstrip": false,
      "rstrip": false,
      "normalized": false,
      "special": true
    },
    {
      "id": 24,
      "content": "<|reserved_21|>",
      "single_word": false,
      "lstrip": false,
      "rstrip": false,
      "normalized": false,
      "special": true
    },
    {
      "id": 25,
      "content": "<|reserved_22|>",
      "single_word": false,
      "lstrip": false,
      "rstrip": false,
      "normalized": false,
      "special": true
    },
    {
      "id": 26,
      "content": "<|reserved_23|>",
      "single_word": false,
      "lstrip": false,
      "rstrip": false,
      "normalized": false,
      "special": true
    },
    {
      "id": 27,
      "content": "<|reserved_24|>",
      "single_word": false,
      "lstrip": false,
      "rstrip": false,
      "normalized": false,
      "special": true
    },
    {
      "id": 28,
      "content": "<|reserved_25|>",
      "single_word": false,
      "lstrip": false,
      "rstrip": false,
      "normalized": false,
      "special": true
    },
    {
      "id": 29,
      "content": "<|reserved_26|>",
      "single_word": false,
      "lstrip": false,
      "rstrip": false,
      "normalized": false,
      "special": true
    },
    {
      "id": 30,
      "content": "<|reserved_27|>",
      "single_word": false,
      "lstrip": false,
      "rstrip": false,
      "normalized": false,
      "special": true
    },
    {
      "id": 31,
      "content": "<|reserved_28|>",
      "single_word": false,
      "lstrip": false,
      "rstrip": false,
      "normalized": false,
      "special": true
    }
  ],
  "normalizer": null,
  "pre_tokenizer": {
    "type": "ByteLevel",
    "add_prefix_space": false,
    "trim_offsets": true,
    "use_regex": true
  },
  "post_processor": null,
  "decoder": {
    "type": "ByteLevel",
    "add_prefix_space": true,
    "trim_offsets": true,
    "use_regex": true
  },
  "model": {
    "type": "BPE",
    "dropout": null,
    "unk_token": null,
    "continuing_subword_prefix": null,
    "end_of_word_suffix": null,
    "fuse_unk": false,
    "byte_fallback": false,
    "ignore_merges": false,
    "vocab": {
      "<|endoftext|>": 0,
      "<|im_start|>": 1,
      "<|im_end|>": 2,
      "<|reserved_0|>": 3,
      "<|reserved_1|>": 4,
      "<|reserved_2|>": 5,
      "<|reserved_3|>": 6,
      "<|reserved_4|>": 7,
      "<|reserved_5|>": 8,
      "<|reserved_6|>": 9,
      "<|reserved_7|>": 10,
      "<|reserved_8|>": 11,
      "<|reserved_9|>": 12,
      "<|reserved_10|>": 13,
      "<|reserved_11|>": 14,
      "<|reserved_12|>": 15,
      "<|reserved_13|>": 16,
      "<|reserved_14|>": 17,
      "<|reserved_15|>": 18,
      "<|reserved_16|>": 19,
      "<|reserved_17|>": 20,
      "<|reserved_18|>": 21,
      "<|reserved_19|>": 22,
      "<|reserved_20|>": 23,
      "<|reserved_21|>": 24,
      "<|reserved_22|>": 25,
      "<|reserved_23|>": 26,
      "<|reserved_24|>": 27,
      "<|reserved_25|>": 28,
      "<|reserved_26|>": 29,
      "<|reserved_27|>": 30,
      "<|reserved_28|>": 31,
      "!": 32,
      "\"": 33,
      "#": 34,
      "$": 35,
      "%": 36,
      "&": 37,
      "'": 38,
      "(": 39,
      ")": 40,
      "*": 41,
      "+": 42,
      ",": 43,
      "-": 44,
      ".": 45,
      "/": 46,
      "0": 47,
      "1": 48,
      "2": 49,
      "3": 50,
      "4": 51,
      "5": 52,
      "6": 53,
      "7": 54,
      "8": 55,
      "9": 56,
      ":": 57,
      ";": 58,
      "<": 59,
      "=": 60,
      ">": 61,
      "?": 62,
      "@": 63,
      "A": 64,
      "B": 65,
      "C": 66,
      "D": 67,
      "E": 68,
      "F": 69,
      "G": 70,
      "H": 71,
      "I": 72,
      "J": 73,
      "K": 74,
      "L": 75,
      "M": 76,
      "N": 77,
      "O": 78,
      "P": 79,
      "Q": 80,
      "R": 81,
      "S": 82,
      "T": 83,
      "U": 84,
      "V": 85,
      "W": 86,
      "X": 87,
      "Y": 88,
      "Z": 89,
      "[": 90,
      "\\": 91,
      "]": 92,
      "^": 93,
      "_": 94,
      "`": 95,
      "a": 96,
      "b": 97,
      "c": 98,
      "d": 99,
      "e": 100,
      "f": 101,
      "g": 102,
      "h": 103,
      "i": 104,
      "j": 105,
      "k": 106,
      "l": 107,
      "m": 108,
      "n": 109,
      "o": 110,
      "p": 111,
      "q": 112,
      "r": 113,
      "s": 114,
      "t": 115,
      "u": 116,
      "v": 117,
      "w": 118,
      "x": 119,
      "y": 120,
      "z": 121,
      "{": 122,
      "|": 123,
      "}": 124,
      "~": 125,
      "¡": 126,
      "¢": 127,
      "£": 128,
      "¤": 129,
      "¥": 130,
      "¦": 131,
      "§": 132,
      "¨": 133,
      "©": 134,
      "ª": 135,
      "«": 136,
      "¬": 137,
      "®": 138,
      "¯": 139,
      "°": 140,
      "±": 141,
      "²": 142,
      "³": 143,
      "´": 144,
      "µ": 145,
      "¶": 146,
      "·": 147,
      "¸": 148,
      "¹": 149,
      "º": 150,
      "»": 151,
      "¼": 152,
      "½": 153,
      "¾": 154,
      "¿": 155,
      "À": 156,
      "Á": 157,
      "Â": 158,
      "Ã": 159,
      "Ä": 160,
      "Å": 161,
      "Æ": 162,
      "Ç": 163,
      "È": 164,
      "É": 165,
      "Ê": 166,
      "Ë": 167,
      "Ì": 168,
      "Í": 169,
      "Î": 170,
      "Ï": 171,
      "Ð": 172,
      "Ñ": 173,
      "Ò": 174,
      "Ó": 175,
      "Ô": 176,
      "Õ": 177,
      "Ö": 178,
      "×": 179,
      "Ø": 180,
      "Ù": 181,
      "Ú": 182,
      "Û": 183,
      "Ü": 184,
      "Ý": 185,
      "Þ": 186,
      "ß": 187,
      "à": 188,
      "á": 189,
      "â": 190,
      "ã": 191,
      "ä": 192,
      "å": 193,
      "æ": 194,
      "ç": 195,
      "è": 196,
      "é": 197,
      "ê": 198,
      "ë": 199,
      "ì": 200,
      "í": 201,
      "î": 202,
      "ï": 203,
      "ð": 204,
      "ñ": 205,
      "ò": 206,
      "ó": 207,
      "ô": 208,
      "õ": 209,
      "ö": 210,
      "÷": 211,
      "ø": 212,
      "ù": 213,
      "ú": 214,
      "û": 215,
      "ü": 216,
      "ý": 217,
      "þ": 218,
      "ÿ": 219,
      "Ā": 220,
      "ā": 221,
      "Ă": 222,
      "ă": 223,
      "Ą": 224,
      "ą": 225,
      "Ć": 226,
      "ć": 227,
      "Ĉ": 228,
      "ĉ": 229,
      "Ċ": 230,
      "ċ": 231,
      "Č": 232,
      "č": 233,
      "Ď": 234,
      "ď": 235,
      "Đ": 236,
      "đ": 237,
      "Ē": 238,
      "ē": 239,
      "Ĕ": 240,
      "ĕ": 241,
      "Ė": 242,
      "ė": 243,
      "Ę": 244,
      "ę": 245,
      "Ě": 246,
      "ě": 247,
      "Ĝ": 248,
      "ĝ": 249,
      "Ğ": 250,
      "ğ": 251,
      "Ġ": 252,
      "ġ": 253,
      "Ģ": 254,
      "ģ": 255,
      "Ĥ": 256,
      "ĥ": 257,
      "Ħ": 258,
      "ħ": 259,
      "Ĩ": 260,
      "ĩ": 261,
      "Ī": 262,
      "ī": 263,
      "Ĭ": 264,
      "ĭ": 265,
      "Į": 266,
      "į": 267,
      "İ": 268,
      "ı": 269,
      "Ĳ": 270,
      "ĳ": 271,
      "Ĵ": 272,
      "ĵ": 273,
      "Ķ": 274,
      "ķ": 275,
      "ĸ": 276,
      "Ĺ": 277,
      "ĺ": 278,
      "Ļ": 279,
      "ļ": 280,
      "Ľ": 281,
      "ľ": 282,
      "Ŀ": 283,
      "ŀ": 284,
      "Ł": 285,
      "ł": 286,
      "Ń": 287,
      "in": 288,
      "Ġt": 289,
      "Ġa": 290,
      "er": 291,
      "on": 292,
      "es": 293,
      "Ġth": 294,
      "en": 295,
      "ti": 296,
      "Ġs": 297,
      "ing": 298,
      "Ġc": 299,
      "or": 300,
      "al": 301,
      "Ġthe": 302,
      "re": 303,
      "nd": 304,
      "Ġp": 305,
      "ou": 306,
      "ed": 307,
      "Ġw": 308,
      "at": 309,
      "it": 310,
      "Ġf": 311,
      "Ġo": 312,
      "an": 313,
      "ar": 314,
      "is": 315,
      "Ġd": 316,
      "Ġin": 317,
      "Ġm": 318,
      "Ġb": 319,
      "tion": 320,
      "Ġand": 321,
      "le": 322,
      "Ġto": 323,
      "Ġe": 324,
      "Ġof": 325,
      "om": 326,
      "Ġh": 327,
      "ic": 328,
      "ent": 329,
      "ly": 330,
      "ro": 331,
      "st": 332,
      "ec": 333,
      "ac": 334,
      "Ġre": 335,
      "ation": 336,
      "et": 337,
      "ve": 338,
      "Ġl": 339,
      "Ġn": 340,
      "--": 341,
      "as": 342,
      "Ġu": 343,
      "id": 344,
      "ow": 345,
      "im": 346,
      "ol": 347,
      "il": 348,
      "ig": 349,
      "ce": 350,
      "Ġg": 351,
      "ur": 352,
      "ver": 353,
      "Ġcon": 354,
      "th": 355,
      "el": 356,
      "ul": 357,
      "ess": 358,
      "Ġr": 359,
      "Ġst": 360,
      "ir": 361,
      "Ġwh": 362,
      "ĠT": 363,
      "ers": 364,
      "Ġex": 365,
      "Ġy": 366,
      "Ġfor": 367,
      "our": 368,
      "ith": 369,
      "am": 370,
      "qu": 371,
      "Ġpro": 372,
      "ts": 373,
      "em": 374,
      "Ġon": 375,
      "Ġcom": 376,
      "ay": 377,
      "ad": 378,
      "uc": 379,
      "ter": 380,
      "ĠA": 381,
      "Ġwith": 382,
      "os": 383,
      "Ġv": 384,
      "ate": 385,
      "ab": 386,
      "ag": 387,
      "us": 388,
      "ity": 389,
      "if": 390,
      "ĠS": 391,
      "pp": 392,
      "Ġas": 393,
      "Ġal": 394,
      "tic": 395,
      "ri": 396,
      "ĠI": 397,
      "ain": 398,
      "Ġan": 399,
      "Ġit": 400,
      "Ġthat": 401,
      "Ġen": 402,
      "ut": 403,
      "ĠTh": 404,
      "um": 405,
      "Ġor": 406,
      "----": 407,
      "Ġbe": 408,
      "igh": 409,
      "ot": 410,
      "out": 411,
      "ion": 412,
      "ere": 413,
      "Ġle": 414,
      "and": 415,
      "ment": 416,
      "Ġis": 417,
      "pl": 418,
      "'s": 419,
      "ĠC": 420,
      "ke": 421,
      "un": 422,
      "Ġch": 423,
      "ch": 424,
      "Ġwe": 425,
      "rou": 426,
      "Ġ(": 427,
      "oc": 428,
      "for": 429,
      "Ġsh": 430,
      "tive": 431,
      "od": 432,
      "ations": 433,
      "Ġint": 434,
      "Ġres": 435,
      "ĠB": 436,
      "Ġtr": 437,
      "Ġac": 438,
      "iz": 439,
      "ap": 440,
      "ting": 441,
      "ure": 442,
      "Ġyou": 443,
      "ies": 444,
      "gh": 445,
      "rom": 446,
      "Ġde": 447,
      "tions": 448,
      "all": 449,
      "ĠM": 450,
      "iv": 451,
      "Ġus": 452,
      "Ġcomp": 453,
      "Ġim": 454,
      "Ġtheir": 455,
      "Ġdis": 456,
      "ine": 457,
      "ld": 458,
      "op": 459,
      "ally": 460,
      "ust": 461,
      "ous": 462,
      "Ġne": 463,
      "ese": 464,
      "ĠW": 465,
      "per": 466,
      "Ġad": 467,
      "Ġse": 468,
      "Ġthis": 469,
      "ant": 470,
      "pec": 471,
      "Ġby": 472,
      "end": 473,
      "ance": 474,
      "ĠH": 475,
      "ore": 476,
      "ill": 477,
      "ĠP": 478,
      "Ġcan": 479,
      "ud": 480,
      "Ġab": 481,
      "âĢ": 482,
      "iti": 483,
      "ial": 484,
      "ard": 485,
      "Ġun": 486,
      "ach": 487,
      "Ġ$": 488,
      "Ġpr": 489,
      "ence": 490,
      "og": 491,
      "king": 492,
      "Ġcont": 493,
      "ight": 494,
      "ĠF": 495,
      "Ġyour": 496,
      "ther": 497,
      "est": 498,
      "ome": 499,
      "able": 500,
      "Ġapp": 501,
      "are": 502,
      "Ġat": 503,
      "ĠE": 504,
      "enti": 505,
      "ating": 506,
      "ge": 507,
      "ist": 508,
      "Ġwor": 509,
      "Ġfrom": 510,
      "ep": 511,
      "ip": 512,
      "ide": 513,
      "Ġpl": 514,
      "fer": 515,
      "ans": 516,
      "eth": 517,
      "ue": 518,
      "ĠD": 519,
      "Ġsu": 520,
      "ath": 521,
      "Ġthey": 522,
      "ign": 523,
      "ents": 524,
      "ong": 525,
      "ort": 526,
      "Ġhe": 527,
      "ĠR": 528,
      "Ġare": 529,
      "Ġme": 530,
      "Ġstr": 531,
      "ated": 532,
      "nder": 533,
      "--------": 534,
      "Ġinc": 535,
      "ind": 536,
      "se": 537,
      "Ġour": 538,
      "Ġimp": 539,
      "Ġall": 540,
      "ces": 541,
      "Ġthese": 542,
      "ĠL": 543,
      "ves": 544,
      "ould": 545,
      "Ġpar": 546,
      "Ġinto": 547,
      "ile": 548,
      "ast": 549,
      "rough": 550,
      "Ġj": 551,
      "ib": 552,
      "Ġk": 553,
      "Ġ1": 554,
      "Ġha": 555,
      "Ġsp": 556,
      "form": 557,
      "act": 558,
      "Ġem": 559,
      "ff": 560,
      "Ġ\"": 561,
      "age": 562,
      "ical": 563,
      "ving": 564,
      "Ġabout": 565,
      "ike": 566,
      "Ġev": 567,
      "ks": 568,
      "Ġunder": 569,
      "ĠO": 570,
      "ari": 571,
      "Ġinter": 572,
      "ost": 573,
      "cess": 574,
      "Ġcons": 575,
      "Ġ=": 576,
      "Ġar": 577,
      "ors": 578,
      "Ġsuc": 579,
      "ful": 580,
      "pr": 581,
      "ual": 582,
      "ĠĠ": 583,
      "Ġits": 584,
      "Ġup": 585,
      "ect": 586,
      "Ġcl": 587,
      "ose": 588,
      "ities": 589,
      "vel": 590,
      "ary": 591,
      "ra": 592,
      "Ġhow": 593,
      "ition": 594,
      "Ġcomm": 595,
      "ens": 596,
      "ell": 597,
      "Ġind": 598,
      "Ġbo": 599,
      "Ġ\\": 600,
      "ang": 601,
      "Ġbet": 602,
      "Ġqu": 603,
      "ich": 604,
      "**": 605,
      "ĠG": 606,
      "ire": 607,
      "ĠN": 608,
      "uring": 609,
      "ear": 610,
      "ĠThe": 611,
      "Ġthem": 612,
      "ct": 613,
      "duc": 614,
      "ack": 615,
      "Ġwhen": 616,
      "Ġ-": 617,
      "ie": 618,
      "oun": 619,
      "Ġman": 620,
      "over": 621,
      "ive": 622,
      "Ġ2": 623,
      "Ġma": 624,
      "Ġper": 625,
      "Ġlike": 626,
      "Ġro": 627,
      "ific": 628,
      "Ġthrough": 629,
      "Ġpre": 630,
      "ne": 631,
      "tim": 632,
      "Ġout": 633,
      "Ġcre": 634,
      "Ġtim": 635,
      "Ġval": 636,
      "ace": 637,
      "Ġover": 638,
      "now": 639,
      "ility": 640,
      "ass": 641,
      "les": 642,
      "Ġsome": 643,
      "we": 644,
      "ond": 645,
      "umb": 646,
      "ple": 647,
      "Ġdisc": 648,
      "ati": 649,
      "ments": 650,
      "very": 651,
      "ative": 652,
      "ĠIn": 653,
      "ech": 654,
      "Ġrem": 655,
      "Ġcol": 656,
      "Ġsc": 657,
      "stand": 658,
      "ning": 659,
      "Ġrel": 660,
      "Ġdes": 661,
      "ound": 662,
      "tain": 663,
      "Ġexpl": 664,
      "Ġdif": 665,
      "ite": 666,
      "ential": 667,
      "one": 668,
      "gr": 669,
      "ĠThis": 670,
      "ult": 671,
      "oin": 672,
      "ex": 673,
      "ures": 674,
      "Ġmore": 675,
      "Ġinv": 676,
      "Ġso": 677,
      "rac": 678,
      "ever": 679,
      "'t": 680,
      "Ġequ": 681,
      "Ġpos": 682,
      "av": 683,
      "ĠâĢ": 684,
      "ough": 685,
      "Ġam": 686,
      "ates": 687,
      "round": 688,
      "Ġwas": 689,
      "Ġprov": 690,
      "ween": 691,
      "Ġhave": 692,
      "Ġsuch": 693,
      "ings": 694,
      "ame": 695,
      "ons": 696,
      "Ġins": 697,
      "Ġthere": 698,
      "Ġbetween": 699,
      "ted": 700,
      "ays": 701,
      "Ġone": 702,
      "ĠU": 703,
      "Ġvari": 704,
      "Ġfe": 705,
      "ues": 706,
      "Ġwill": 707,
      "Ġta": 708,
      "Ġher": 709,
      "ms": 710,
      "Ġknow": 711,
      "ater": 712,
      "ish": 713,
      "Ġrec": 714,
      "Ġbec": 715,
      "Ġexper": 716,
      "ions": 717,
      "ular": 718,
      ").": 719,
      "Ġtw": 720,
      "Ġdiffer": 721,
      "Ġlo": 722,
      "Ġnot": 723,
      "ction": 724,
      "eng": 725,
      "Ġdo": 726,
      "ll": 727,
      "als": 728,
      "Ġnumb": 729,
      "Ġevery": 730,
      "Ġwhich": 731,
      "Ġtime": 732,
      "Ġwhile": 733,
      "rib": 734,
      "Ġfun": 735,
      "Ġbut": 736,
      "low": 737,
      "Ġwhere": 738,
      "Ġop": 739,
      "Th": 740,
      "Ġhel": 741,
      "Ġreg": 742,
      "ry": 743,
      "Ġlear": 744,
      "ider": 745,
      "Ġadd": 746,
      "ĠWh": 747,
      "olog": 748,
      "ys": 749,
      "Ġdec": 750,
      "ether": 751,
      "ward": 752,
      "Ġsy": 753,
      "tical": 754,
      "Ġunderstand": 755,
      "enc": 756,
      "iqu": 757,
      "Ġwithin": 758,
      "row": 759,
      "Ġser": 760,
      "Ġboth": 761,
      "Ġtrans": 762,
      "\\_": 763,
      "vers": 764,
      "ia": 765,
      "In": 766,
      "ten": 767,
      "Ġother": 768,
      "ory": 769,
      "echn": 770,
      "Ġsim": 771,
      "str": 772,
      "ĠJ": 773,
      "Ġhelp": 774,
      "Ġno": 775,
      "Ġass": 776,
      "ase": 777,
      "Ġspec": 778,
      "hip": 779,
      "lic": 780,
      "Ġexam": 781,
      "ric": 782,
      "),": 783,
      "Ġacc": 784,
      "Ġset": 785,
      "ord": 786,
      "Ġlet": 787,
      "Ġany": 788,
      "Ġincl": 789,
      "Ġmo": 790,
      "Ġhis": 791,
      "Ġ+": 792,
      "Ġsign": 793,
      "Ġcommun": 794,
      "ail": 795,
      "anc": 796,
      "Ġthan": 797,
      "ĠâĢĵ": 798,
      "ved": 799,
      "ty": 800,
      "Ġsol": 801,
      "Ġob": 802,
      "Ġtwo": 803,
      "elf": 804,
      "Ġwho": 805,
      "irst": 806,
      "Ġwhat": 807,
      "Ġcould": 808,
      "ivid": 809,
      "lex": 810,
      "Ġmy": 811,
      "ences": 812,
      "Ġhas": 813,
      "ower": 814,
      "Ġeach": 815,
      "ark": 816,
      "ĠBy": 817,
      "so": 818,
      "Ġgo": 819,
      "Ġag": 820,
      "Ġtechn": 821,
      "esent": 822,
      "ok": 823,
      "Ġappro": 824,
      "Ġnew": 825,
      "Ġconc": 826,
      "tiv": 827,
      "Ġsec": 828,
      "Ġform": 829,
      "Ġsub": 830,
      "fore": 831,
      "emb": 832,
      "ased": 833,
      "ss": 834,
      "cep": 835,
      "ise": 836,
      "Ġneed": 837,
      "Ġeff": 838,
      "its": 839,
      "Ġhigh": 840,
      "Ġreal": 841,
      "Ġeven": 842,
      "Ġpers": 843,
      "Ġco": 844,
      "ize": 845,
      "Ġif": 846,
      "ience": 847,
      "Ġgr": 848,
      "Ġph": 849,
      "tern": 850,
      "Ġalso": 851,
      "Ġlead": 852,
      "led": 853,
      "velop": 854,
      "Ġele": 855,
      "Ġconsider": 856,
      "Ġsm": 857,
      "Ġfind": 858,
      "ub": 859,
      "ild": 860,
      "Ġinst": 861,
      "erm": 862,
      "Ġinclud": 863,
      "Ġinvol": 864,
      "Ġadv": 865,
      "pport": 866,
      "Ġstud": 867,
      "Ġens": 868,
      "aus": 869,
      "ree": 870,
      "ice": 871,
      "ized": 872,
      "ble": 873,
      "----------------": 874,
      "Ġduring": 875,
      "ement": 876,
      "ĠIt": 877,
      "ph": 878,
      "gan": 879,
      "art": 880,
      "ci": 881,
      "Ġthose": 882,
      "own": 883,
      "ible": 884,
      "ution": 885,
      "ently": 886,
      "yp": 887,
      "Ġmay": 888,
      "Ġrequ": 889,
      "Ġdet": 890,
      "Ġgen": 891,
      "Ġusing": 892,
      "fter": 893,
      "other": 894,
      "Ġcr": 895,
      "ering": 896,
      "Ġmod": 897,
      "Ġchall": 898,
      "Ġdist": 899,
      "oy": 900,
      "stem": 901,
      "ĠY": 902,
      "ĠHow": 903,
      "Ġsoc": 904,
      "ft": 905,
      "Ġdi": 906,
      "ability": 907,
      "Ġsa": 908,
      "Ġsur": 909,
      "ession": 910,
      "Ġvarious": 911,
      "ends": 912,
      "Ġrepr": 913,
      "ount": 914,
      "Ġshe": 915,
      "Ġindivid": 916,
      "ange": 917,
      "old": 918,
      "Ġprovid": 919,
      "ines": 920,
      "ead": 921,
      "ak": 922,
      "Ġprac": 923,
      "ici": 924,
      "Ġdevelop": 925,
      "ulti": 926,
      "Ġeng": 927,
      "wn": 928,
      "ĠSt": 929,
      "Ġ3": 930,
      "ext": 931,
      "ational": 932,
      "Ġindividual": 933,
      "ollow": 934,
      "ness": 935,
      "Ġwork": 936,
      "Ġpoin": 937,
      "ross": 938,
      "Ġpot": 939,
      "ĠCh": 940,
      "Ġpartic": 941,
      "Ġallow": 942,
      "Ġplay": 943,
      "Ġbu": 944,
      "Ġprocess": 945,
      "Ġx": 946,
      "ef": 947,
      "ateg": 948,
      "Ġte": 949,
      "00": 950,
      "Ġcur": 951,
      "}{": 952,
      "por": 953,
      ".\"": 954,
      "ights": 955,
      "Ġbl": 956,
      "ven": 957,
      "ality": 958,
      "ood": 959,
      "Ġbr": 960,
      "Ġpol": 961,
      "Ġoff": 962,
      "Ġmat": 963,
      "Ġpe": 964,
      "Ġdifferent": 965,
      "Ġproduc": 966,
      "Ġinf": 967,
      "Ġwould": 968,
      "ural": 969,
      "ps": 970,
      "alth": 971,
      "Ġimport": 972,
      "Ġsk": 973,
      "Ġdat": 974,
      "ately": 975,
      "izing": 976,
      "Ġfunction": 977,
      "Ġsignific": 978,
      "ily": 979,
      "Ġmight": 980,
      "ared": 981,
      "Ġfin": 982,
      "Ġmulti": 983,
      "eld": 984,
      "Ġprom": 985,
      "Ġsystem": 986,
      "eg": 987,
      "ress": 988,
      "Ġcontin": 989,
      "Ġcall": 990,
      "urther": 991,
      "Ġfollow": 992,
      "ĠK": 993,
      "Ġincre": 994,
      "##": 995,
      "ling": 996,
      "Ġfri": 997,
      "Ġdel": 998,
      "ĠAs": 999,
      "Ġsee": 1000,
      "Ġaround": 1001,
      "ield": 1002,
      "Ġgu": 1003,
      "ern": 1004,
      "Ġke": 1005,
      "Ġjust": 1006,
      "Ġdef": 1007,
      "Ġdem": 1008,
      "Ġhad": 1009,
      "par": 1010,
      "Ġmain": 1011,
      "Ġback": 1012,
      "Ġconn": 1013,
      "ying": 1014,
      "Ġworld": 1015,
      "Ġlearn": 1016,
      "ands": 1017,
      "Ġunderstanding": 1018,
      "ince": 1019,
      "erg": 1020,
      "Ġinform": 1021,
      "Ġpower": 1022,
      "Ġloc": 1023,
      "Ġcomplex": 1024,
      "tics": 1025,
      "uss": 1026,
      "uct": 1027,
      "wards": 1028,
      "lus": 1029,
      "wor": 1030,
      "Ġcor": 1031,
      "ious": 1032,
      "ob": 1033,
      "Ġref": 1034,
      "ics": 1035,
      "ĠThese": 1036,
      "tit": 1037,
      "ade": 1038,
      "Ġsom": 1039,
      "Ġnumber": 1040,
      "Ġfirst": 1041,
      "Ġthen": 1042,
      "iting": 1043,
      "ique": 1044,
      "urn": 1045,
      "Ġresp": 1046,
      "ices": 1047,
      "ied": 1048,
      "frac": 1049,
      "ĠWe": 1050,
      "Ġcare": 1051,
      "ective": 1052,
      "ĠHowever": 1053,
      "Ġid": 1054,
      "Ġdue": 1055,
      "ĠĠĠĠ": 1056,
      "itions": 1057,
      "Ġconf": 1058,
      "Ġmany": 1059,
      "Ġgrow": 1060,
      "Ġanal": 1061,
      "ature": 1062,
      "Ġchalleng": 1063,
      "Ġremain": 1064,
      "Ġprof": 1065,
      "Ġenc": 1066,
      "ething": 1067,
      "ĠV": 1068,
      "ties": 1069,
      "Ġdown": 1070,
      "lec": 1071,
      "pect": 1072,
      "ages": 1073,
      "Ġext": 1074,
      "Ġwere": 1075,
      "âĢĻ": 1076,
      "Ġproble": 1077,
      "oring": 1078,
      "te": 1079,
      "Ġsomething": 1080,
      "Ġfact": 1081,
      "ets": 1082,
      "Ġfac": 1083,
      "arm": 1084,
      "ocus": 1085,
      "Ġdesign": 1086,
      "reat": 1087,
      "itive": 1088,
      "ute": 1089,
      "Ġess": 1090,
      "Ġexp": 1091,
      "ency": 1092,
      "Ġbefore": 1093,
      "ances": 1094,
      "Ġ0": 1095,
      "Ġcap": 1096,
      "$$": 1097,
      "arg": 1098,
      "Ġonly": 1099,
      "ife": 1100,
      "Ġpotential": 1101,
      "Ġapproach": 1102,
      "earch": 1103,
      "Ġtyp": 1104,
      "Ġgiv": 1105,
      "Ġvis": 1106,
      "ick": 1107,
      "Ġmath": 1108,
      "Ġdata": 1109,
      "ĠTo": 1110,
      "Ġfl": 1111,
      "Ġamong": 1112,
      "Ġresearch": 1113,
      "Ġposs": 1114,
      "Ġmed": 1115,
      "ication": 1116,
      "Ġmake": 1117,
      "Ġhealth": 1118,
      "ization": 1119,
      "Ġthough": 1120,
      "lying": 1121,
      "ĠFor": 1122,
      "aph": 1123,
      "St": 1124,
      "gg": 1125,
      "ember": 1126,
      "til": 1127,
      "ather": 1128,
      "Ġent": 1129,
      "Ġbeh": 1130,
      "ining": 1131,
      "Ġexpr": 1132,
      "Ġsignificant": 1133,
      "Ġfocus": 1134,
      "ology": 1135,
      "Ġgrou": 1136,
      "omes": 1137,
      "ĠCon": 1138,
      "Ġanother": 1139,
      "Ġgener": 1140,
      "less": 1141,
      "Ġorgan": 1142,
      "Ġacross": 1143,
      "Ġstrateg": 1144,
      "Ġdiscuss": 1145,
      "ema": 1146,
      "..": 1147,
      "Ġalong": 1148,
      "gether": 1149,
      "Ġtogether": 1150,
      "utions": 1151,
      "iew": 1152,
      "^{": 1153,
      "tice": 1154,
      "Ġnumbers": 1155,
      "ier": 1156,
      "Ġsmall": 1157,
      "Ġ&": 1158,
      "Ġide": 1159,
      "Ġidenti": 1160,
      "Ġway": 1161,
      "ples": 1162,
      "ertain": 1163,
      "Ġrelations": 1164,
      "Ġsuccess": 1165,
      "Ġunique": 1166,
      "Ġed": 1167,
      "Ġiniti": 1168,
      "Ġatt": 1169,
      "Ġproper": 1170,
      "Ġoften": 1171,
      "aw": 1172,
      "Ġear": 1173,
      "Ġtowards": 1174,
      "aging": 1175,
      "Ġques": 1176,
      "Ġprogr": 1177,
      "ilar": 1178,
      "âĪ": 1179,
      "Ġrepresent": 1180,
      "ethod": 1181,
      "âĢĶ": 1182,
      "ism": 1183,
      "ital": 1184,
      "Ġfound": 1185,
      "Ġconcep": 1186,
      "Ġperson": 1187,
      "ired": 1188,
      "Ġimpro": 1189,
      "ov": 1190,
      "Ġmin": 1191,
      "Ġbel": 1192,
      "ĠThey": 1193,
      "Ġcontrib": 1194,
      "ople": 1195,
      "Ġexample": 1196,
      "ause": 1197,
      "ually": 1198,
      "Ġown": 1199,
      "Ġoffer": 1200,
      "ases": 1201,
      "ĠAd": 1202,
      "Ġfr": 1203,
      "esp": 1204,
      "ects": 1205,
      "$,": 1206,
      "ories": 1207,
      "As": 1208,
      "Ġcult": 1209,
      "lish": 1210,
      "Ġbased": 1211,
      "Ġessential": 1212,
      "Ġmean": 1213,
      "Ġdire": 1214,
      "Ġ**": 1215,
      "Ġday": 1216,
      "Ġ'": 1217,
      "air": 1218,
      "Ġvalue": 1219,
      "iness": 1220,
      "inal": 1221,
      "Ġend": 1222,
      "con": 1223,
      "$.": 1224,
      "Ġsch": 1225,
      "ink": 1226,
      "Ġexc": 1227,
      "ength": 1228,
      "cul": 1229,
      "Ġcal": 1230,
      "iss": 1231,
      "Ġ$\\": 1232,
      "ources": 1233,
      "Ġ4": 1234,
      "Ġlearning": 1235,
      "Ġafter": 1236,
      "uch": 1237,
      "verse": 1238,
      "line": 1239,
      "Ġsever": 1240,
      "pportun": 1241,
      "ection": 1242,
      "Ġiss": 1243,
      "Ġline": 1244,
      "thers": 1245,
      "Ġpart": 1246,
      "ined": 1247,
      "itional": 1248,
      "Ġperform": 1249,
      "ng": 1250,
      "Ġupon": 1251,
      "The": 1252,
      "wh": 1253,
      "cc": 1254,
      "abor": 1255,
      "iron": 1256,
      "Ġagain": 1257,
      "Now": 1258,
      "up": 1259,
      "Ġmethod": 1260,
      "ols": 1261,
      "Ġseem": 1262,
      "Step": 1263,
      "Ġplan": 1264,
      "agine": 1265,
      "Ġincluding": 1266,
      "Ġskill": 1267,
      "Ġexperi": 1268,
      "Ġrelationship": 1269,
      "Ġcalled": 1270,
      "Ġmaintain": 1271,
      "ways": 1272,
      "Ġhist": 1273,
      "Ġstar": 1274,
      "Ġfost": 1275,
      "ited": 1276,
      "Ġopportun": 1277,
      "ental": 1278,
      "Ġstep": 1279,
      "lusion": 1280,
      "Ġwithout": 1281,
      "Ġbuild": 1282,
      "Ġcruc": 1283,
      "Ġgl": 1284,
      "ety": 1285,
      ".,": 1286,
      "Ġ|": 1287,
      "Ġmark": 1288,
      "Ġbeen": 1289,
      "ĠSh": 1290,
      "Ġcrucial": 1291,
      "ĠWith": 1292,
      "Ġfam": 1293,
      "Ġbre": 1294,
      "Ġchallenges": 1295,
      "Ġvalues": 1296,
      "egr": 1297,
      "Ġmust": 1298,
      "lect": 1299,
      "Ġshap": 1300,
      "ma": 1301,
      "Ġcle": 1302,
      "Ġpeople": 1303,
      "ĠEx": 1304,
      "viron": 1305,
      "ĠBut": 1306,
      "Ġspecific": 1307,
      "Ġresul": 1308,
      "au": 1309,
      "Ġothers": 1310,
      "Ġexplore": 1311,
      "Ġ5": 1312,
      "Ġintegr": 1313,
      "Ġcomb": 1314,
      "ilities": 1315,
      "Ġdiscover": 1316,
      "Ġpass": 1317,
      "to": 1318,
      "ists": 1319,
      "Ġhum": 1320,
      "Ġdep": 1321,
      "und": 1322,
      "Ġdoes": 1323,
      "Ġliv": 1324,
      "Ġfurther": 1325,
      "agement": 1326,
      "irc": 1327,
      "Ġav": 1328,
      "ffor": 1329,
      "Ġtrad": 1330,
      "ject": 1331,
      "Ġwell": 1332,
      "Ġmost": 1333,
      "Ġget": 1334,
      "Ġmaking": 1335,
      "oth": 1336,
      "Ġlong": 1337,
      "Ġcho": 1338,
      "Ġcar": 1339,
      "Ġlife": 1340,
      "Ġinn": 1341,
      "Ġbeing": 1342,
      "Ġchar": 1343,
      "Ġmathema": 1344,
      "Ġoper": 1345,
      "Ġvalu": 1346,
      "Ġopen": 1347,
      "Ġben": 1348,
      "Ġtake": 1349,
      "els": 1350,
      "times": 1351,
      "Ġemb": 1352,
      "ploy": 1353,
      "ĠAnd": 1354,
      "Ġregard": 1355,
      "ian": 1356,
      "ination": 1357,
      "Ġshow": 1358,
      "Ġcond": 1359,
      "ecess": 1360,
      "Ġfriends": 1361,
      "Ġchang": 1362,
      "Ġz": 1363,
      "Ġenviron": 1364,
      "Ġtri": 1365,
      "ey": 1366,
      "ision": 1367,
      "Ġpractic": 1368,
      "Ġseveral": 1369,
      "Ġless": 1370,
      "Ġinformation": 1371,
      "Ġbetter": 1372,
      "Ġhand": 1373,
      "Ġmeas": 1374,
      "Ġparticular": 1375,
      "eed": 1376,
      "Ġlim": 1377,
      "{\\": 1378,
      "asing": 1379,
      "ĠAn": 1380,
      "ix": 1381,
      "Ġdeterm": 1382,
      "fully": 1383,
      "Ġprev": 1384,
      "Ġsince": 1385,
      "Ġmus": 1386,
      "Ġpat": 1387,
      "Ġapplic": 1388,
      "ĠCom": 1389,
      "ĠWhen": 1390,
      "Ġcent": 1391,
      "ser": 1392,
      "Ġ20": 1393,
      "Ġread": 1394,
      "Ġbus": 1395,
      "Ġimportant": 1396,
      "Ġthroughout": 1397,
      "aring": 1398,
      "Ġpres": 1399,
      "Ġcontinu": 1400,
      "Ġtop": 1401,
      "Ġexperience": 1402,
      "ĠSo": 1403,
      "Ġwr": 1404,
      "Ġrep": 1405,
      "Ġthings": 1406,
      "Ġcalcul": 1407,
      "Ġrole": 1408,
      "ending": 1409,
      "Ġstruct": 1410,
      "kes": 1411,
      "Ġwant": 1412,
      "}}": 1413,
      "ĠPro": 1414,
      "To": 1415,
      "Ġaccess": 1416,
      "Ġpo": 1417,
      "ave": 1418,
      "Ġeffective": 1419,
      "labor": 1420,
      "tle": 1421,
      "Ġchange": 1422,
      "ĠAm": 1423,
      "Ġsum": 1424,
      "ams": 1425,
      "Ġalways": 1426,
      "Ġaddress": 1427,
      "Ġaw": 1428,
      "ears": 1429,
      "Ġturn": 1430,
      "red": 1431,
      "Ġgre": 1432,
      "Ġpur": 1433,
      "Ġpoint": 1434,
      "Ġbecause": 1435,
      "ants": 1436,
      "ew": 1437,
      "Ġ*": 1438,
      "Ġenh": 1439,
      "Ġorig": 1440,
      "Ġcreate": 1441,
      "ĠLet": 1442,
      "ctions": 1443,
      "iques": 1444,
      "Ġvaluable": 1445,
      "Ġcertain": 1446,
      "sequ": 1447,
      "pt": 1448,
      "Ġshould": 1449,
      "oci": 1450,
      "ogn": 1451,
      "ables": 1452,
      "atis": 1453,
      "Ġjour": 1454,
      "Ġprovide": 1455,
      "Ġprot": 1456,
      "ledge": 1457,
      "Ġest": 1458,
      "Ġspecial": 1459,
      "Ġsocial": 1460,
      "Ġtal": 1461,
      "Ġsti": 1462,
      "ake": 1463,
      "ibility": 1464,
      "Ġstand": 1465,
      "ablish": 1466,
      "Ġpresent": 1467,
      "ĠWhile": 1468,
      "Ġrespons": 1469,
      "ustom": 1470,
      "Ġgiven": 1471,
      "ically": 1472,
      "tional": 1473,
      "Ġcri": 1474,
      "Ġindividuals": 1475,
      "Wh": 1476,
      "Ġgrowth": 1477,
      "sel": 1478,
      "Ġproblem": 1479,
      "Ġtransform": 1480,
      "Ġnecess": 1481,
      "ked": 1482,
      "ict": 1483,
      "Ġsupp": 1484,
      "Ġbusiness": 1485,
      "Ġhere": 1486,
      "Ġthree": 1487,
      "Ġcommunity": 1488,
      "Ġfeel": 1489,
      "Ġter": 1490,
      "xim": 1491,
      "onstr": 1492,
      "ĠOne": 1493,
      "Ġwhether": 1494,
      "Ġpositive": 1495,
      "Ġhim": 1496,
      "Ġemp": 1497,
      "Ġskills": 1498,
      "Ġright": 1499,
      "Ġinstead": 1500,
      "Ġpop": 1501,
      "Ġtechniques": 1502,
      "Ġmade": 1503,
      "plic": 1504,
      "Ġhapp": 1505,
      "ah": 1506,
      "ior": 1507,
      "Ġlevel": 1508,
      "fic": 1509,
      "Ġfield": 1510,
      "Ġlit": 1511,
      ",\"": 1512,
      "Ġinsights": 1513,
      "Ġpri": 1514,
      "Ġoverall": 1515,
      "Ġeffor": 1516,
      "acy": 1517,
      "Ġimm": 1518,
      "Ġclass": 1519,
      "day": 1520,
      "Ġeduc": 1521,
      "Ġbenef": 1522,
      "Ġcirc": 1523,
      "ney": 1524,
      "uture": 1525,
      "Ġdirect": 1526,
      "Ġtra": 1527,
      "lu": 1528,
      "ense": 1529,
      "eting": 1530,
      "Ġdid": 1531,
      "Ġanaly": 1532,
      "Ġemploy": 1533,
      "aining": 1534,
      "math": 1535,
      "Ġsimilar": 1536,
      "ests": 1537,
      "Ġlocal": 1538,
      "read": 1539,
      "Ġsame": 1540,
      "ĠAl": 1541,
      "Ġknowledge": 1542,
      "anced": 1543,
      "umer": 1544,
      "Ġcount": 1545,
      "Ġactiv": 1546,
      "Ġrequir": 1547,
      "One": 1548,
      "Ġnow": 1549,
      "ials": 1550,
      "Ġissues": 1551,
      "Ġexpress": 1552,
      "yond": 1553,
      "Ġbeyond": 1554,
      "uth": 1555,
      "Ġes": 1556,
      "Ġensure": 1557,
      "Ġdeep": 1558,
      "ording": 1559,
      "Ġtoo": 1560,
      "tives": 1561,
      "Ġwhy": 1562,
      "Ġsoci": 1563,
      "Ġpattern": 1564,
      "Ġsit": 1565,
      "arch": 1566,
      "roduc": 1567,
      "Ġcustom": 1568,
      "Ġprim": 1569,
      "ote": 1570,
      "Ġcreating": 1571,
      "Ġdevelopment": 1572,
      "ĠYou": 1573,
      "Ġconstr": 1574,
      "Ġmon": 1575,
      "Ġ`": 1576,
      "ĠIm": 1577,
      "ĠHe": 1578,
      "Ġbecome": 1579,
      "Ġnon": 1580,
      "Ġinnov": 1581,
      "Ġserv": 1582,
      "app": 1583,
      "Ġsupport": 1584,
      "ored": 1585,
      "Ġuse": 1586,
      "Ġmag": 1587,
      "Ġprin": 1588,
      "Ġfactors": 1589,
      "selves": 1590,
      "be": 1591,
      "Ġopportunities": 1592,
      "Ġlook": 1593,
      "lement": 1594,
      "Ġagainst": 1595,
      "Ġcollabor": 1596,
      "ered": 1597,
      "ĠOn": 1598,
      "Ġassoci": 1599,
      "oreover": 1600,
      "orm": 1601,
      "Ġaff": 1602,
      "ided": 1603,
      "ock": 1604,
      "Ġkeep": 1605,
      "Ġgroup": 1606,
      "Ġused": 1607,
      "ĠUn": 1608,
      "Ġconnec": 1609,
      "Ġelements": 1610,
      "ds": 1611,
      "iec": 1612,
      "Ġmet": 1613,
      "Ġensuring": 1614,
      "aling": 1615,
      "ots": 1616,
      "Ġdemonstr": 1617,
      "}\\": 1618,
      "thing": 1619,
      ":**": 1620,
      "Ġphys": 1621,
      "Ġestablish": 1622,
      "ron": 1623,
      "Ġful": 1624,
      "Ġmove": 1625,
      "Ġfuture": 1626,
      "ĠAdd": 1627,
      "Ġris": 1628,
      "Ġstill": 1629,
      "Ġwater": 1630,
      "Ġsqu": 1631,
      "Ġregarding": 1632,
      "raph": 1633,
      "view": 1634,
      "Ġidentif": 1635,
      "Ġenvironment": 1636,
      "Ġrele": 1637,
      "Ġsaf": 1638,
      "Ġeas": 1639,
      "Ġarti": 1640,
      "'re": 1641,
      "Ġeveryone": 1642,
      "yn": 1643,
      "Ġmuch": 1644,
      "Ġknown": 1645,
      "self": 1646,
      "Ġact": 1647,
      "Ġmeans": 1648,
      "ove": 1649,
      "Ġden": 1650,
      "Ġcomes": 1651,
      "Ġcontro": 1652,
      "angu": 1653,
      "Ġreduc": 1654,
      "Ġbest": 1655,
      "Ġneg": 1656,
      "==": 1657,
      "aking": 1658,
      "Ġprofession": 1659,
      "Ġappre": 1660,
      "Ġleg": 1661,
      "Ġhuman": 1662,
      "ological": 1663,
      "Ġstrategies": 1664,
      "_{": 1665,
      "Ġresources": 1666,
      "Ġmeaning": 1667,
      "pected": 1668,
      "Ġexploring": 1669,
      "atch": 1670,
      "Ġdig": 1671,
      "Ġexperiences": 1672,
      "Ġpoints": 1673,
      "ax": 1674,
      "pos": 1675,
      "the": 1676,
      "Ġcompon": 1677,
      "Ġmultiple": 1678,
      "ergy": 1679,
      "Ġmater": 1680,
      "Ġimpact": 1681,
      "acter": 1682,
      "Ġsystems": 1683,
      "uce": 1684,
      "Ġpersonal": 1685,
      "Ġpractices": 1686,
      "Ġequation": 1687,
      "Ġcommon": 1688,
      "ublic": 1689,
      "ained": 1690,
      "aces": 1691,
      "Ġcour": 1692,
      "Ġremember": 1693,
      "Ġspace": 1694,
      "ensive": 1695,
      "Ġdiv": 1696,
      "Ġappreci": 1697,
      "``": 1698,
      "pects": 1699,
      "Ġjourney": 1700,
      "vity": 1701,
      "Ġpolic": 1702,
      "Ġconclusion": 1703,
      "ee": 1704,
      "Ġdon": 1705,
      "Ġshared": 1706,
      "Ġshare": 1707,
      "Ġpossible": 1708,
      "Ġthought": 1709,
      "Ġdra": 1710,
      "Ġreach": 1711,
      "istic": 1712,
      "ĠThrough": 1713,
      "Ġord": 1714,
      "Ġconcern": 1715,
      "Ġinflu": 1716,
      "ĠThat": 1717,
      "Ġeffici": 1718,
      "Ġworking": 1719,
      "itionally": 1720,
      "Ġobser": 1721,
      "Ġinstance": 1722,
      "ero": 1723,
      "ars": 1724,
      "Ġcommunication": 1725,
      "rix": 1726,
      "Ġleading": 1727,
      "atures": 1728,
      "Ġyet": 1729,
      "ounter": 1730,
      "Ġmethods": 1731,
      "Ġcase": 1732,
      "Ġmom": 1733,
      "esting": 1734,
      "by": 1735,
      "Ġtools": 1736,
      "Ġyoung": 1737,
      "inary": 1738,
      "Ġallows": 1739,
      "val": 1740,
      "eness": 1741,
      "Ġsym": 1742,
      "Ġimprove": 1743,
      "Ġ6": 1744,
      "ze": 1745,
      "ner": 1746,
      "Ġresults": 1747,
      "Ġaim": 1748,
      "Ġfund": 1749,
      "Ġdiverse": 1750,
      "Ġstrong": 1751,
      "Ġbro": 1752,
      "aps": 1753,
      "Ġinvolves": 1754,
      "ins": 1755,
      "Ġbehav": 1756,
      "(\\": 1757,
      "Ġlangu": 1758,
      "jects": 1759,
      "chie": 1760,
      "Ġbi": 1761,
      "rop": 1762,
      "Ġlist": 1763,
      "Ġoptim": 1764,
      "Ġmen": 1765,
      "Ġkey": 1766,
      "ule": 1767,
      "Ġconditions": 1768,
      "Ġocc": 1769,
      "Ġpiec": 1770,
      "ograph": 1771,
      "Ġresult": 1772,
      "her": 1773,
      "Ġways": 1774,
      "Ġcompan": 1775,
      "den": 1776,
      "Ġconvers": 1777,
      "avig": 1778,
      "ltim": 1779,
      "ret": 1780,
      "ool": 1781,
      "ced": 1782,
      "zing": 1783,
      "Ġstudents": 1784,
      "Ġdev": 1785,
      "ĠThere": 1786,
      "Ġoriginal": 1787,
      "Ġimportance": 1788,
      "Ġfollowing": 1789,
      "Ġfunctions": 1790,
      "Ġelect": 1791,
      "Ġconsist": 1792,
      "Ġteam": 1793,
      "Ġel": 1794,
      "Ġsl": 1795,
      "Ġsometimes": 1796,
      "Ġrather": 1797,
      "ries": 1798,
      "ters": 1799,
      "lection": 1800,
      "work": 1801,
      "Ġinclude": 1802,
      "Ġbal": 1803,
      "Ġonline": 1804,
      "ane": 1805,
      "idence": 1806,
      "tically": 1807,
      "asc": 1808,
      "?\"": 1809,
      "Ġbas": 1810,
      "com": 1811,
      "Ġconcept": 1812,
      "Ġminim": 1813,
      "ules": 1814,
      "Ġenergy": 1815,
      "This": 1816,
      "orpor": 1817,
      "Ġret": 1818,
      "atform": 1819,
      "put": 1820,
      "Ġred": 1821,
      "Ġill": 1822,
      "Ġdistrib": 1823,
      "oking": 1824,
      "Ġclear": 1825,
      "ason": 1826,
      "idel": 1827,
      "Ġnumer": 1828,
      "right": 1829,
      "Ġenti": 1830,
      "Ġproviding": 1831,
      "Ġclos": 1832,
      "Ġassociated": 1833,
      "Ġquestions": 1834,
      "eric": 1835,
      "Ġmind": 1836,
      "more": 1837,
      "Ġnear": 1838,
      "ysis": 1839,
      "ili": 1840,
      "conom": 1841,
      "Ġsugg": 1842,
      "}$": 1843,
      "Ġbeg": 1844,
      "Ġrelationships": 1845,
      "ope": 1846,
      "ush": 1847,
      "Ġparticip": 1848,
      "Ġindust": 1849,
      "Ġbecomes": 1850,
      "eper": 1851,
      "Ġsing": 1852,
      "Ġpati": 1853,
      "ension": 1854,
      "Ġcost": 1855,
      "pective": 1856,
      "Ġrecogn": 1857,
      "Ġnature": 1858,
      "Ġsolutions": 1859,
      "ĠEn": 1860,
      "Ġremains": 1861,
      "Ġdecided": 1862,
      "ides": 1863,
      "ash": 1864,
      "ected": 1865,
      "Ġoutc": 1866,
      "esents": 1867,
      "ĠAt": 1868,
      "Ġhaving": 1869,
      "Ġtimes": 1870,
      "Ġhold": 1871,
      "Ġachie": 1872,
      "Ġder": 1873,
      "Ġhome": 1874,
      "Ġpatterns": 1875,
      "Ġgover": 1876,
      "Ġintern": 1877,
      "tention": 1878,
      "ĠEm": 1879,
      "ously": 1880,
      "Ġstrength": 1881,
      "Ġrequire": 1882,
      "Ġrepresents": 1883,
      "Ġrest": 1884,
      "ĠMoreover": 1885,
      "Ġdesc": 1886,
      "amm": 1887,
      "ards": 1888,
      "Ġemo": 1889,
      "Ġquestion": 1890,
      "âĢĿ": 1891,
      "Ġ201": 1892,
      "Ġaspects": 1893,
      "ening": 1894,
      "Ġchanges": 1895,
      "Ġinitial": 1896,
      "ltimately": 1897,
      "Ġvect": 1898,
      "ipp": 1899,
      "Ġer": 1900,
      "Ġscen": 1901,
      "ails": 1902,
      "oid": 1903,
      "xt": 1904,
      "Ġdeeper": 1905,
      "Ġhighl": 1906,
      "omen": 1907,
      "Ġhelps": 1908,
      "Ġrequires": 1909,
      "Ġthink": 1910,
      "Ġsequ": 1911,
      "Ġpoli": 1912,
      "Ġyears": 1913,
      "ump": 1914,
      "izations": 1915,
      "ĠâĢľ": 1916,
      "###": 1917,
      "Ġsitu": 1918,
      "cap": 1919,
      "aged": 1920,
      "Ġinsp": 1921,
      "ean": 1922,
      "tal": 1923,
      "Ġencour": 1924,
      "Ġterms": 1925,
      "ators": 1926,
      "Ġcaus": 1927,
      "Ġsteps": 1928,
      "Ġequal": 1929,
      "atives": 1930,
      "Ġwa": 1931,
      "ancing": 1932,
      "Ġnat": 1933,
      "rt": 1934,
      "ĠShe": 1935,
      "equ": 1936,
      "Ġplatform": 1937,
      "Ġsetting": 1938,
      "Ġcharacter": 1939,
      "Ġincreasing": 1940,
      "Ġfre": 1941,
      "Ġaccur": 1942,
      "fort": 1943,
      "Ġver": 1944,
      "Ġsecond": 1945,
      "Ġefforts": 1946,
      "Ġself": 1947,
      "Ġ19": 1948,
      "Ġoffers": 1949,
      "Ġuntil": 1950,
      "ale": 1951,
      "Ġang": 1952,
      "embers": 1953,
      "ract": 1954,
      "ĠAfter": 1955,
      "lecting": 1956,
      "Ġpublic": 1957,
      "Ġperformance": 1958,
      "oss": 1959,
      "ify": 1960,
      "Ġbound": 1961,
      "ĠAdditionally": 1962,
      "ator": 1963,
      "Ġnavig": 1964,
      "Ġtraditional": 1965,
      "Ġever": 1966,
      "An": 1967,
      "Ġcome": 1968,
      "ration": 1969,
      "Ġfriend": 1970,
      "âĤ": 1971,
      "nderstand": 1972,
      "Ġcommunities": 1973,
      "Ġsurround": 1974,
      "Ġprovided": 1975,
      "ising": 1976,
      "ilit": 1977,
      "Ġcomple": 1978,
      "inating": 1979,
      "Ġconcepts": 1980,
      "Ġincorpor": 1981,
      "Ġinvolving": 1982,
      "versity": 1983,
      "amp": 1984,
      "bo": 1985,
      "ises": 1986,
      "Ġneeds": 1987,
      "Ġmar": 1988,
      "Ġformul": 1989,
      "))": 1990,
      "Ġtechnology": 1991,
      "Ġsection": 1992,
      "Ġlearned": 1993,
      "atisf": 1994,
      "ynam": 1995,
      "uting": 1996,
      "ips": 1997,
      "Ġimplement": 1998,
      "Ġstat": 1999,
      "Ġauth": 2000,
      "ugg": 2001,
      "Ġinterest": 2002,
      "Ġfil": 2003,
      "Ġareas": 2004,
      "ery": 2005,
      "Ġcommit": 2006,
      "Ġquick": 2007,
      "Ġnext": 2008,
      "Ġbehind": 2009,
      "ither": 2010,
      "Ġfostering": 2011,
      "Ġlaw": 2012,
      "avor": 2013,
      "Â²": 2014,
      "Ġbelie": 2015,
      "Ġey": 2016,
      "erc": 2017,
      "Ġeconom": 2018,
      "utes": 2019,
      "Ġproblems": 2020,
      "ĠIf": 2021,
      "elt": 2022,
      "Ġmembers": 2023,
      "ains": 2024,
      "Ġproduct": 2025,
      "ĠNow": 2026,
      "Ġsignificantly": 2027,
      "isting": 2028,
      "ciples": 2029,
      "urthermore": 2030,
      "Ġavail": 2031,
      "Ġarr": 2032,
      "aries": 2033,
      "Ġtoday": 2034,
      "Ġtrue": 2035,
      "Ġlanguage": 2036,
      "ĠQ": 2037,
      "Ġcurr": 2038,
      "Ġgroups": 2039,
      "Ġnecessary": 2040,
      "Ġfill": 2041,
      "Ġusers": 2042,
      "Ġallowing": 2043,
      "Ġsay": 2044,
      "ulation": 2045,
      "Key": 2046,
      "Ġinvest": 2047,
      "Ġcorr": 2048,
      "ĠAmeric": 2049,
      "Ġfinding": 2050,
      "ened": 2051,
      "Ġhistor": 2052,
      "Ġsatisf": 2053,
      "inally": 2054,
      "Ġemerg": 2055,
      "Ġmaintaining": 2056,
      "Ġpost": 2057,
      "Ġyield": 2058,
      "Ġarea": 2059,
      "Ġinves": 2060,
      "Ġcomponents": 2061,
      "Ġones": 2062,
      "Ġbegin": 2063,
      "Ġadap": 2064,
      "sts": 2065,
      "'ll": 2066,
      "Ġnet": 2067,
      "Ġ/": 2068,
      "ĠTr": 2069,
      "oting": 2070,
      "Ġconst": 2071,
      "Ġcultural": 2072,
      "arge": 2073,
      "Ġsci": 2074,
      "Ġ{": 2075,
      "reh": 2076,
      "arah": 2077,
      "Ġmodern": 2078,
      "ĠHere": 2079,
      "Ġclose": 2080,
      "Ġnam": 2081,
      "int": 2082,
      "cos": 2083,
      "Ġsubs": 2084,
      "Ġconnections": 2085,
      "Ġaud": 2086,
      "Ġinterac": 2087,
      "ug": 2088,
      "ĠX": 2089,
      "Ġenj": 2090,
      "Ġexact": 2091,
      "Ġdesp": 2092,
      "Ġthemselves": 2093,
      "Ġmakes": 2094,
      "mathb": 2095,
      "sing": 2096,
      "Ġpractice": 2097,
      "Ġpath": 2098,
      "Ġeth": 2099,
      "olution": 2100,
      "ody": 2101,
      "Ġleft": 2102,
      "Ġproperties": 2103,
      "Ġprinciples": 2104,
      "adi": 2105,
      "Ġglob": 2106,
      "Ġconcerns": 2107,
      "Ġderiv": 2108,
      "Ġlight": 2109,
      "Ġded": 2110,
      "Ġbig": 2111,
      "anti": 2112,
      "Ġdr": 2113,
      "Ġdistin": 2114,
      "Ġattention": 2115,
      "Ġperf": 2116,
      "Ġbuilding": 2117,
      "Ġdri": 2118,
      "Ġtypes": 2119,
      "eti": 2120,
      "Ġaltern": 2121,
      "Ġideas": 2122,
      "ral": 2123,
      "Ġsharing": 2124,
      "Ġevent": 2125,
      "Ġsw": 2126,
      "Ġside": 2127,
      "Ġexpression": 2128,
      "lo": 2129,
      "ny": 2130,
      "Ġterm": 2131,
      "First": 2132,
      "Ġfar": 2133,
      "Ġpress": 2134,
      "Ġtas": 2135,
      "Ġonce": 2136,
      "Ġyourself": 2137,
      "Ġcritical": 2138,
      "vant": 2139,
      "Ġprovides": 2140,
      "alu": 2141,
      "Ġsound": 2142,
      "isions": 2143,
      "Ġstarted": 2144,
      "Ġenjoy": 2145,
      "ership": 2146,
      "Ġfasc": 2147,
      "Ġet": 2148,
      "Ġsingle": 2149,
      "Ġbehavior": 2150,
      "Ġdelve": 2151,
      "Ġtaking": 2152,
      "Ġteach": 2153,
      "So": 2154,
      "iod": 2155,
      "osing": 2156,
      "Ġtrust": 2157,
      "Ġeffectively": 2158,
      "Ġscienti": 2159,
      "Ġnatural": 2160,
      "Ġpred": 2161,
      "Ġcontribute": 2162,
      "tig": 2163,
      "Ġsimple": 2164,
      "Ġ7": 2165,
      "qrt": 2166,
      "omm": 2167,
      "How": 2168,
      "sw": 2169,
      "Ġdecision": 2170,
      "Ġbenefits": 2171,
      "):": 2172,
      "But": 2173,
      "Ġtreat": 2174,
      "Ġbox": 2175,
      "ument": 2176,
      "Con": 2177,
      "Ġworks": 2178,
      "Ġfig": 2179,
      "Ġenough": 2180,
      "elling": 2181,
      "Ġdynam": 2182,
      "ĠCons": 2183,
      "Ġcontext": 2184,
      "iver": 2185,
      "empor": 2186,
      "enge": 2187,
      "Ġcontrol": 2188,
      "Ġview": 2189,
      "ĠRe": 2190,
      "Ġfew": 2191,
      "Ġparticularly": 2192,
      "Ġhistory": 2193,
      "Ġvol": 2194,
      "ĠInd": 2195,
      "ffici": 2196,
      "Ġarg": 2197,
      "br": 2198,
      "...": 2199,
      "ude": 2200,
      "Ġbegan": 2201,
      "Ġsust": 2202,
      "ancial": 2203,
      "Ġentire": 2204,
      "Ġdespite": 2205,
      "Ġanalysis": 2206,
      "Ġdraw": 2207,
      "ĠSome": 2208,
      "ĠBe": 2209,
      "**:": 2210,
      "Ġharm": 2211,
      "Ġrespect": 2212,
      "ĠFurthermore": 2213,
      "Ġlevels": 2214,
      "Ġimagine": 2215,
      "Ġdigital": 2216,
      "Ġutil": 2217,
      "Ġmedia": 2218,
      "Ġregular": 2219,
      "Ġgame": 2220,
      "ware": 2221,
      "Ġstudy": 2222,
      "Ġseeking": 2223,
      "Ġi": 2224,
      "Ġsumm": 2225,
      "--------------------------------": 2226,
      "Ġlands": 2227,
      "Ġart": 2228,
      "Ġmaterials": 2229,
      ")$": 2230,
      "ĠâĪ": 2231,
      "bs": 2232,
      "Ġexist": 2233,
      "Ġcompreh": 2234,
      "Ġrelated": 2235,
      "go": 2236,
      "Ġdoc": 2237,
      "espond": 2238,
      "omet": 2239,
      "ply": 2240,
      "yc": 2241,
      "of": 2242,
      "Ġaccording": 2243,
      "Ġâ": 2244,
      "Ġvia": 2245,
      "ĠSim": 2246,
      "Ġapplications": 2247,
      "ource": 2248,
      "ĠAr": 2249,
      "Ġdirectly": 2250,
      "Ġrece": 2251,
      "Ġvers": 2252,
      "Ġisn": 2253,
      "Ġgovern": 2254,
      "Ġaut": 2255,
      "Ġlog": 2256,
      "olving": 2257,
      "=\\": 2258,
      "text": 2259,
      "Ġlove": 2260,
      "Im": 2261,
      "Ġra": 2262,
      "Ġevalu": 2263,
      "itle": 2264,
      "Ġconver": 2265,
      "Ġmusic": 2266,
      "Ġspe": 2267,
      "Ġsoft": 2268,
      "Ġprogress": 2269,
      "inking": 2270,
      "ems": 2271,
      "Ġvisual": 2272,
      "Ġdefin": 2273,
      "Ġzero": 2274,
      "Ġunex": 2275,
      "Ġabove": 2276,
      "Ġquality": 2277,
      "pri": 2278,
      "Ġchallenge": 2279,
      "Ġoutcomes": 2280,
      "Ġplace": 2281,
      "Ġprefer": 2282,
      "Ġgood": 2283,
      "know": 2284,
      "Ġservices": 2285,
      "lier": 2286,
      "echan": 2287,
      "Ġeducation": 2288,
      "Ġforms": 2289,
      "Ġfamily": 2290,
      "get": 2291,
      "Ġhard": 2292,
      "Ġprec": 2293,
      "Ġwords": 2294,
      "encies": 2295,
      "outs": 2296,
      "oph": 2297,
      "ulations": 2298,
      "port": 2299,
      "ren": 2300,
      "Ġrealized": 2301,
      "ured": 2302,
      "\\_{": 2303,
      "Ġmanagement": 2304,
      "Ġcorrespond": 2305,
      "Ġbroad": 2306,
      "Ġcover": 2307,
      "Ġansw": 2308,
      "Ġpoly": 2309,
      "Ġge": 2310,
      "Ġgraph": 2311,
      "Ġmem": 2312,
      "ĠDe": 2313,
      "Ġcra": 2314,
      "Ġsuccessful": 2315,
      "Ġpowerful": 2316,
      "ised": 2317,
      "phas": 2318,
      "Ġmathematical": 2319,
      "Ġaway": 2320,
      "Ġprocesses": 2321,
      "Ġlarge": 2322,
      "Ġperfect": 2323,
      "Ġlay": 2324,
      "Ġinvolved": 2325,
      "erv": 2326,
      "Ġevents": 2327,
      "Ġavailable": 2328,
      "Ġconstruc": 2329,
      "Ġsens": 2330,
      "Ġtarg": 2331,
      "ann": 2332,
      "Ġlimit": 2333,
      ")^": 2334,
      "Ġda": 2335,
      "urity": 2336,
      "though": 2337,
      "Ġmatrix": 2338,
      "Ġdom": 2339,
      "!\"": 2340,
      "Ġreve": 2341,
      "eta": 2342,
      "Ġnever": 2343,
      "nderstanding": 2344,
      "espite": 2345,
      "res": 2346,
      "Ġadvent": 2347,
      "Ġcorre": 2348,
      "Ġnamed": 2349,
      "ĠĠĠĠĠĠĠĠ": 2350,
      "Ġpast": 2351,
      "Ġoptions": 2352,
      "Ġgreater": 2353,
      "ĠSarah": 2354,
      "Ġunexpected": 2355,
      "Ġsomeone": 2356,
      "Ġitself": 2357,
      "---": 2358,
      "Ġhead": 2359,
      "Ġsurrounding": 2360,
      "Ġfinancial": 2361,
      "Ġperiod": 2362,
      "ĠInst": 2363,
      "Ġchild": 2364,
      "Ġlast": 2365,
      "Ġlength": 2366,
      "Ġearlier": 2367,
      "Ġintric": 2368,
      "Ġprevious": 2369,
      "Ġapproaches": 2370,
      "oh": 2371,
      "time": 2372,
      "Ġinterp": 2373,
      "Ġstay": 2374,
      "Ġ<": 2375,
      "Ġuser": 2376,
      "Ġsets": 2377,
      "face": 2378,
      "hold": 2379,
      "Ġorganizations": 2380,
      "ident": 2381,
      "Ġsaid": 2382,
      "Ġconstant": 2383,
      "ym": 2384,
      "ĠRem": 2385,
      "Ġtotal": 2386,
      "ĠApp": 2387,
      "Ġlittle": 2388,
      "Ġadj": 2389,
      "Ġheart": 2390,
      "Ġserve": 2391,
      "Ġstories": 2392,
      "Ġdeb": 2393,
      "Ġoccur": 2394,
      "care": 2395,
      "Ġdiscovered": 2396,
      "Ġsimpl": 2397,
      "ches": 2398,
      "ended": 2399,
      "Ġphysical": 2400,
      "Ġtre": 2401,
      "Ġhigher": 2402,
      "ream": 2403,
      "oday": 2404,
      "Ġcompared": 2405,
      "'ve": 2406,
      "Ġsquare": 2407,
      "Ġasked": 2408,
      "Ġfundam": 2409,
      "ĠMr": 2410,
      "Ġpopular": 2411,
      "epend": 2412,
      "Ġfeatures": 2413,
      "Ġcontinue": 2414,
      "med": 2415,
      "Ġpair": 2416,
      "Ġneeded": 2417,
      "Ġorder": 2418,
      "Ġmention": 2419,
      "Ġwond": 2420,
      "ank": 2421,
      "sc": 2422,
      "left": 2423,
      "Ġsun": 2424,
      "ames": 2425,
      "Ġposition": 2426,
      "Ġinstr": 2427,
      "ode": 2428,
      "Ġfull": 2429,
      "Ġsure": 2430,
      "Ġidea": 2431,
      "rig": 2432,
      "Ġbalance": 2433,
      "ĠÎ": 2434,
      "Ġprob": 2435,
      "Ġhistorical": 2436,
      "ges": 2437,
      "Ġunc": 2438,
      "Ġtail": 2439,
      "idelines": 2440,
      "Ġstrugg": 2441,
      "Ġnumerous": 2442,
      "Ġfood": 2443,
      "Ġcollec": 2444,
      "Ġexciting": 2445,
      "Ġeither": 2446,
      "Ġearly": 2447,
      "ially": 2448,
      "Ġgreat": 2449,
      "Ġfour": 2450,
      "Ġcollaboration": 2451,
      "Ġnegative": 2452,
      "Ġsty": 2453,
      "Ġkind": 2454,
      "Ġ($": 2455,
      "Ġlandscap": 2456,
      "sequently": 2457,
      "Ġstri": 2458,
      "oint": 2459,
      "ements": 2460,
      "Ġemphas": 2461,
      "Ġball": 2462,
      "Ġappropri": 2463,
      "ient": 2464,
      "Ġrules": 2465,
      "aster": 2466,
      "Ġaction": 2467,
      "Ġlives": 2468,
      "Ġground": 2469,
      "not": 2470,
      "eration": 2471,
      "ecting": 2472,
      "Ġlea": 2473,
      "Ġexplor": 2474,
      "zz": 2475,
      "ĠTim": 2476,
      "Ġculture": 2477,
      "Ġund": 2478,
      "Ġformula": 2479,
      "emporary": 2480,
      "ury": 2481,
      "Ġhowever": 2482,
      "Ġmarket": 2483,
      "ios": 2484,
      "Ġold": 2485,
      "Ġseries": 2486,
      "oks": 2487,
      "Ġsustain": 2488,
      "ĠZ": 2489,
      "Ġinside": 2490,
      "Ġmatter": 2491,
      "Ġengine": 2492,
      "Ġtype": 2493,
      "Ġmechan": 2494,
      "Ġgra": 2495,
      "Ġglobal": 2496,
      "However": 2497,
      "onal": 2498,
      "Ġcontinued": 2499,
      "uck": 2500,
      "Ġshape": 2501,
      "Ġlessons": 2502,
      "ibr": 2503,
      "Ġcame": 2504,
      "ample": 2505,
      "otes": 2506,
      "ologies": 2507,
      "ik": 2508,
      "Ġremind": 2509,
      "Ġmodel": 2510,
      "Ġfrequ": 2511,
      "ified": 2512,
      "ats": 2513,
      "ours": 2514,
      "Ġactivities": 2515,
      "Ġsolution": 2516,
      "Ġengagement": 2517,
      "ustr": 2518,
      "Ġdescrib": 2519,
      "angle": 2520,
      "iliar": 2521,
      "Ġrepl": 2522,
      "Ġexpect": 2523,
      "Ġaddressing": 2524,
      "oot": 2525,
      "Ġinteg": 2526,
      "Ġgoing": 2527,
      "Ġlinear": 2528,
      "Ġcourse": 2529,
      "Ġmere": 2530,
      "Ġrich": 2531,
      "Ġproject": 2532,
      "ender": 2533,
      "ĠOnce": 2534,
      "Ġstructures": 2535,
      "idst": 2536,
      "Ġsmaller": 2537,
      "Ġcand": 2538,
      "Ġair": 2539,
      "entially": 2540,
      "Ġlarg": 2541,
      "ĠTitle": 2542,
      "Ġmess": 2543,
      "Ġstart": 2544,
      "Ġ8": 2545,
      "Ġeverything": 2546,
      "ones": 2547,
      "Ġmoment": 2548,
      "Ġobtain": 2549,
      "Ġbreak": 2550,
      "auti": 2551,
      "Ġsociety": 2552,
      "Ġface": 2553,
      "Ġcompeti": 2554,
      "Ġrelevant": 2555,
      ")\\": 2556,
      "Ġpain": 2557,
      "Ġcurrent": 2558,
      "ients": 2559,
      "ume": 2560,
      "Ġultimately": 2561,
      "Ġdesigned": 2562,
      "Ġcul": 2563,
      "sqrt": 2564,
      "ingly": 2565,
      "Ġaccount": 2566,
      "atory": 2567,
      "Ġfelt": 2568,
      "Ġrun": 2569,
      "abilities": 2570,
      "ground": 2571,
      "acks": 2572,
      "iring": 2573,
      "Ġlies": 2574,
      "ĠAlex": 2575,
      "Ġquickly": 2576,
      "Ġindic": 2577,
      "Ġ9": 2578,
      "Ġfavor": 2579,
      "ĠToday": 2580,
      "Ex": 2581,
      "aim": 2582,
      "Ġmiss": 2583,
      "Ġprior": 2584,
      "come": 2585,
      "eck": 2586,
      "Ġadditional": 2587,
      "enced": 2588,
      "Ġcouldn": 2589,
      "Ġflow": 2590,
      "Ġintroduc": 2591,
      "Ġfocusing": 2592,
      "Ġscenari": 2593,
      "Ġmaxim": 2594,
      "Ġmeasure": 2595,
      "ris": 2596,
      "Ġsepar": 2597,
      "Ġexactly": 2598,
      "pping": 2599,
      "Ġexamine": 2600,
      "Ġspecifically": 2601,
      "Ġenhance": 2602,
      "istance": 2603,
      "Ġsequence": 2604,
      "Another": 2605,
      "Ġdistribution": 2606,
      "ocks": 2607,
      "ians": 2608,
      "Ġshort": 2609,
      "Ġresulting": 2610,
      "Ġbusinesses": 2611,
      "Let": 2612,
      "Ġappear": 2613,
      "Ġalign": 2614,
      "racing": 2615,
      "Ġfilled": 2616,
      "nom": 2617,
      "Ġschool": 2618,
      "Ġshif": 2619,
      "Ġpromoting": 2620,
      "Ġfundamental": 2621,
      "ĠMan": 2622,
      "ĠFrom": 2623,
      "ĠOur": 2624,
      "Ġdoing": 2625,
      "Ġfinal": 2626,
      "Ġidentity": 2627,
      "Ġadm": 2628,
      "ĠSince": 2629,
      "Ġadapt": 2630,
      "Ġpreser": 2631,
      "Ġpriv": 2632,
      "Ġfascinating": 2633,
      "Ġconduc": 2634,
      "Ġability": 2635,
      "Ġrequired": 2636,
      "At": 2637,
      "ĠSp": 2638,
      "Ġindustry": 2639,
      "Ġouts": 2640,
      "Ġste": 2641,
      "Ġaspect": 2642,
      "Ġplatforms": 2643,
      "Ġ10": 2644,
      "ĠTheir": 2645,
      "Ġstory": 2646,
      "Ġdistinct": 2647,
      "By": 2648,
      "Ġlines": 2649,
      "Ġnar": 2650,
      "Ġscience": 2651,
      "Ġstudies": 2652,
      "Ġvector": 2653,
      "Ġtown": 2654,
      "Ġactive": 2655,
      "20": 2656,
      "ĠTherefore": 2657,
      "ging": 2658,
      "ĠĠĠ": 2659,
      "pro": 2660,
      "Ġproducts": 2661,
      "isc": 2662,
      "Ġdim": 2663,
      "Ġsources": 2664,
      "ĠGu": 2665,
      "Ġfree": 2666,
      "Ġincreased": 2667,
      "Ġtravel": 2668,
      "omp": 2669,
      "oms": 2670,
      "play": 2671,
      "Ġfacilit": 2672,
      "ager": 2673,
      "Ġdiag": 2674,
      "back": 2675,
      "ativity": 2676,
      "Ġforward": 2677,
      "Ġprofessional": 2678,
      "}^{": 2679,
      "Ġcity": 2680,
      "Ġincorporating": 2681,
      "Ġtem": 2682,
      "Ġwee": 2683,
      "Ġstructure": 2684,
      "Ġsal": 2685,
      "Ġrev": 2686,
      "Ġsafety": 2687,
      "Ġspeed": 2688,
      "Ġcolor": 2689,
      "For": 2690,
      "clusion": 2691,
      "eter": 2692,
      "ouse": 2693,
      "Ġtext": 2694,
      "Ġvo": 2695,
      "uly": 2696,
      "plications": 2697,
      "Ġdive": 2698,
      "Ġdivid": 2699,
      "ĠCl": 2700,
      "Ġsize": 2701,
      "Ġinvestig": 2702,
      "Ġmeasures": 2703,
      "ird": 2704,
      "Ġmentioned": 2705,
      "orts": 2706,
      "Ġrecent": 2707,
      "Ġdecisions": 2708,
      "Ġencounter": 2709,
      "where": 2710,
      "Ġtry": 2711,
      "Ġrates": 2712,
      "uments": 2713,
      "Ġserves": 2714,
      "ĠEach": 2715,
      "ĠRemember": 2716,
      "ĠSpec": 2717,
      "Ġbecame": 2718,
      "ellow": 2719,
      "Ġdifference": 2720,
      "Ġpay": 2721,
      "me": 2722,
      "ĠThus": 2723,
      "Ġgoals": 2724,
      "bra": 2725,
      "Ġapply": 2726,
      "going": 2727,
      "Ġsolid": 2728,
      "hood": 2729,
      "my": 2730,
      "works": 2731,
      "Ġabs": 2732,
      "Ġlooking": 2733,
      "Ġoperations": 2734,
      "ĠInstead": 2735,
      "Imagine": 2736,
      "ibilities": 2737,
      "ĠAcc": 2738,
      "Ġpolitical": 2739,
      "izes": 2740,
      "Ġamidst": 2741,
      "Ġsense": 2742,
      "Ġensures": 2743,
      "Ġapplying": 2744,
      "Ġavoid": 2745,
      "ene": 2746,
      "ĠRec": 2747,
      "Ġobj": 2748,
      "Ġreturn": 2749,
      "gor": 2750,
      "Ġmeet": 2751,
      "Ġapproxim": 2752,
      "Ġassess": 2753,
      "atic": 2754,
      "Ġplays": 2755,
      "ells": 2756,
      "eless": 2757,
      "Ġonto": 2758,
      "Ġequations": 2759,
      "Ġinformed": 2760,
      "Ġfeed": 2761,
      "Ġinclus": 2762,
      "Ġinnovation": 2763,
      "Ġwal": 2764,
      "Ġroot": 2765,
      "ĠYour": 2766,
      "Ġmach": 2767,
      "Ġ$(": 2768,
      "ounts": 2769,
      "====": 2770,
      "rast": 2771,
      "Ġphot": 2772,
      "Ġshaping": 2773,
      "Ġdetermine": 2774,
      "ees": 2775,
      "Ġtook": 2776,
      "Ġagre": 2777,
      "edd": 2778,
      "isms": 2779,
      "Ġmis": 2780,
      "ĠConsequently": 2781,
      "pectives": 2782,
      "iosity": 2783,
      "Ġbody": 2784,
      "Ġindepend": 2785,
      "cept": 2786,
      "Ġproperty": 2787,
      "duce": 2788,
      "Ġenvironmental": 2789,
      "Ġexce": 2790,
      "Ġdesired": 2791,
      "Ġgoal": 2792,
      "Ġerr": 2793,
      "Ġput": 2794,
      "ĠPl": 2795,
      "Ġsmo": 2796,
      "Ġenth": 2797,
      "ĠCol": 2798,
      "Ġjob": 2799,
      "```": 2800,
      "arily": 2801,
      "Ġgive": 2802,
      "pecially": 2803,
      "Ġvariables": 2804,
      "Ġregion": 2805,
      "Ġcloser": 2806,
      "ĠComm": 2807,
      ",\\": 2808,
      "Ġve": 2809,
      "usi": 2810,
      "Ġanim": 2811,
      "Ġachieve": 2812,
      "Ġprevent": 2813,
      "sin": 2814,
      "ites": 2815,
      "Ġmor": 2816,
      "Ġtruly": 2817,
      "Ġstate": 2818,
      "ighting": 2819,
      "Ġinvolve": 2820,
      "gorith": 2821,
      "rim": 2822,
      "itable": 2823,
      "Ġrob": 2824,
      "Ġenables": 2825,
      "Ġadvanced": 2826,
      "Ġrule": 2827,
      "ids": 2828,
      "Ġradi": 2829,
      "Ġthinking": 2830,
      "Ġopp": 2831,
      "ele": 2832,
      "action": 2833,
      "Ġgain": 2834,
      "apter": 2835,
      "Ġsurpr": 2836,
      "Ġidentify": 2837,
      "Ġappropriate": 2838,
      "Ġheav": 2839,
      "Ġsolving": 2840,
      "augh": 2841,
      "Ġespecially": 2842,
      "Ġwasn": 2843,
      "Ġcomplete": 2844,
      "Ġpolynom": 2845,
      "Ġrig": 2846,
      "ished": 2847,
      "Ġfaced": 2848,
      "Ġconven": 2849,
      "Ġadding": 2850,
      "Ġpassion": 2851,
      "Ġempath": 2852,
      "ilience": 2853,
      "oney": 2854,
      "000": 2855,
      "Ġappe": 2856,
      "Ġenthusi": 2857,
      "Ġ\\(": 2858,
      "Ġhy": 2859,
      "Ġliter": 2860,
      "ony": 2861,
      "Ġperspectives": 2862,
      "Ġrefer": 2863,
      "edi": 2864,
      "Ġevidence": 2865,
      "Ġcompany": 2866,
      "Ġcross": 2867,
      "Ġelement": 2868,
      "Ġengaging": 2869,
      "Ġadjust": 2870,
      "uing": 2871,
      "io": 2872,
      "ival": 2873,
      "atter": 2874,
      "Ġtrends": 2875,
      "Ġcarefully": 2876,
      "term": 2877,
      "gebra": 2878,
      "Ġconnection": 2879,
      "Ġillustr": 2880,
      "ifying": 2881,
      "Ġengage": 2882,
      "Ġwrit": 2883,
      "Ġdays": 2884,
      "ensions": 2885,
      "Ġseemingly": 2886,
      "Ġrespective": 2887,
      "Ġwarm": 2888,
      "Ġrange": 2889,
      "Ġsearch": 2890,
      "anging": 2891,
      "Ġmodels": 2892,
      "Ġfoster": 2893,
      "Ġmental": 2894,
      "Ġparam": 2895,
      "Ġvital": 2896,
      "ived": 2897,
      "new": 2898,
      "Ġchallenging": 2899,
      "Ġexpand": 2900,
      "Ġrisks": 2901,
      "astly": 2902,
      "Ġinterests": 2903,
      "Ġrisk": 2904,
      "Ġalternative": 2905,
      "let": 2906,
      "When": 2907,
      "ĠUnderstanding": 2908,
      "Ġoutside": 2909,
      "Ġtest": 2910,
      "Ġhealthcare": 2911,
      "erap": 2912,
      "Ġplanning": 2913,
      "Ġbeauti": 2914,
      "Ġcollective": 2915,
      "Ġlarger": 2916,
      "Ġspir": 2917,
      "ued": 2918,
      "Ġresilience": 2919,
      "Ġopportunity": 2920,
      "Ġsymb": 2921,
      "Ġexisting": 2922,
      "while": 2923,
      "Ġpiece": 2924,
      "side": 2925,
      "world": 2926,
      "mathbb": 2927,
      "inf": 2928,
      "Ġtheory": 2929,
      "Ġbase": 2930,
      "Ġparts": 2931,
      "Ġplaying": 2932,
      "Ġcuriosity": 2933,
      "Conclusion": 2934,
      "Ġalgorith": 2935,
      "Ġjoin": 2936,
      "Ġhours": 2937,
      "Ġongoing": 2938,
      "ably": 2939,
      "Ġcontent": 2940,
      "Ġincreasingly": 2941,
      "ĠNew": 2942,
      "Ġclean": 2943,
      "Ġembracing": 2944,
      "cd": 2945,
      "Ġinher": 2946,
      "Ġapplication": 2947,
      "ĠAmerican": 2948,
      "ĠÃ": 2949,
      "Ġcomput": 2950,
      "tivity": 2951,
      "Ġdistance": 2952,
      "Ġinstit": 2953,
      "Ġdoesn": 2954,
      "Ġhal": 2955,
      "adem": 2956,
      "ken": 2957,
      "Ġunderlying": 2958,
      "Ġfactor": 2959,
      "Ġsoftware": 2960,
      "Ġcareful": 2961,
      "Ġhope": 2962,
      "Ġmeaningful": 2963,
      "Ġexh": 2964,
      "ops": 2965,
      "Ġcannot": 2966,
      ")=": 2967,
      "eep": 2968,
      "lim": 2969,
      "Ġexists": 2970,
      "Ġconsidering": 2971,
      "Ġguid": 2972,
      "Ġrefers": 2973,
      "orn": 2974,
      "Ġreview": 2975,
      "Ġcolle": 2976,
      "ilarly": 2977,
      "Ġled": 2978,
      "ilt": 2979,
      "Ġblocks": 2980,
      "Ġpieces": 2981,
      "oti": 2982,
      "wise": 2983,
      "ĠGr": 2984,
      "Ġextra": 2985,
      "Ġmedical": 2986,
      "Ġcommitment": 2987,
      "Ġthus": 2988,
      "Ġsides": 2989,
      "Ġmass": 2990,
      "ighb": 2991,
      "ĠOver": 2992,
      "Ġdiffic": 2993,
      "Ġdifferences": 2994,
      "Ġnote": 2995,
      "Ġwhole": 2996,
      "Ġintricate": 2997,
      "ores": 2998,
      "Ġarri": 2999,
      "Ġinfin": 3000,
      "Ġwatch": 3001,
      "ĠOr": 3002,
      "Ġprimary": 3003,
      "Ġexperim": 3004,
      "Ġexamining": 3005,
      "egin": 3006,
      "ring": 3007,
      "Ġturned": 3008,
      "Ġap": 3009,
      "onse": 3010,
      "Ġdaily": 3011,
      "Ġprojects": 3012,
      "Ġcontemporary": 3013,
      "Ġtarget": 3014,
      "fact": 3015,
      "Ġcontinuous": 3016,
      "ĠAc": 3017,
      "Ġsecurity": 3018,
      "head": 3019,
      "Ġpolicies": 3020,
      "like": 3021,
      "andom": 3022,
      "Ġreducing": 3023,
      "ball": 3024,
      "Ġappl": 3025,
      "Ġadvant": 3026,
      "Ġtypically": 3027,
      "19": 3028,
      "Ġpartn": 3029,
      "Ġtool": 3030,
      "rip": 3031,
      "Ġenab": 3032,
      "Ġloved": 3033,
      "ĠJust": 3034,
      "Ġsignificance": 3035,
      "Ġmarketing": 3036,
      "Ġinnovative": 3037,
      "Ġestablished": 3038,
      "Ġupd": 3039,
      "Ġguide": 3040,
      "ĠConsider": 3041,
      "10": 3042,
      "Ġtraining": 3043,
      "Ġeasy": 3044,
      "Ġprofessionals": 3045,
      "Ġsuper": 3046,
      "Finally": 3047,
      "irm": 3048,
      "aper": 3049,
      "Ġfollows": 3050,
      "uit": 3051,
      "use": 3052,
      "ĠComp": 3053,
      "Ġtalk": 3054,
      "Ġethical": 3055,
      "Ġcut": 3056,
      "icate": 3057,
      "areness": 3058,
      "Ġsurface": 3059,
      "emp": 3060,
      "Ġadop": 3061,
      "Ġarch": 3062,
      "Ġissue": 3063,
      "Ġhid": 3064,
      "Ġwomen": 3065,
      "ĠMy": 3066,
      "Ġdetail": 3067,
      "Ġschol": 3068,
      "igen": 3069,
      "ested": 3070,
      "-\\": 3071,
      "Ġalike": 3072,
      "Ġbar": 3073,
      "Ġlower": 3074,
      "ĠMay": 3075,
      "making": 3076,
      "Ġchoose": 3077,
      "itch": 3078,
      "oming": 3079,
      "Ġbring": 3080,
      "verage": 3081,
      "Ġexch": 3082,
      "Ġresearchers": 3083,
      "Ġcomfort": 3084,
      "Ġlived": 3085,
      "Ġtherap": 3086,
      "Ġlater": 3087,
      "unch": 3088,
      "asts": 3089,
      "Ġcoord": 3090,
      "Ġconflic": 3091,
      "Ġpossess": 3092,
      "On": 3093,
      "Ġartic": 3094,
      "Ġtakes": 3095,
      "Ġeconomic": 3096,
      "Ġbroader": 3097,
      "ĠSpecific": 3098,
      "Ġfoot": 3099,
      "Ġexploration": 3100,
      "ium": 3101,
      "Ġdeg": 3102,
      "Ġbackground": 3103,
      "Ġresponsible": 3104,
      "Ġautom": 3105,
      "Ġtailored": 3106,
      "Ġdial": 3107,
      "Ġinj": 3108,
      "ticed": 3109,
      "ĠWhat": 3110,
      "met": 3111,
      "ystem": 3112,
      "Ġwind": 3113,
      "Ġforce": 3114,
      "Ġcosts": 3115,
      "Ġeyes": 3116,
      "ĠReg": 3117,
      "Ġcalculate": 3118,
      "Ġ200": 3119,
      "Ġliving": 3120,
      "Ġaimed": 3121,
      "Ġroles": 3122,
      "iny": 3123,
      "Ġcore": 3124,
      "irt": 3125,
      "Ġtopics": 3126,
      "Ġmut": 3127,
      "Ġknew": 3128,
      "Ġlegal": 3129,
      "Ġinfluence": 3130,
      "aced": 3131,
      "ina": 3132,
      "Ġneighb": 3133,
      "Ġrecord": 3134,
      "Ġdetails": 3135,
      "Ġdiscussion": 3136,
      "Ġpropos": 3137,
      "Ġworth": 3138,
      "ishing": 3139,
      "Ġexerc": 3140,
      "ont": 3141,
      "alities": 3142,
      "Ġrout": 3143,
      "Ġmonth": 3144,
      "Ġlif": 3145,
      "Ġyear": 3146,
      "Ġclim": 3147,
      "Ġprograms": 3148,
      "Ġpolicy": 3149,
      "sy": 3150,
      "Ġresponse": 3151,
      "Ġpurs": 3152,
      "Ġland": 3153,
      "Ġmathematics": 3154,
      "amb": 3155,
      "Ġsimply": 3156,
      "Ġfields": 3157,
      "roduction": 3158,
      "Ġrigor": 3159,
      "Ġfair": 3160,
      "ĠSc": 3161,
      "}(": 3162,
      "Ġ[": 3163,
      "uty": 3164,
      "Ġdemand": 3165,
      "Ġsole": 3166,
      "Ġinitially": 3167,
      "Ġanalyzing": 3168,
      "Ġlandscape": 3169,
      "Ġname": 3170,
      "inate": 3171,
      "ls": 3172,
      "uter": 3173,
      "Ġdidn": 3174,
      "aight": 3175,
      "Ġquanti": 3176,
      "Ġexamples": 3177,
      "Ġframe": 3178,
      "fficient": 3179,
      "dom": 3180,
      "Ġreli": 3181,
      "Ġfail": 3182,
      "Ġren": 3183,
      "Ġdiscussing": 3184,
      "Ġstandard": 3185,
      "eanwhile": 3186,
      "Ġcateg": 3187,
      "Ġalgebra": 3188,
      "Ġcool": 3189,
      "Ġestim": 3190,
      "Ġservice": 3191,
      "ĠSu": 3192,
      "ĠDr": 3193,
      "Ġcircum": 3194,
      "Ġcounter": 3195,
      "ĠEng": 3196,
      "aste": 3197,
      "he": 3198,
      "Ġstraight": 3199,
      "Ġsyn": 3200,
      "Ġdepending": 3201,
      "Ġempathy": 3202,
      "Ġchanging": 3203,
      "Ġbasic": 3204,
      "ert": 3205,
      "Ġsil": 3206,
      "ster": 3207,
      "ades": 3208,
      "Ġwebs": 3209,
      "ĠDespite": 3210,
      "orem": 3211,
      "Ġpromote": 3212,
      "Ġoffering": 3213,
      "ĠBl": 3214,
      "Ġinteresting": 3215,
      "Ġcos": 3216,
      "Ġitems": 3217,
      "Ġexpressions": 3218,
      "Ġchoices": 3219,
      "Ġfit": 3220,
      "Ġrate": 3221,
      "Ġindeed": 3222,
      "reen": 3223,
      "Ġwar": 3224,
      "Ġimmedi": 3225,
      "Ġur": 3226,
      "Ġtasks": 3227,
      "lation": 3228,
      "Ġspaces": 3229,
      "Ġbeautiful": 3230,
      "Ġdam": 3231,
      "ĠHis": 3232,
      "Ġunit": 3233,
      "Ġacadem": 3234,
      "Ġappreciation": 3235,
      "Ġhor": 3236,
      "icro": 3237,
      "osed": 3238,
      "ĠBen": 3239,
      "ohn": 3240,
      "ogether": 3241,
      "ĠLe": 3242,
      "Ġenabling": 3243,
      "ĠSpecifically": 3244,
      "orting": 3245,
      "Ġcreative": 3246,
      "Ġequals": 3247,
      "Ġstarting": 3248,
      "Ġloss": 3249,
      "Ġinters": 3250,
      "ĠStud": 3251,
      "Ġcases": 3252,
      "alle": 3253,
      "Ġnu": 3254,
      "Next": 3255,
      "Ġlow": 3256,
      "Ġnoticed": 3257,
      "Ġappreciate": 3258,
      "Ġvi": 3259,
      "ĠKeep": 3260,
      "apid": 3261,
      "Ġsmooth": 3262,
      "Ġfellow": 3263,
      "Ġnor": 3264,
      "Ġvariable": 3265,
      "Ġproduction": 3266,
      "Ġcorrect": 3267,
      "uel": 3268,
      "Ġfall": 3269,
      "Ġstress": 3270,
      "Ġcreativity": 3271,
      "Ġcapable": 3272,
      "Ġorganization": 3273,
      "Ġstates": 3274,
      "Ġsoon": 3275,
      "Ġplayers": 3276,
      "ĠÃĹ": 3277,
      "Ġ>": 3278,
      "Ġspread": 3279,
      "Ġseemed": 3280,
      "ufact": 3281,
      "urs": 3282,
      "based": 3283,
      "dd": 3284,
      "ares": 3285,
      "ĠSimilarly": 3286,
      "Ġadventure": 3287,
      "Ġinput": 3288,
      "ultane": 3289,
      "tr": 3290,
      "Ġcamp": 3291,
      "Ġmoney": 3292,
      "ĠWor": 3293,
      "Ġcollection": 3294,
      "Ġauthor": 3295,
      "oman": 3296,
      "icated": 3297,
      "ormal": 3298,
      "Ġactions": 3299,
      "ĠPar": 3300,
      "Ġsubst": 3301,
      "Ġactually": 3302,
      "iter": 3303,
      "Ġheight": 3304,
      "Ġadvoc": 3305,
      "rup": 3306,
      "ĠImagine": 3307,
      "Ġrobust": 3308,
      "Ġlab": 3309,
      "Ġseason": 3310,
      "ĠPh": 3311,
      "Ġthreat": 3312,
      "Ġmix": 3313,
      "Ġoptimal": 3314,
      "Ġann": 3315,
      "Ġroom": 3316,
      "Ġ:": 3317,
      "istics": 3318,
      "Ġleads": 3319,
      "af": 3320,
      "Ġrespond": 3321,
      "Ġangle": 3322,
      "Ġscientific": 3323,
      ")/": 3324,
      "hes": 3325,
      "eral": 3326,
      "encing": 3327,
      "ĠAccording": 3328,
      "Ġspirit": 3329,
      "sych": 3330,
      "Ġcapt": 3331,
      "Ġshowc": 3332,
      "Ġvery": 3333,
      "Ġbond": 3334,
      "etal": 3335,
      "ternal": 3336,
      "Ġenhancing": 3337,
      "Ġefficiency": 3338,
      "Ġsituations": 3339,
      "Ġarrang": 3340,
      "inations": 3341,
      "Ġinequ": 3342,
      "acts": 3343,
      "Ġsituation": 3344,
      "Ġcraf": 3345,
      "Ġfavorite": 3346,
      "Ġdialog": 3347,
      ")}": 3348,
      "exts": 3349,
      "Ġadvance": 3350,
      "Ġboundaries": 3351,
      "Ġexpectations": 3352,
      "urop": 3353,
      "ustice": 3354,
      "Ġgives": 3355,
      "Ġcomprehensive": 3356,
      "ceed": 3357,
      "Ġconsequ": 3358,
      "ifies": 3359,
      "Ġvisit": 3360,
      "Ġelse": 3361,
      "Ġnavigate": 3362,
      "Ġblock": 3363,
      "Ġstatis": 3364,
      "Ġforces": 3365,
      "Ġimplications": 3366,
      "Ġhalf": 3367,
      "ĠÏ": 3368,
      "miss": 3369,
      "ivers": 3370,
      "Ġgather": 3371,
      "Ġrelative": 3372,
      "Ġconsistent": 3373,
      "Ġinterven": 3374,
      "Ġcustomers": 3375,
      "uzz": 3376,
      "------------": 3377,
      "Ġfamiliar": 3378,
      "tise": 3379,
      "Ġcoun": 3380,
      "Ġreflect": 3381,
      "Ġnarra": 3382,
      "yth": 3383,
      "tial": 3384,
      "Ġpush": 3385,
      "Ġwhenever": 3386,
      "Ġcircle": 3387,
      "pose": 3388,
      "Ġing": 3389,
      "oud": 3390,
      "ĠId": 3391,
      "Ġcred": 3392,
      "ĠAlthough": 3393,
      "itation": 3394,
      "Ġfindings": 3395,
      "Ġexperienced": 3396,
      "Ġrequirements": 3397,
      "Ġdifficult": 3398,
      "Ġcele": 3399,
      "Ġpros": 3400,
      "Ġweight": 3401,
      "ĠFirst": 3402,
      "}{\\": 3403,
      "Ġhidden": 3404,
      "Ġvide": 3405,
      "Ġrelig": 3406,
      "Ġsafe": 3407,
      "Ġtrying": 3408,
      "Ġimag": 3409,
      "Ġmanip": 3410,
      "Ġmaj": 3411,
      "Ġnovel": 3412,
      "land": 3413,
      "Ġtack": 3414,
      "Ġsolely": 3415,
      "bit": 3416,
      "onom": 3417,
      "amples": 3418,
      "Ġworry": 3419,
      "Int": 3420,
      "Ġfoundation": 3421,
      "Ġtemper": 3422,
      "uted": 3423,
      "udden": 3424,
      "Ġclaim": 3425,
      "Ġmanufact": 3426,
      "We": 3427,
      "sum": 3428,
      "Ġconversation": 3429,
      "Ġemotional": 3430,
      "Ġleaving": 3431,
      "ton": 3432,
      "Ġcreated": 3433,
      "Ġgeneral": 3434,
      "cal": 3435,
      "iction": 3436,
      "Ġtechnologies": 3437,
      "Ġreduce": 3438,
      "Ġinterpret": 3439,
      "Ġrights": 3440,
      "ticians": 3441,
      "Ġtransport": 3442,
      "Ġeffects": 3443,
      "Ġpotentially": 3444,
      "Ġgames": 3445,
      "Ġdedicated": 3446,
      "ĠCont": 3447,
      "Ġrapid": 3448,
      "Ġacqu": 3449,
      "esearch": 3450,
      "Ġconstit": 3451,
      "Ġtreatment": 3452,
      "ulate": 3453,
      "Ġteams": 3454,
      "Ġcorresponding": 3455,
      "Ġmoving": 3456,
      "Ġextract": 3457,
      "Ġanalyze": 3458,
      "Ġobserv": 3459,
      "Ġcultiv": 3460,
      "Ġcyc": 3461,
      "ticip": 3462,
      "orough": 3463,
      "ĠTips": 3464,
      "Ġdefined": 3465,
      "Ġyields": 3466,
      "sp": 3467,
      "Ġrandom": 3468,
      "Ġexplained": 3469,
      "Ġknowing": 3470,
      "Ġanswer": 3471,
      "Ġfeedback": 3472,
      "Ġslow": 3473,
      "Ġhon": 3474,
      "pped": 3475,
      "itiz": 3476,
      "Ġlive": 3477,
      "Ġdynamics": 3478,
      "ultaneously": 3479,
      "astic": 3480,
      "Ġfix": 3481,
      "Ġhands": 3482,
      "Ġgreen": 3483,
      "Ġpict": 3484,
      "Ġmast": 3485,
      "inc": 3486,
      "ouch": 3487,
      "Ġresid": 3488,
      "Ġprobability": 3489,
      "auty": 3490,
      "Ġamount": 3491,
      "Ġexec": 3492,
      "Ġmanage": 3493,
      "ĠUsing": 3494,
      "Ġcausing": 3495,
      "Here": 3496,
      "iles": 3497,
      "Ġfigure": 3498,
      "Ġage": 3499,
      "Ġflex": 3500,
      "Ġcontaining": 3501,
      "Ġeasier": 3502,
      "Ġconversations": 3503,
      "ille": 3504,
      "Ġvibr": 3505,
      "Ġpresented": 3506,
      "ned": 3507,
      "pi": 3508,
      "Ġmotiv": 3509,
      "Ġcompanies": 3510,
      "Ġexpertise": 3511,
      "Ġbreath": 3512,
      "Ġeffort": 3513,
      "ox": 3514,
      "aly": 3515,
      "urning": 3516,
      "Ġdealing": 3517,
      "Ġourselves": 3518,
      "cdot": 3519,
      "It": 3520,
      "cel": 3521,
      "lessly": 3522,
      "Ġpolynomial": 3523,
      "ready": 3524,
      "ruct": 3525,
      "Ġtoys": 3526,
      "Ġlooked": 3527,
      "Ġwide": 3528,
      "Ġmys": 3529,
      "Ġmultipl": 3530,
      "Ġinternational": 3531,
      "Ġgovernment": 3532,
      "Ġacknow": 3533,
      "ification": 3534,
      "Ġ$$": 3535,
      "Ġpack": 3536,
      "theta": 3537,
      "Ġgrad": 3538,
      "Ġphen": 3539,
      "Ġdiscussions": 3540,
      "Ġtoward": 3541,
      "Ġnotice": 3542,
      "ĠThen": 3543,
      "ĠJohn": 3544,
      "sh": 3545,
      "},": 3546,
      "outh": 3547,
      "Ġhar": 3548,
      "Ġmanaging": 3549,
      "Ġtable": 3550,
      "Ġtang": 3551,
      "Ġreason": 3552,
      "Ġgrowing": 3553,
      "Ġbelong": 3554,
      "Ġartists": 3555,
      "ĠChris": 3556,
      "Ġcurious": 3557,
      "ming": 3558,
      "oted": 3559,
      "ratic": 3560,
      "Ġinteractions": 3561,
      "Ġalready": 3562,
      "ĠIs": 3563,
      "Ġbeauty": 3564,
      "Ġcustomer": 3565,
      "Ġdou": 3566,
      "Ġobjects": 3567,
      "Ġenvironments": 3568,
      "(-": 3569,
      "raction": 3570,
      "Ġaddition": 3571,
      "Ġtrack": 3572,
      "Ġstrategy": 3573,
      "Ġcondition": 3574,
      "Ġwanted": 3575,
      "Ġawareness": 3576,
      "ger": 3577,
      "ole": 3578,
      "Ġprep": 3579,
      "Ġchildren": 3580,
      "Ġconsequences": 3581,
      "Ġcomputer": 3582,
      "Ġpreferences": 3583,
      "Ġguidance": 3584,
      "esh": 3585,
      "Ġcomplexity": 3586,
      "Ġgender": 3587,
      "force": 3588,
      "pha": 3589,
      "Ġnod": 3590,
      "Ġdisci": 3591,
      "infty": 3592,
      "begin": 3593,
      "osph": 3594,
      "Ġvary": 3595,
      "nit": 3596,
      "Ġstumb": 3597,
      "Ġcontain": 3598,
      "Ġmill": 3599,
      "Ġrepresentation": 3600,
      "Ġdenotes": 3601,
      "Ġphenomen": 3602,
      "Ġnich": 3603,
      "ĠEurop": 3604,
      "Ġdeveloping": 3605,
      "Ġeye": 3606,
      "Ġrigorous": 3607,
      "ook": 3608,
      "man": 3609,
      "Ġpaper": 3610,
      "odies": 3611,
      "ĠPer": 3612,
      "Ġthereby": 3613,
      "Ġempower": 3614,
      "Ġclar": 3615,
      "Ġvalid": 3616,
      "Ġexpon": 3617,
      "Ġimproved": 3618,
      "Ġaccurate": 3619,
      "Ġgeomet": 3620,
      "Ġinherent": 3621,
      "Ġcam": 3622,
      "itor": 3623,
      "rought": 3624,
      "ubs": 3625,
      "Ġstrategic": 3626,
      "Ġprime": 3627,
      "appy": 3628,
      "Ġimplementing": 3629,
      "urr": 3630,
      "Ġ\\\\": 3631,
      "Ġsolve": 3632,
      "Ġscenarios": 3633,
      "ĠHer": 3634,
      "Ġdeliver": 3635,
      "Ġfeeling": 3636,
      "With": 3637,
      "Ġdise": 3638,
      "Ġpreserving": 3639,
      "And": 3640,
      "uts": 3641,
      "acing": 3642,
      "Ġexhib": 3643,
      "Ġfive": 3644,
      "Ġintrig": 3645,
      "Ġadded": 3646,
      "ĠSch": 3647,
      "ello": 3648,
      "Ġsn": 3649,
      "Ġchann": 3650,
      "Ġprofound": 3651,
      "Ġalongside": 3652,
      "âĪĴ": 3653,
      "Ġwis": 3654,
      "acking": 3655,
      "Ġleast": 3656,
      "Ġconcer": 3657,
      "Ġinteger": 3658,
      "__": 3659,
      "gen": 3660,
      "Ġthorough": 3661,
      "Ġword": 3662,
      "Ġintegral": 3663,
      "Ġmoments": 3664,
      "ata": 3665,
      "Ġmid": 3666,
      "owers": 3667,
      "ĠFr": 3668,
      "being": 3669,
      "Ġholds": 3670,
      "Ġla": 3671,
      "iven": 3672,
      "Ġpossibilities": 3673,
      "fs": 3674,
      "mat": 3675,
      "uine": 3676,
      "ĠNo": 3677,
      "Ġmatch": 3678,
      "Ġmaterial": 3679,
      "Ġpsych": 3680,
      "elcome": 3681,
      "âĤģ": 3682,
      "Ġâī": 3683,
      "Ġgetting": 3684,
      "Ġrein": 3685,
      "ĠSam": 3686,
      "Ġcountless": 3687,
      "Ch": 3688,
      "aff": 3689,
      "Ġdiversity": 3690,
      "Ġsettings": 3691,
      "Ġanti": 3692,
      "ĠResearch": 3693,
      "Ġrecomm": 3694,
      "Ġsaw": 3695,
      "Ġwriting": 3696,
      "Ġsocietal": 3697,
      "Ġdocument": 3698,
      "wide": 3699,
      "entic": 3700,
      "Ġmagical": 3701,
      "Ġclosely": 3702,
      "ugh": 3703,
      "Ġproced": 3704,
      "Ġcolors": 3705,
      "Ġdirection": 3706,
      "Ġprecise": 3707,
      "oon": 3708,
      "ought": 3709,
      "Ġseek": 3710,
      "Ġmajor": 3711,
      "oes": 3712,
      "})": 3713,
      "Ġprogram": 3714,
      "Ġreveal": 3715,
      "Ġsustainable": 3716,
      "haps": 3717,
      "umn": 3718,
      "lling": 3719,
      "Be": 3720,
      "der": 3721,
      "Ġbust": 3722,
      "Ġtoy": 3723,
      "ĠCar": 3724,
      "Ġcenter": 3725,
      "Ġdevices": 3726,
      "Ġheard": 3727,
      "akers": 3728,
      "Ġmovement": 3729,
      "Ġflu": 3730,
      "osen": 3731,
      "Ġenable": 3732,
      "Ġscholars": 3733,
      "Ġprove": 3734,
      "Ġlocation": 3735,
      "Ġtransformation": 3736,
      "}^": 3737,
      "Ġgiving": 3738,
      "Ġhighlights": 3739,
      "ĠTimmy": 3740,
      "Ġcoe": 3741,
      "Ġconstrain": 3742,
      "Ġthri": 3743,
      "Ġcode": 3744,
      "usion": 3745,
      "Ġdefinition": 3746,
      "Ġcry": 3747,
      "Ġdest": 3748,
      "Ġincrease": 3749,
      "ography": 3750,
      "mit": 3751,
      "quality": 3752,
      "ĠHappy": 3753,
      "Ġeducational": 3754,
      "Ġpressure": 3755,
      "ber": 3756,
      "Ġexternal": 3757,
      "Ġfollowed": 3758,
      "iversity": 3759,
      "ĠPol": 3760,
      "Through": 3761,
      "Ġgenuine": 3762,
      "Ġdrawing": 3763,
      "ectives": 3764,
      "ull": 3765,
      "Ġniche": 3766,
      "\\)": 3767,
      "Ġcombining": 3768,
      "Ġnavigating": 3769,
      "Ġoffered": 3770,
      "Ġintegration": 3771,
      "Ġdeeply": 3772,
      "Ġdiscipl": 3773,
      "Ġwhose": 3774,
      "Ġderivative": 3775,
      "Ġcompos": 3776,
      "itig": 3777,
      "Ġjustice": 3778,
      "ĠWhether": 3779,
      "Ġrepresenting": 3780,
      "Ġresponsibility": 3781,
      "Ġgained": 3782,
      "Ġstage": 3783,
      "ĠSuch": 3784,
      "Ġpracticing": 3785,
      "Ġmyself": 3786,
      "ĠNot": 3787,
      "Ġpurch": 3788,
      "Ġbrought": 3789,
      "Ġrow": 3790,
      "Ġcrim": 3791,
      "Ġdefine": 3792,
      "Ġeager": 3793,
      "Ġconsum": 3794,
      "Ġcareer": 3795,
      "ĠDevelop": 3796,
      "align": 3797,
      "Ġvectors": 3798,
      "ded": 3799,
      "ups": 3800,
      "Ġcard": 3801,
      "olute": 3802,
      "Ġmerely": 3803,
      "Ġvibrant": 3804,
      "co": 3805,
      "xi": 3806,
      "arth": 3807,
      "Ġoffic": 3808,
      "Ġterr": 3809,
      "Ġactivity": 3810,
      "essions": 3811,
      "Ġmeeting": 3812,
      "Ġscal": 3813,
      "Ġcapac": 3814,
      "Ġstatement": 3815,
      "Ġbustling": 3816,
      "ĠThom": 3817,
      "Ġsimultaneously": 3818,
      "Ġstudying": 3819,
      "ĠAss": 3820,
      "Ġcurve": 3821,
      "Ġeventually": 3822,
      "Ġapart": 3823,
      "Ġapplied": 3824,
      "Ġcircumst": 3825,
      "}$,": 3826,
      "lear": 3827,
      "Ġgoes": 3828,
      "cious": 3829,
      "akes": 3830,
      "Ġrequiring": 3831,
      "ĠChristi": 3832,
      "Ġcat": 3833,
      "ott": 3834,
      "Ġintro": 3835,
      "Ġimage": 3836,
      "ĠSe": 3837,
      "ĠSec": 3838,
      "Ġasking": 3839,
      "Ġconnected": 3840,
      "Ġdemonstrate": 3841,
      "Ġcontributing": 3842,
      "Ġhyp": 3843,
      "Ġfinally": 3844,
      "Ġelectric": 3845,
      "Ġwritten": 3846,
      "light": 3847,
      "Ġhom": 3848,
      "Ġrepe": 3849,
      "inated": 3850,
      "Ġnight": 3851,
      "Ġroots": 3852,
      "Ġamb": 3853,
      "Ã©": 3854,
      "empl": 3855,
      "Ġchosen": 3856,
      "Ġreading": 3857,
      "12": 3858,
      "Ġthing": 3859,
      "Ġhab": 3860,
      "ĠInt": 3861,
      "Ġskin": 3862,
      "Ġfocused": 3863,
      "}$.": 3864,
      "ĠAf": 3865,
      "Ġthemes": 3866,
      "Ġviol": 3867,
      "Lastly": 3868,
      "iration": 3869,
      "Ġhappens": 3870,
      "icit": 3871,
      "ĠWell": 3872,
      "Ġplayed": 3873,
      "Ġbelow": 3874,
      "cent": 3875,
      "Ġbuilt": 3876,
      "Ġlimited": 3877,
      "Ġinstitutions": 3878,
      "Ġstumbled": 3879,
      "Ġtaken": 3880,
      "ĠIts": 3881,
      "Ġseen": 3882,
      "ĠGo": 3883,
      "Ġgenerations": 3884,
      "Ġvirt": 3885,
      "ĠPre": 3886,
      "Ġable": 3887,
      "Ġquite": 3888,
      "ĠJam": 3889,
      "iences": 3890,
      "Ġreally": 3891,
      "Ġtranspar": 3892,
      "Ġalgorithms": 3893,
      "Ġcircumstances": 3894,
      "Ġfeature": 3895,
      "Ġsecure": 3896,
      "Ġbrand": 3897,
      "Introduction": 3898,
      "ught": 3899,
      "iance": 3900,
      "Î¸": 3901,
      "Ġir": 3902,
      "Ġstre": 3903,
      "Ġwent": 3904,
      "Ġconfidence": 3905,
      "Ġefficient": 3906,
      "Ġinequality": 3907,
      "Ġspent": 3908,
      "Ġinstall": 3909,
      "Ġpuzz": 3910,
      "ram": 3911,
      "uries": 3912,
      "Ġinitiatives": 3913,
      "Ġbook": 3914,
      "Ġdynamic": 3915,
      "cer": 3916,
      "Ġassign": 3917,
      "Ġprotect": 3918,
      "ray": 3919,
      "Ġbag": 3920,
      "Ġstake": 3921,
      "Ġalone": 3922,
      "Ġprepar": 3923,
      "Ġequip": 3924,
      "Ġstandards": 3925,
      "Ġemotions": 3926,
      "Ġwisdom": 3927,
      "ference": 3928,
      "Firstly": 3929,
      "ompass": 3930,
      "Ġweek": 3931,
      "Ġfa": 3932,
      "Ġcollect": 3933,
      "Ġcelebr": 3934,
      "Ġsource": 3935,
      "Ġspark": 3936,
      "Ġincred": 3937,
      "holders": 3938,
      "ffer": 3939,
      "Ġimproving": 3940,
      "Ġfamil": 3941,
      "Ġimprovement": 3942,
      "Ġpatient": 3943,
      "{{": 3944,
      "tition": 3945,
      "Ġclients": 3946,
      "Ġstudent": 3947,
      "Ġmutual": 3948,
      "Ġsus": 3949,
      "Ġclimate": 3950,
      "Ġunits": 3951,
      "Ġdialogue": 3952,
      "actions": 3953,
      "Ġseg": 3954,
      "Ġregardless": 3955,
      "Ġexcell": 3956,
      "life": 3957,
      "oved": 3958,
      "urt": 3959,
      "Ġimpl": 3960,
      "Ġdispar": 3961,
      "ĠFinally": 3962,
      "esis": 3963,
      "uction": 3964,
      "Ġvast": 3965,
      "yl": 3966,
      "Ġparties": 3967,
      "ĠGod": 3968,
      "Ġreput": 3969,
      "Ġstronger": 3970,
      "Ġconcerning": 3971,
      "ban": 3972,
      "ancy": 3973,
      "Ġencompass": 3974,
      "',": 3975,
      "alpha": 3976,
      "Ġcomplic": 3977,
      "ultural": 3978,
      "^{-": 3979,
      "dle": 3980,
      "Ġwid": 3981,
      "Ġbud": 3982,
      "Ġresource": 3983,
      "assion": 3984,
      "Ġconsideration": 3985,
      ")(": 3986,
      "aign": 3987,
      "rich": 3988,
      "Ġabilities": 3989,
      "ĠRes": 3990,
      "ĠInter": 3991,
      "Ġtax": 3992,
      "Ġnews": 3993,
      "Ġguidelines": 3994,
      "Ġfresh": 3995,
      "Ġshapes": 3996,
      "Ġsix": 3997,
      "ĠAI": 3998,
      "Ġcheck": 3999,
      "Ġhoriz": 4000,
      "Ġten": 4001,
      "Ġwon": 4002,
      "Ġsex": 4003,
      "Ġhimself": 4004,
      "oke": 4005,
      "Ġincludes": 4006,
      "Ġpeace": 4007,
      "fy": 4008,
      "ĊĠĠĠ": 4009,
      "Ġtap": 4010,
      "ĠCan": 4011,
      "Ġunf": 4012,
      "Ġunity": 4013,
      "Ġimpress": 4014,
      "Ġnotable": 4015,
      "ĠGuidelines": 4016,
      "Ġindependent": 4017,
      "Ġhelping": 4018,
      "rices": 4019,
      "Ġcandid": 4020,
      "Ġmachine": 4021,
      "Ġpick": 4022,
      "Ġcombined": 4023,
      "mathbf": 4024,
      "Ġagreed": 4025,
      "inist": 4026,
      "az": 4027,
      "Ġwin": 4028,
      "Ġchoosing": 4029,
      "ructure": 4030,
      "cing": 4031,
      "Ġtell": 4032,
      "Ġproceed": 4033,
      "Ġidentifying": 4034,
      "ipped": 4035,
      "Ġsle": 4036,
      "itect": 4037,
      "Ġobject": 4038,
      ".$$": 4039,
      "Ġport": 4040,
      "Ġreson": 4041,
      "Ġgene": 4042,
      "Ġlaws": 4043,
      "Ġacknowled": 4044,
      "bre": 4045,
      "onic": 4046,
      "ĠAll": 4047,
      "Ġrecip": 4048,
      "Ġmatters": 4049,
      "Ġcentral": 4050,
      "known": 4051,
      "ĠAfric": 4052,
      "igence": 4053,
      "Ġ\\*": 4054,
      "Ġtechnique": 4055,
      ")$,": 4056,
      "lusive": 4057,
      "Ġreduced": 4058,
      "bles": 4059,
      "Ġstream": 4060,
      "Ġjud": 4061,
      "Ġparticipants": 4062,
      "Ġnetworks": 4063,
      "Ġstyle": 4064,
      "Ġlack": 4065,
      "Ġactual": 4066,
      "Ġnormal": 4067,
      "ĠBoth": 4068,
      "Ġassump": 4069,
      "Ġperspective": 4070,
      "Ġsched": 4071,
      "Ġcutting": 4072,
      "Ġciv": 4073,
      "rete": 4074,
      "ightly": 4075,
      "Ġkeeping": 4076,
      "pon": 4077,
      "Ġprice": 4078,
      "Ġchoice": 4079,
      "ĠTrans": 4080,
      "Ġetc": 4081,
      "Ġliterature": 4082,
      "Ġahead": 4083,
      "Ġexperiment": 4084,
      "vent": 4085,
      "reg": 4086,
      "ector": 4087,
      "Ġexpos": 4088,
      "Ġbenefit": 4089,
      "Ġchance": 4090,
      "Ġconsidered": 4091,
      "Ġblue": 4092,
      "Ġillustrate": 4093,
      "arant": 4094,
      "Ġweak": 4095,
      "ĠMax": 4096,
      "Ġselecting": 4097,
      "Ġthoughts": 4098,
      "Ġturns": 4099,
      "Ġpatients": 4100,
      "+\\": 4101,
      "da": 4102,
      "Ġaverage": 4103,
      "Ġimages": 4104,
      "ills": 4105,
      "illing": 4106,
      "Ġexcit": 4107,
      "Ġauthentic": 4108,
      "Ġunders": 4109,
      "hand": 4110,
      "ket": 4111,
      "ulner": 4112,
      "ĠBr": 4113,
      "Ġmechanisms": 4114,
      "ĠTw": 4115,
      "ĠPrac": 4116,
      "Ġattemp": 4117,
      "Ġintegrating": 4118,
      "Ġinvestment": 4119,
      "Ġengineering": 4120,
      "II": 4121,
      "cl": 4122,
      "dx": 4123,
      "Ġfast": 4124,
      "ĠMed": 4125,
      "Ġsummary": 4126,
      "Ġacademic": 4127,
      "Ġexpressed": 4128,
      "Ġconnecting": 4129,
      "Ġrecognizing": 4130,
      "Ġbur": 4131,
      "riers": 4132,
      "esty": 4133,
      "Ġcultures": 4134,
      "Ġ...": 4135,
      "Ġtouch": 4136,
      "Ġcou": 4137,
      "Ġgot": 4138,
      "Ġoperation": 4139,
      "Ġinternal": 4140,
      "Ġaudience": 4141,
      "Ġdiagn": 4142,
      "Ġsurprise": 4143,
      "ĠĊ": 4144,
      "Ġchem": 4145,
      "Ġresistance": 4146,
      "Ġtaught": 4147,
      "Ġtechnical": 4148,
      "Ġcountries": 4149,
      "Ġapproximately": 4150,
      "Ġadvancements": 4151,
      "bility": 4152,
      "uits": 4153,
      "uild": 4154,
      "Ġpa": 4155,
      "enses": 4156,
      "Ġpersist": 4157,
      "Ġmonths": 4158,
      "Ġplans": 4159,
      "Ġexpans": 4160,
      "Ġfully": 4161,
      "Ġaudiences": 4162,
      "Ġwonder": 4163,
      "ĠMari": 4164,
      "ĠDes": 4165,
      "Ġsports": 4166,
      "Ġoutput": 4167,
      "Ġpatience": 4168,
      "Ġingred": 4169,
      "log": 4170,
      "Ġasp": 4171,
      "Ġefficiently": 4172,
      "hic": 4173,
      "vr": 4174,
      "Ġjoy": 4175,
      "Ġprioriti": 4176,
      "ky": 4177,
      "ĠCo": 4178,
      "Ġtrig": 4179,
      "Ġdecre": 4180,
      "titude": 4181,
      "Ġhappened": 4182,
      "Ġmovements": 4183,
      "Ġcomponent": 4184,
      "*(": 4185,
      "Ġlate": 4186,
      "Ġconve": 4187,
      "ĠTogether": 4188,
      "Ġseam": 4189,
      "Ġdemonstrated": 4190,
      "Ġconstraints": 4191,
      "ift": 4192,
      "Ġ12": 4193,
      "Ġsubsequ": 4194,
      "Ġcampaign": 4195,
      "Ġfacing": 4196,
      "Ġemerging": 4197,
      "Ġnetwork": 4198,
      "Ġlimitations": 4199,
      "Ġexcitement": 4200,
      "ĠDuring": 4201,
      "Ġphil": 4202,
      "Ġpresence": 4203,
      "iors": 4204,
      "order": 4205,
      "Ġtalent": 4206,
      "Ġhighlight": 4207,
      "Ġtask": 4208,
      "eel": 4209,
      "Ġlat": 4210,
      "Ġrati": 4211,
      "acters": 4212,
      "gence": 4213,
      "Ġleaders": 4214,
      "Ġdiscovery": 4215,
      "Ġcalculations": 4216,
      "Ġcountry": 4217,
      "Ġfamilies": 4218,
      "Ġhouse": 4219,
      "Ġvulner": 4220,
      "Ġpositions": 4221,
      "Ġtechnological": 4222,
      "mosph": 4223,
      "quad": 4224,
      "Ġconnect": 4225,
      "Ġdetermining": 4226,
      "Ġaccordingly": 4227,
      "Ġfear": 4228,
      "Ġstability": 4229,
      "ourse": 4230,
      "hips": 4231,
      "Ġeasily": 4232,
      "Ġdomain": 4233,
      "Ġcitiz": 4234,
      "unately": 4235,
      "alls": 4236,
      "ĠMath": 4237,
      "Ġremaining": 4238,
      "Ġartis": 4239,
      "Ġminimize": 4240,
      "Before": 4241,
      "acies": 4242,
      "anges": 4243,
      "pson": 4244,
      "Ġlistening": 4245,
      "Ġsymbol": 4246,
      "ev": 4247,
      "set": 4248,
      "ensity": 4249,
      "Ġbecoming": 4250,
      "amming": 4251,
      "bon": 4252,
      "urance": 4253,
      "ellect": 4254,
      "utri": 4255,
      "Ġmedic": 4256,
      "Ġideal": 4257,
      "Ġrestric": 4258,
      "Ġinfinite": 4259,
      "repr": 4260,
      "Ġmist": 4261,
      "olve": 4262,
      "ires": 4263,
      "Ġask": 4264,
      "ĠPr": 4265,
      "cient": 4266,
      "Ġcapabilities": 4267,
      "Ġmathematicians": 4268,
      "âĤĤ": 4269,
      "Ġsounds": 4270,
      "asp": 4271,
      "Ġweb": 4272,
      "Ġinsight": 4273,
      "icious": 4274,
      "Ġreaders": 4275,
      "eterm": 4276,
      "Ġ(-": 4277,
      "ĠMe": 4278,
      "Ġmanaged": 4279,
      "rics": 4280,
      "Ġstakeholders": 4281,
      "Ġthird": 4282,
      "ĠDon": 4283,
      "Ġregul": 4284,
      "Ġfinite": 4285,
      "Ġnecessit": 4286,
      "Ġsuggested": 4287,
      "Ġobjectives": 4288,
      "oor": 4289,
      "que": 4290,
      "Ġshows": 4291,
      "pper": 4292,
      "ronic": 4293,
      "Ġrepor": 4294,
      "Ġchec": 4295,
      "ĠStep": 4296,
      "Ġpurpose": 4297,
      "Ġcaused": 4298,
      "Ġcompetition": 4299,
      "ville": 4300,
      "Ġcod": 4301,
      "whel": 4302,
      "Ġmitig": 4303,
      "Ġaffect": 4304,
      "Ġsubstit": 4305,
      "Ġprivacy": 4306,
      "Ġanimals": 4307,
      "50": 4308,
      "Ġmarg": 4309,
      "Ġcompl": 4310,
      "Ġsupporting": 4311,
      "Ġhighlighting": 4312,
      "Ġaccuracy": 4313,
      "uddenly": 4314,
      "esthe": 4315,
      "Ġrac": 4316,
      "Ġusage": 4317,
      "ĠEven": 4318,
      "Ġequival": 4319,
      "Ġanyone": 4320,
      "Ġguess": 4321,
      "ections": 4322,
      "ĠMeanwhile": 4323,
      "Ġguarant": 4324,
      ")$.": 4325,
      "Ġling": 4326,
      "ibly": 4327,
      "Ġrot": 4328,
      "ows": 4329,
      "Ġworked": 4330,
      "way": 4331,
      "Ġdedication": 4332,
      "Ġpairs": 4333,
      "Ġvehic": 4334,
      "Ġtesting": 4335,
      "Ġcop": 4336,
      "iled": 4337,
      "Ġhealthy": 4338,
      "Ġtac": 4339,
      "Ġhers": 4340,
      "otal": 4341,
      "Ġcompassion": 4342,
      "overy": 4343,
      "Ġnegoti": 4344,
      "Ġmicro": 4345,
      "Ġchapter": 4346,
      "Ġ18": 4347,
      "ffic": 4348,
      "ĠOp": 4349,
      "Ġexplicit": 4350,
      "Ġarchitect": 4351,
      "Ġbrow": 4352,
      "Ġhol": 4353,
      "Ġrh": 4354,
      "ĠCal": 4355,
      "Ġmotion": 4356,
      "Ġdriving": 4357,
      "Ġpredic": 4358,
      "Ġuncertain": 4359,
      "iet": 4360,
      "Ġdisplay": 4361,
      "ĠLit": 4362,
      "Ġinterview": 4363,
      "Ġcharacters": 4364,
      "Ġtiny": 4365,
      "Ġcoin": 4366,
      "Ġhop": 4367,
      "eters": 4368,
      "Ġdisapp": 4369,
      "Ġrecall": 4370,
      "Ġdemands": 4371,
      "Ġfosters": 4372,
      "Ġstatus": 4373,
      "aches": 4374,
      "Ġatmosph": 4375,
      "Ġcolumn": 4376,
      "Ġcapital": 4377,
      "coming": 4378,
      "Ġsent": 4379,
      "ĠSet": 4380,
      "Ġready": 4381,
      "Ġundersc": 4382,
      "Ġscientists": 4383,
      "ĠIdenti": 4384,
      "Ġequipment": 4385,
      "eli": 4386,
      "Ġstands": 4387,
      "ĠRep": 4388,
      "Ġanything": 4389,
      "Ġspecialized": 4390,
      "Ġabsolute": 4391,
      "rel": 4392,
      "Ġcompar": 4393,
      "Ġtriangle": 4394,
      "What": 4395,
      "Ġwait": 4396,
      "Ġreplied": 4397,
      "Ġrenew": 4398,
      "Ġaf": 4399,
      "ĠMod": 4400,
      "ĠHello": 4401,
      "Ġsubject": 4402,
      "Ġprimarily": 4403,
      "Ġax": 4404,
      "iving": 4405,
      "ĠGiven": 4406,
      "Ġdepend": 4407,
      "Ġembark": 4408,
      "Ġtackle": 4409,
      "orph": 4410,
      "Ġproduce": 4411,
      "Ġintell": 4412,
      "oints": 4413,
      "Ġprotection": 4414,
      "ideline": 4415,
      "book": 4416,
      "Ġexchange": 4417,
      "Ġnarratives": 4418,
      "ĠThompson": 4419,
      "acement": 4420,
      "Ġstor": 4421,
      "Ġintellect": 4422,
      "Ġworldwide": 4423,
      "Ġexcited": 4424,
      "Ġangles": 4425,
      "Ġmaximum": 4426,
      "ĠTechn": 4427,
      "riend": 4428,
      "Ġselect": 4429,
      "Ġotherwise": 4430,
      "icians": 4431,
      "Ġfuel": 4432,
      "active": 4433,
      "Ġpolitics": 4434,
      ");": 4435,
      "ĠCre": 4436,
      "ĠMark": 4437,
      "ĠUse": 4438,
      "Ġleadership": 4439,
      "Ġfeelings": 4440,
      "Ġsunny": 4441,
      "Ġerrors": 4442,
      "matrix": 4443,
      "plying": 4444,
      "Ġhear": 4445,
      "Ġcreation": 4446,
      "Ġallowed": 4447,
      "Ġsubsequent": 4448,
      "inates": 4449,
      "Ġplayer": 4450,
      "Ġdesigns": 4451,
      "Ġapproached": 4452,
      "Ġgenerate": 4453,
      "Ġchannels": 4454,
      "18": 4455,
      "aks": 4456,
      "lor": 4457,
      "Ġtend": 4458,
      "Ġclin": 4459,
      "Ġtransl": 4460,
      "Ġsymmet": 4461,
      "Ġrecognize": 4462,
      "Ġcharacteristics": 4463,
      "Ġsubstanti": 4464,
      "Ġimpacts": 4465,
      "Ġperhaps": 4466,
      "Ġlearners": 4467,
      "Ġextensive": 4468,
      "Ġnearby": 4469,
      "Ġwebsite": 4470,
      "Ġlabor": 4471,
      "ament": 4472,
      "Ġpractical": 4473,
      "ĠStr": 4474,
      "Ġintroduced": 4475,
      "Ġeigen": 4476,
      "Ġlost": 4477,
      "Ġcontrast": 4478,
      "Ġobst": 4479,
      "Ġrealm": 4480,
      "Ġimmers": 4481,
      "Ġstyles": 4482,
      "Ġfacilitate": 4483,
      "Ġscr": 4484,
      "Ġpartnership": 4485,
      "Ġcomplicated": 4486,
      "Ġnational": 4487,
      "avors": 4488,
      "Ġhelped": 4489,
      "tegr": 4490,
      "Ġreport": 4491,
      "Ġdenoted": 4492,
      "Ġsessions": 4493,
      "ister": 4494,
      "iding": 4495,
      "Ġdiss": 4496,
      "ĠDis": 4497,
      "Ġspot": 4498,
      "$$\\": 4499,
      "ĠUnited": 4500,
      "Ġwaiting": 4501,
      "ged": 4502,
      "eted": 4503,
      "Ġoption": 4504,
      "ervation": 4505,
      "Ġvoice": 4506,
      "Ġep": 4507,
      "ĠEnc": 4508,
      "Ġdimensions": 4509,
      "Ġtour": 4510,
      "Ġaffor": 4511,
      "Ġhost": 4512,
      "Ġwhereas": 4513,
      "Ġserved": 4514,
      "Ġreality": 4515,
      "Ġmatrices": 4516,
      "Ġlonger": 4517,
      "Ġaccurately": 4518,
      "Ġrunning": 4519,
      "anks": 4520,
      "Ġaccel": 4521,
      "Ġfigures": 4522,
      "Ġmaybe": 4523,
      "Ġdemoc": 4524,
      "Ġrepresented": 4525,
      "Ġintegers": 4526,
      "inent": 4527,
      "Ġaesthe": 4528,
      "tiveness": 4529,
      "Ġseparate": 4530,
      "rical": 4531,
      "Ġdatas": 4532,
      "Ġdebates": 4533,
      "Ġherself": 4534,
      "After": 4535,
      "azing": 4536,
      "Ġtheore": 4537,
      "Ġkids": 4538,
      "Ġcorner": 4539,
      "Ġwellbeing": 4540,
      "Ġreceived": 4541,
      "ambda": 4542,
      "ÏĢ": 4543,
      "Ġwise": 4544,
      "ersonal": 4545,
      "aching": 4546,
      "Ġmemory": 4547,
      "Ġcater": 4548,
      "Ġcarry": 4549,
      "Ġhandling": 4550,
      "Ġdetermination": 4551,
      "Ġtopic": 4552,
      "Ġinvesting": 4553,
      "Ġmessage": 4554,
      "Ġvideo": 4555,
      "Ġwild": 4556,
      "Ġexpected": 4557,
      "aming": 4558,
      "unction": 4559,
      "Ġcontributions": 4560,
      "Ġdemonstrating": 4561,
      "Ġbehaviors": 4562,
      "Ġweeks": 4563,
      "Ġdamage": 4564,
      "Ġwit": 4565,
      "Ġdur": 4566,
      "Ġancient": 4567,
      "Ġresponses": 4568,
      "Ġencourages": 4569,
      "Ġfrequently": 4570,
      "ai": 4571,
      "rees": 4572,
      "Ġinterval": 4573,
      "Ġthoughtful": 4574,
      "Ġemerged": 4575,
      "Ġobstac": 4576,
      "igration": 4577,
      "Ġstore": 4578,
      "Ġexcess": 4579,
      "Ġexcep": 4580,
      "ĠDef": 4581,
      "Ġvision": 4582,
      "rastructure": 4583,
      "Ġcitizens": 4584,
      ".âĢĿ": 4585,
      "Despite": 4586,
      "lines": 4587,
      "nal": 4588,
      "ads": 4589,
      "asting": 4590,
      "iber": 4591,
      "Ġdevelopments": 4592,
      "Ġengaged": 4593,
      "Ġtraditions": 4594,
      "Ġcentury": 4595,
      "Ġemployees": 4596,
      "Ġcapacity": 4597,
      "Ġlikely": 4598,
      "Ġcontact": 4599,
      "Ġperp": 4600,
      "Ġincreases": 4601,
      "Ġstrengths": 4602,
      "Ġpaths": 4603,
      "========": 4604,
      "Ġcells": 4605,
      "Once": 4606,
      "any": 4607,
      "Ġopin": 4608,
      "Moreover": 4609,
      "ticul": 4610,
      "Ġplants": 4611,
      "Ġinspired": 4612,
      "Ġreceive": 4613,
      "Ġphilos": 4614,
      "Ġsat": 4615,
      "Ġtwist": 4616,
      "ipping": 4617,
      "Ġsustainability": 4618,
      "Ġsales": 4619,
      "ara": 4620,
      "While": 4621,
      "Ġpreviously": 4622,
      "Ġwave": 4623,
      "Ġoverwhel": 4624,
      "Ġdeveloped": 4625,
      "Ġpassed": 4626,
      "Ġcompetitive": 4627,
      "itoring": 4628,
      "Ġlaugh": 4629,
      "Ġcreates": 4630,
      "Ġregulations": 4631,
      "Ġformed": 4632,
      "Ġpopulation": 4633,
      "Ġobserve": 4634,
      "Ġuncover": 4635,
      "Ġtemperature": 4636,
      "Ġ#": 4637,
      "Ġsin": 4638,
      "ĠEarth": 4639,
      "tt": 4640,
      "}}{": 4641,
      "ticism": 4642,
      "Ġenrich": 4643,
      "Ġevolving": 4644,
      "Ġdiving": 4645,
      "Ġreligious": 4646,
      "Ġmastering": 4647,
      "Ġflexibility": 4648,
      "ĠChristian": 4649,
      "stood": 4650,
      "Ġisol": 4651,
      "Ġquad": 4652,
      "Ġformal": 4653,
      "Ġreflecting": 4654,
      "Ġcombinations": 4655,
      "Ġreaching": 4656,
      "ensional": 4657,
      "Ġencourage": 4658,
      "ĠQu": 4659,
      "Ġconstruction": 4660,
      "Ġadvantages": 4661,
      "}$$": 4662,
      "Ġbrid": 4663,
      "Ġmagic": 4664,
      "ĠJamie": 4665,
      "Ġtransparency": 4666,
      "Ġvel": 4667,
      "tices": 4668,
      "Ġsubt": 4669,
      "Ġdivide": 4670,
      "Ġcollege": 4671,
      "Ġconsumers": 4672,
      "edge": 4673,
      "Ġheld": 4674,
      "Ġcriter": 4675,
      "Ġerror": 4676,
      "Ġbarriers": 4677,
      "cip": 4678,
      "Ġhit": 4679,
      "rief": 4680,
      "udes": 4681,
      "Ġarise": 4682,
      "Ġcontributes": 4683,
      "Ġminimizing": 4684,
      "Ġnutri": 4685,
      "Ġremark": 4686,
      "Ġrecently": 4687,
      "Ġadvice": 4688,
      "'(": 4689,
      "most": 4690,
      "erge": 4691,
      "Ġgets": 4692,
      "Ġranging": 4693,
      "Ġconsult": 4694,
      "Ġgrand": 4695,
      "Ġreflec": 4696,
      "Ġexposure": 4697,
      "You": 4698,
      "Ġbit": 4699,
      "Ġlooks": 4700,
      "Ġaims": 4701,
      "Ġimmediately": 4702,
      "$:": 4703,
      "dim": 4704,
      "eds": 4705,
      "Ġfaster": 4706,
      "ung": 4707,
      "Ġalloc": 4708,
      "Ġroc": 4709,
      "Ġsaving": 4710,
      "Ġbuy": 4711,
      "Ġinfrastructure": 4712,
      "Ġremained": 4713,
      "Ġachieving": 4714,
      "Ġspeaking": 4715,
      "Ġtransportation": 4716,
      "$)": 4717,
      "Ġcogn": 4718,
      "Ġfem": 4719,
      "roup": 4720,
      "Ġsigns": 4721,
      "Ġinstances": 4722,
      "nesses": 4723,
      "Ġpopulations": 4724,
      "found": 4725,
      "ners": 4726,
      "ĨĴ": 4727,
      "Ġbir": 4728,
      "ading": 4729,
      "place": 4730,
      "Ġcomputing": 4731,
      "antly": 4732,
      "ĠExpl": 4733,
      "Ġbeliefs": 4734,
      "omin": 4735,
      "asm": 4736,
      "Ġuses": 4737,
      "Ġplaces": 4738,
      "ifications": 4739,
      "Ġconfig": 4740,
      "Ġnorms": 4741,
      "off": 4742,
      "pre": 4743,
      "ux": 4744,
      "Ġwaste": 4745,
      "Ġcontains": 4746,
      "ler": 4747,
      "Ġcause": 4748,
      "Ġtransc": 4749,
      "Ġexamination": 4750,
      "Ġperforming": 4751,
      "ewel": 4752,
      "Ġdemonstrates": 4753,
      "Ġdegree": 4754,
      "Ġimplies": 4755,
      "anch": 4756,
      "igma": 4757,
      "Ġalthough": 4758,
      "Ġanticip": 4759,
      "Ġdetermined": 4760,
      "Ġutilizing": 4761,
      "Ġstaying": 4762,
      "Ġprocedures": 4763,
      "Ġtheoretical": 4764,
      "mon": 4765,
      "oly": 4766,
      "ley": 4767,
      "Ġring": 4768,
      "Ġtrade": 4769,
      "Ġ${": 4770,
      "Ġheat": 4771,
      "Ġmyster": 4772,
      "Ġbrings": 4773,
      "Ġlimits": 4774,
      "Ġvarying": 4775,
      ".'": 4776,
      "Ġdiscussed": 4777,
      "Ġindustries": 4778,
      "Ġsatisfaction": 4779,
      "Ġinteraction": 4780,
      "Ġnodded": 4781,
      "Ġartistic": 4782,
      "asons": 4783,
      "Ġcomprom": 4784,
      "Ġmeticul": 4785,
      "ĠLily": 4786,
      "Ġblood": 4787,
      "Ġsuccessfully": 4788,
      "Ġwaves": 4789,
      "Ġimplementation": 4790,
      "Ġscenario": 4791,
      "tis": 4792,
      "Ġcharg": 4793,
      "cosystem": 4794,
      "Ġmultiplication": 4795,
      "Have": 4796,
      "Our": 4797,
      "ĠSm": 4798,
      "ractions": 4799,
      "Ġconsistently": 4800,
      "Ġintroduce": 4801,
      "Ġsoph": 4802,
      "Ġsample": 4803,
      "used": 4804,
      "Ġregions": 4805,
      "Ġthanks": 4806,
      "Gu": 4807,
      "ilon": 4808,
      "ĠWar": 4809,
      "ĠUltimately": 4810,
      "ĠKey": 4811,
      "Ġbreaking": 4812,
      "Ġpredict": 4813,
      "Throughout": 4814,
      "Ġafford": 4815,
      "iling": 4816,
      "ivity": 4817,
      "Ġbooks": 4818,
      "ĠNon": 4819,
      "Ġheavy": 4820,
      "Ġheavily": 4821,
      "Ġadvantage": 4822,
      "Ġpan": 4823,
      "igr": 4824,
      "Ġstaff": 4825,
      "Ġprogramming": 4826,
      "Ġneighbor": 4827,
      "Ġrace": 4828,
      "ĠCent": 4829,
      "Ġcorpor": 4830,
      "Ġprincip": 4831,
      "11": 4832,
      "nected": 4833,
      "ompl": 4834,
      "ocity": 4835,
      "ocial": 4836,
      "Ġmultiplying": 4837,
      "Ġteaching": 4838,
      "Ġdefinitions": 4839,
      "ĠWorld": 4840,
      "Ġhypoth": 4841,
      "Ġpen": 4842,
      "Ġchain": 4843,
      "Ġcompute": 4844,
      "Ġ$|": 4845,
      "Ġplot": 4846,
      "Ġconsiderations": 4847,
      "Ġclosed": 4848,
      "Ġencouraging": 4849,
      "Ġperiods": 4850,
      "Ġexercise": 4851,
      "Ġexplored": 4852,
      "Ġraised": 4853,
      "Ġment": 4854,
      "Ġhes": 4855,
      "ums": 4856,
      "Ġparalle": 4857,
      "Ġcontinues": 4858,
      "Ġaffecting": 4859,
      "Ġartist": 4860,
      "Ġvirtual": 4861,
      "wing": 4862,
      "Ġdil": 4863,
      "Ġlink": 4864,
      "Ġgard": 4865,
      "Ġcompelling": 4866,
      "Ġdiscrim": 4867,
      "Ġbeloved": 4868,
      "Ġtransformed": 4869,
      "eign": 4870,
      "mer": 4871,
      "Ġske": 4872,
      "Ġbott": 4873,
      "Ġrely": 4874,
      "Ġexplan": 4875,
      "Ġattrib": 4876,
      "Ġintegrity": 4877,
      "Ġevaluating": 4878,
      "Ġintellectual": 4879,
      "ork": 4880,
      "Ġfirm": 4881,
      "Ġecosystem": 4882,
      "Ġgold": 4883,
      "Ġprocessing": 4884,
      "Ġattend": 4885,
      "Ġsequences": 4886,
      "Ġinspire": 4887,
      "Ġderived": 4888,
      "Ġversion": 4889,
      "ĠCommun": 4890,
      "Ġsophistic": 4891,
      "Ġath": 4892,
      "rial": 4893,
      "uality": 4894,
      "ounting": 4895,
      "Ġgrasp": 4896,
      "ĠExamples": 4897,
      "Ġuseful": 4898,
      "Ġphysics": 4899,
      "Ġarticle": 4900,
      "Ġalgebraic": 4901,
      "Ġsubstantial": 4902,
      "Ġsem": 4903,
      "Ġhot": 4904,
      "netic": 4905,
      "tenance": 4906,
      "Ġforming": 4907,
      "Ġmarkets": 4908,
      "Ġslightly": 4909,
      "Ġinclusive": 4910,
      "Ġdisease": 4911,
      "ĠEncour": 4912,
      "Ġleave": 4913,
      "une": 4914,
      "Ġweather": 4915,
      "Ġknows": 4916,
      "Ġwrite": 4917,
      "Ġboxes": 4918,
      "Ġingredients": 4919,
      "}=": 4920,
      "otyp": 4921,
      "Ġnothing": 4922,
      "ĠCho": 4923,
      "Ġseems": 4924,
      "Ġemploying": 4925,
      "Ġreached": 4926,
      "Ġtherapy": 4927,
      "Ġacknowledging": 4928,
      "eu": 4929,
      "unit": 4930,
      "apan": 4931,
      "venue": 4932,
      "Ġenhanced": 4933,
      "Ġintriguing": 4934,
      "Ġphilosoph": 4935,
      "Ġtree": 4936,
      "amiliar": 4937,
      "phi": 4938,
      "Ġintersection": 4939,
      "Ġcivil": 4940,
      "ĠLittle": 4941,
      "tif": 4942,
      "ĠPe": 4943,
      "Ġminutes": 4944,
      "ficial": 4945,
      "Ġvolume": 4946,
      "Ġsensitive": 4947,
      "Ġreliable": 4948,
      "Ġtheorem": 4949,
      "ils": 4950,
      "which": 4951,
      "ĠRegular": 4952,
      "Ġfixed": 4953,
      "Ġobstacles": 4954,
      "ools": 4955,
      "itivity": 4956,
      "Ġago": 4957,
      "Ġsuggests": 4958,
      "Ġurban": 4959,
      "Ġremarkable": 4960,
      "atically": 4961,
      "Ġcher": 4962,
      "Ġdifferenti": 4963,
      "Ġaccompl": 4964,
      "Ġobjective": 4965,
      "vi": 4966,
      "Ġsuitable": 4967,
      "ffective": 4968,
      "Ġconsists": 4969,
      "Ġcaptiv": 4970,
      "Ġoutcome": 4971,
      "Ġinvestigation": 4972,
      "Ġenthusiasts": 4973,
      "mission": 4974,
      "Ġfarm": 4975,
      "ĠRedd": 4976,
      "Ġqualities": 4977,
      "That": 4978,
      "orders": 4979,
      "Ġfilm": 4980,
      "Ġhyd": 4981,
      "Ġmanufacturing": 4982,
      "Ġphenomena": 4983,
      "puts": 4984,
      "Ġ(\\": 4985,
      "Ġdisrup": 4986,
      "Ġfeat": 4987,
      "Ġmarginal": 4988,
      "Ġunw": 4989,
      "ectors": 4990,
      "Ġhighly": 4991,
      "Ġsurv": 4992,
      "Ġfrequency": 4993,
      "na": 4994,
      "Ġbodies": 4995,
      "ried": 4996,
      "Ġunivers": 4997,
      "Ġplant": 4998,
      "Ġunderstood": 4999,
      "atively": 5000,
      "stract": 5001,
      "Ġiden": 5002,
      "Ġconfron": 5003,
      "Ġgenerating": 5004,
      "axis": 5005,
      "'.": 5006,
      "xy": 5007,
      "Ġpractition": 5008,
      "Ġpoll": 5009,
      "Ġaffected": 5010,
      "uilding": 5011,
      "faces": 5012,
      "Ġalter": 5013,
      "Ġspecies": 5014,
      "Ġdividing": 5015,
      "App": 5016,
      "friend": 5017,
      "ĠOb": 5018,
      "ounds": 5019,
      "Ġcoop": 5020,
      "Ġsmart": 5021,
      "Ġdepth": 5022,
      "Ġelim": 5023,
      "Ġinspiration": 5024,
      "Ġversati": 5025,
      "Ġmission": 5026,
      "Ġupdates": 5027,
      "ĠMaya": 5028,
      "Ġrecords": 5029,
      "Ġfaith": 5030,
      "anning": 5031,
      "ĠAre": 5032,
      "Ġaccept": 5033,
      "Ġaren": 5034,
      "ĠNever": 5035,
      "Ġnotes": 5036,
      "Ġserving": 5037,
      "Ġnewfound": 5038,
      "Ġlisten": 5039,
      "Ġbelieve": 5040,
      "ĠMathema": 5041,
      "Ġstorage": 5042,
      "uate": 5043,
      "arrow": 5044,
      "Ġinner": 5045,
      "ĠAmong": 5046,
      "Ġmonitoring": 5047,
      "ĠEmily": 5048,
      "Ġrecommend": 5049,
      "Welcome": 5050,
      "race": 5051,
      "Ġrect": 5052,
      "Ġuns": 5053,
      "ords": 5054,
      "Ġfulf": 5055,
      "poses": 5056,
      "Ġappeal": 5057,
      "Ġdark": 5058,
      "ĠSee": 5059,
      "ĠNor": 5060,
      "Ġlesson": 5061,
      "Ġcapture": 5062,
      "yal": 5063,
      "Ġpowers": 5064,
      "Ġlik": 5065,
      "ĠUS": 5066,
      "Ġconfid": 5067,
      "Ġlasting": 5068,
      "Ġprepared": 5069,
      "Ġincredible": 5070,
      "\",": 5071,
      "Ġalle": 5072,
      "ĠMon": 5073,
      "Ġamazing": 5074,
      "Ġexperts": 5075,
      "Ġelev": 5076,
      "Ġsuppose": 5077,
      "Ġcriteria": 5078,
      "Ġche": 5079,
      "Ġqual": 5080,
      "ordinary": 5081,
      "Ġexistence": 5082,
      "Ġcomprehension": 5083,
      "Ġsleep": 5084,
      "uous": 5085,
      "inom": 5086,
      "Ġperce": 5087,
      "Ġdefining": 5088,
      "Ġcalculated": 5089,
      "Ġemployed": 5090,
      "Ġlabel": 5091,
      "Ġprioritize": 5092,
      "Re": 5093,
      "^(": 5094,
      "points": 5095,
      "Ġsought": 5096,
      "Ġdu": 5097,
      "Ġinverse": 5098,
      "urb": 5099,
      "ĠNote": 5100,
      "Ġintelligence": 5101,
      "iers": 5102,
      "lambda": 5103,
      "Ġintim": 5104,
      "Ġwhite": 5105,
      "Ġmoves": 5106,
      "Ġdescribe": 5107,
      "Ġconduct": 5108,
      "Ġproposed": 5109,
      "Ġassumptions": 5110,
      "alysis": 5111,
      "roll": 5112,
      "asure": 5113,
      "Ġcontexts": 5114,
      "ffee": 5115,
      "ĠGe": 5116,
      "Ġcombination": 5117,
      "umption": 5118,
      "Ġargue": 5119,
      "Ġoccurs": 5120,
      "Ġencountered": 5121,
      "Ġpicture": 5122,
      "Ġdouble": 5123,
      "here": 5124,
      "Ġthr": 5125,
      "Ġsac": 5126,
      "Ġrise": 5127,
      "ĠAg": 5128,
      "Ġjewel": 5129,
      "ĠGen": 5130,
      "Ġpercep": 5131,
      "Ġtransition": 5132,
      "Ġfunctionality": 5133,
      "Ġatmosphere": 5134,
      "aur": 5135,
      "idents": 5136,
      "Ġimprovements": 5137,
      "Ġoppos": 5138,
      "Ġthreats": 5139,
      "itage": 5140,
      "isp": 5141,
      "ison": 5142,
      "Ġintu": 5143,
      "Ġrecognition": 5144,
      "Ġgoverning": 5145,
      "fficients": 5146,
      "Ġregularly": 5147,
      "Well": 5148,
      "Ġincome": 5149,
      "ĠJapan": 5150,
      "Ġstanding": 5151,
      "Ġdevice": 5152,
      "Ġconsistency": 5153,
      "ĠSupp": 5154,
      "ĠEuropean": 5155,
      "Ġforget": 5156,
      "uctions": 5157,
      "Ġparents": 5158,
      "Ġemail": 5159,
      "Ġbrain": 5160,
      "Ġextraordinary": 5161,
      "iform": 5162,
      "Ġ100": 5163,
      "There": 5164,
      "Ġcell": 5165,
      "Ġmap": 5166,
      "omorph": 5167,
      "Ġgently": 5168,
      "ĠMar": 5169,
      "ogle": 5170,
      "ommod": 5171,
      "Ġgrapp": 5172,
      "Ġprivate": 5173,
      "Ġconflicts": 5174,
      "Ġaftern": 5175,
      "eath": 5176,
      "rist": 5177,
      "solving": 5178,
      "ĠStates": 5179,
      "ĠChina": 5180,
      "Ġfreed": 5181,
      "ĠAmerica": 5182,
      "Ġsatisfying": 5183,
      "Ġanswers": 5184,
      "Ġcloth": 5185,
      "Ġedge": 5186,
      "Ġtells": 5187,
      "ulating": 5188,
      "Ġproving": 5189,
      "angles": 5190,
      "ublish": 5191,
      "dimensional": 5192,
      "ho": 5193,
      "Ġodd": 5194,
      "Ġpromising": 5195,
      "Ġende": 5196,
      "Ġaccessible": 5197,
      "Ġ199": 5198,
      "elihood": 5199,
      "Ġstrict": 5200,
      "formation": 5201,
      "These": 5202,
      "Ġmaintenance": 5203,
      "Ġschools": 5204,
      "Ġpurposes": 5205,
      "Ġincorporate": 5206,
      "Ġshift": 5207,
      "Ġdiagnos": 5208,
      "Ġcer": 5209,
      "Ġcrow": 5210,
      "Ġwealth": 5211,
      "Ġdrawn": 5212,
      "Ġcharacterized": 5213,
      "Ġmessages": 5214,
      "Ġadaptability": 5215,
      "Ġintervention": 5216,
      "Ġcub": 5217,
      "att": 5218,
      "unting": 5219,
      "Ġroll": 5220,
      "Ġblack": 5221,
      "Ġpresents": 5222,
      "^\\": 5223,
      "backs": 5224,
      "Ġhous": 5225,
      "Ġnone": 5226,
      "Ġinten": 5227,
      "ĠEvery": 5228,
      "Ġconcent": 5229,
      "Ġsecret": 5230,
      "Ġminor": 5231,
      "Ġactively": 5232,
      "bal": 5233,
      "}_{": 5234,
      "Ġsou": 5235,
      "asion": 5236,
      "olved": 5237,
      "Ġopening": 5238,
      "Ġreminder": 5239,
      "Ġregional": 5240,
      "Ġarrived": 5241,
      "wr": 5242,
      "orrow": 5243,
      "Ġmember": 5244,
      "ults": 5245,
      "ĠTe": 5246,
      "unning": 5247,
      "Ġunn": 5248,
      "Ġassum": 5249,
      "Ġextre": 5250,
      "Ġevaluate": 5251,
      "Ġexcellent": 5252,
      "`.": 5253,
      "Ġpul": 5254,
      "Ġtruth": 5255,
      "ĠJack": 5256,
      "mathcal": 5257,
      "fortunately": 5258,
      "Ġmemories": 5259,
      "Pro": 5260,
      "Ġswe": 5261,
      "arly": 5262,
      "Ġrare": 5263,
      "osp": 5264,
      "ĠUtil": 5265,
      "Ġpositively": 5266,
      "Ġsimplify": 5267,
      "Ġradius": 5268,
      "Ġcategories": 5269,
      "Ġharness": 5270,
      "Ġreinfor": 5271,
      "ĠMaria": 5272,
      "Ġvelocity": 5273,
      "eries": 5274,
      "Ġsong": 5275,
      "ĠMia": 5276,
      "Ġmeant": 5277,
      "Ġ15": 5278,
      "Ġequality": 5279,
      "Ġsurve": 5280,
      "Ġentertain": 5281,
      "Why": 5282,
      "Ġalternatives": 5283,
      "Ġutilize": 5284,
      "Ġstruggle": 5285,
      "ĠAb": 5286,
      "Ġarbit": 5287,
      "racting": 5288,
      "Ġamounts": 5289,
      "Ġassistance": 5290,
      "Ġsave": 5291,
      "Ġproductivity": 5292,
      "Ġsky": 5293,
      "Ġdesigning": 5294,
      "Ġshowing": 5295,
      "Ġwitness": 5296,
      "Ġprices": 5297,
      "Ġsquares": 5298,
      "Ġoptimization": 5299,
      "`,": 5300,
      "ĠSure": 5301,
      "Ġappears": 5302,
      "Ġexplo": 5303,
      "Ġequally": 5304,
      "Ġaccommod": 5305,
      "Ġproviders": 5306,
      "Example": 5307,
      "Ġafternoon": 5308,
      "Ġgas": 5309,
      "Ġgir": 5310,
      "Ġcomparing": 5311,
      "ĠEnglish": 5312,
      "Ġpushing": 5313,
      "15": 5314,
      "Ġrational": 5315,
      "inder": 5316,
      "Ġ16": 5317,
      "Ġdepends": 5318,
      "Ġcarbon": 5319,
      "Ġembrace": 5320,
      "Ġfeaturing": 5321,
      "rary": 5322,
      "zy": 5323,
      "Ġtip": 5324,
      "ript": 5325,
      "Ġevolution": 5326,
      "Ġtransfer": 5327,
      "Ġgenerated": 5328,
      "Ġfamous": 5329,
      "Ġconvergence": 5330,
      "Ġroutine": 5331,
      "xiety": 5332,
      "utive": 5333,
      "vals": 5334,
      "Ġwoman": 5335,
      "ĠGerm": 5336,
      "ĠTheorem": 5337,
      "Ġbeneath": 5338,
      "Ġobserved": 5339,
      "Ġsymbols": 5340,
      "Ġconflict": 5341,
      "Ġcoefficients": 5342,
      "Ġdisciplines": 5343,
      "Ġchemical": 5344,
      "inter": 5345,
      "ĠIns": 5346,
      "Ġmolec": 5347,
      "Ġsections": 5348,
      "Ġcoffee": 5349,
      "Ġreduces": 5350,
      "Ġsaying": 5351,
      "Ġadminist": 5352,
      "Ġrain": 5353,
      "Ġforth": 5354,
      "Ġiter": 5355,
      "Ġchances": 5356,
      "Ġabstract": 5357,
      "athering": 5358,
      "Ġconsumption": 5359,
      "Ġheritage": 5360,
      "Ġdifferential": 5361,
      "Ġdelicate": 5362,
      "Ġsympt": 5363,
      "Ġparticipation": 5364,
      "Ġlandscapes": 5365,
      "Ġdegrees": 5366,
      "ĠGoogle": 5367,
      "Ġtow": 5368,
      "ĠHave": 5369,
      "Ġconcl": 5370,
      "Ġdevelopers": 5371,
      "Ġprompt": 5372,
      "Ġtraffic": 5373,
      "Ġmemor": 5374,
      "Ġshifts": 5375,
      "ĠMany": 5376,
      "Ġidentical": 5377,
      "Ġlikelihood": 5378,
      "Ġmil": 5379,
      "theless": 5380,
      "Ġcha": 5381,
      "Ġdescrip": 5382,
      "ĠSometimes": 5383,
      "Ġcraft": 5384,
      "Ġsnipp": 5385,
      "Ġconfigur": 5386,
      "{(": 5387,
      "Ġtut": 5388,
      "Ġple": 5389,
      "urally": 5390,
      "ĠAv": 5391,
      "cho": 5392,
      "âĢĭ": 5393,
      "Ġreflection": 5394,
      "Ġidentities": 5395,
      "Ġwrong": 5396,
      "Ġpressing": 5397,
      "Ġphotograph": 5398,
      "Ġbonds": 5399,
      "Ġpractitioners": 5400,
      "son": 5401,
      "leq": 5402,
      "Ġvoc": 5403,
      "agues": 5404,
      "ĠHigh": 5405,
      "Ġoperating": 5406,
      "Ġsupply": 5407,
      "Ġdebate": 5408,
      "Ġregulatory": 5409,
      "Since": 5410,
      "dis": 5411,
      "inks": 5412,
      "Ġdre": 5413,
      "oll": 5414,
      "Ġprote": 5415,
      "ĠDisc": 5416,
      "Ġoverlo": 5417,
      "Ġclearly": 5418,
      "Ġinspiring": 5419,
      "Al": 5420,
      "uff": 5421,
      "Ġstic": 5422,
      "Ġfans": 5423,
      "Ġstop": 5424,
      "Ġvent": 5425,
      "forward": 5426,
      "Ġselection": 5427,
      "irect": 5428,
      "Ġcommunicate": 5429,
      "Ġnewly": 5430,
      "Ġrevolution": 5431,
      "Ġwalk": 5432,
      "Ġimmediate": 5433,
      "Ġlatest": 5434,
      "Ġratio": 5435,
      "ĠReddit": 5436,
      "rad": 5437,
      "Ġsite": 5438,
      "Ġdx": 5439,
      "fulness": 5440,
      "Ġaccounts": 5441,
      "Ġeffect": 5442,
      "Ġcentered": 5443,
      "Ġdrive": 5444,
      "friendly": 5445,
      "Ġprop": 5446,
      "Ġcompati": 5447,
      "Ġremote": 5448,
      "...,": 5449,
      "Ġcars": 5450,
      "Ġemphasizing": 5451,
      "inant": 5452,
      "Ġlever": 5453,
      "ĠCity": 5454,
      "Ġcompet": 5455,
      "Ġsuffer": 5456,
      "Ġequipped": 5457,
      "Ġsevere": 5458,
      "Ġmusical": 5459,
      "Ġthoughtfully": 5460,
      "Ġprecision": 5461,
      "Ġballs": 5462,
      "Ġnuances": 5463,
      "forcement": 5464,
      "Ġcognitive": 5465,
      "//": 5466,
      "Ġresolution": 5467,
      "Ġacts": 5468,
      "Ġorganiz": 5469,
      "Ġlayers": 5470,
      "Ġstruggles": 5471,
      "Ġcandies": 5472,
      "Ġconventional": 5473,
      "Ġtactics": 5474,
      "Ġexceptional": 5475,
      "Ġjewelry": 5476,
      "21": 5477,
      "Ġtips": 5478,
      "Ġconv": 5479,
      "ĠCur": 5480,
      "Ġprem": 5481,
      "plement": 5482,
      "ĠYet": 5483,
      "connected": 5484,
      "Ġschem": 5485,
      "Ġdivis": 5486,
      "],": 5487,
      "Ġcatch": 5488,
      "Ġtheories": 5489,
      "Ġvig": 5490,
      "ĠEl": 5491,
      "ĠRuss": 5492,
      "Ġcontrovers": 5493,
      "Ġperfectly": 5494,
      "Ġtrees": 5495,
      "point": 5496,
      "uli": 5497,
      "ĠChin": 5498,
      "ilitary": 5499,
      "Ġpuzzle": 5500,
      "Ġhesit": 5501,
      "arr": 5502,
      "imal": 5503,
      "ĠSub": 5504,
      "ched": 5505,
      "arian": 5506,
      "Ġcauses": 5507,
      "Ġlayer": 5508,
      "Ġcrafting": 5509,
      "Ġfish": 5510,
      "Ġraw": 5511,
      "ĠSystem": 5512,
      "Ġanxiety": 5513,
      "ĠFind": 5514,
      "Ġinteract": 5515,
      "ĠExper": 5516,
      "Ġemotion": 5517,
      "reprene": 5518,
      "vec": 5519,
      "anish": 5520,
      "urch": 5521,
      "ĠEqu": 5522,
      "Ġglance": 5523,
      "Ġmusc": 5524,
      "Ġdescribed": 5525,
      "Ġparameters": 5526,
      "Ġimpressive": 5527,
      "dy": 5528,
      "Ġoutl": 5529,
      "Ġfootball": 5530,
      "AT": 5531,
      "inning": 5532,
      "Ġunus": 5533,
      "Ġarts": 5534,
      "Ġcoll": 5535,
      "Ġclasses": 5536,
      "Ġarguments": 5537,
      "Ġdivided": 5538,
      "Ġrapidly": 5539,
      "*}": 5540,
      "||": 5541,
      "Ġice": 5542,
      "room": 5543,
      "Ġstages": 5544,
      "Ġunfor": 5545,
      "Ġdecades": 5546,
      "Ġprotecting": 5547,
      "ĠTime": 5548,
      "orial": 5549,
      "Ġpiv": 5550,
      "Ġfire": 5551,
      "arity": 5552,
      "ĠDec": 5553,
      "Ġmov": 5554,
      "####": 5555,
      "Ġdocuments": 5556,
      "Ġvoices": 5557,
      "Ġframeworks": 5558,
      "ĠBlack": 5559,
      "Ġobservations": 5560,
      "Ġcampaigns": 5561,
      "Ġturning": 5562,
      "Ġmer": 5563,
      "Ġmir": 5564,
      "Ġcoming": 5565,
      "ĠEst": 5566,
      "Ġpersever": 5567,
      "Ġentirely": 5568,
      "Ġappearance": 5569,
      "}.": 5570,
      "Ġpublish": 5571,
      "Ġnurt": 5572,
      "Ġmanif": 5573,
      "Ġroad": 5574,
      "Ġlanguages": 5575,
      "Ġnumerical": 5576,
      "ĠNevertheless": 5577,
      "Ġforeign": 5578,
      "Ġpropor": 5579,
      "Ġproof": 5580,
      "Ġcompare": 5581,
      "arding": 5582,
      "tains": 5583,
      "Ġessence": 5584,
      "Ġfiles": 5585,
      "Ġworksh": 5586,
      "Ġintricacies": 5587,
      "aught": 5588,
      "Ġsnippet": 5589,
      "Em": 5590,
      "rain": 5591,
      "Ġmaster": 5592,
      "Ġvs": 5593,
      "Ġvac": 5594,
      "Ġdear": 5595,
      "ieties": 5596,
      "Ġminimum": 5597,
      "Ġbudget": 5598,
      "ĠAfrican": 5599,
      "If": 5600,
      "Ġtests": 5601,
      "Ġcards": 5602,
      "arith": 5603,
      "Ġbol": 5604,
      "amma": 5605,
      "ader": 5606,
      "ague": 5607,
      "ĠSouth": 5608,
      "ĠHar": 5609,
      "Ġparty": 5610,
      "ĠInc": 5611,
      "Ġfaces": 5612,
      "Ġhumans": 5613,
      "ĠAnalysis": 5614,
      "}}\\": 5615,
      "Ġexercises": 5616,
      "Ġstraightforward": 5617,
      "olic": 5618,
      "ĠTip": 5619,
      "Ġscale": 5620,
      "ĠChapter": 5621,
      "Ġtrip": 5622,
      "Ġhappen": 5623,
      "'d": 5624,
      "}_": 5625,
      "Ġcolon": 5626,
      "----------------------------": 5627,
      "Ġcomplexities": 5628,
      "oving": 5629,
      "Ġbatter": 5630,
      "step": 5631,
      "ectiveness": 5632,
      "Ġstring": 5633,
      "ĠLear": 5634,
      "Ġmultiply": 5635,
      "egu": 5636,
      "Ġcombine": 5637,
      "Ġparticipate": 5638,
      "Ġinterested": 5639,
      "Ġteacher": 5640,
      "Ġinterpretation": 5641,
      "ĠSecond": 5642,
      "ĠDesign": 5643,
      "ID": 5644,
      "ae": 5645,
      "Ġadequ": 5646,
      "Ġhandle": 5647,
      "Ġcritically": 5648,
      "Ġtransformations": 5649,
      "oe": 5650,
      "Ġlibr": 5651,
      "Ġdispl": 5652,
      "Ġuniform": 5653,
      "Ġconsumer": 5654,
      "Ġsecre": 5655,
      "Ġgrew": 5656,
      "Ġslope": 5657,
      "Ġarray": 5658,
      "Ġnuanced": 5659,
      "Ġsophisticated": 5660,
      "ran": 5661,
      "vance": 5662,
      "Ġstood": 5663,
      "agon": 5664,
      "Ġpark": 5665,
      "ief": 5666,
      "Ġsites": 5667,
      "Ġestablishing": 5668,
      "Ġcomfortable": 5669,
      "Ġic": 5670,
      "ĠBo": 5671,
      "Ġcompr": 5672,
      "Ġvariations": 5673,
      "Ġfunctional": 5674,
      "Ġlocations": 5675,
      "Ġolder": 5676,
      "Ġexpanding": 5677,
      "Ġcultivate": 5678,
      "Ġhorizon": 5679,
      "uro": 5680,
      "Ġcomplement": 5681,
      "Ġobserving": 5682,
      "ographic": 5683,
      "Ġleaves": 5684,
      "jective": 5685,
      "era": 5686,
      "Ġgent": 5687,
      "Ġalmost": 5688,
      "ĠMake": 5689,
      "anted": 5690,
      "Ġstrange": 5691,
      "Ġphase": 5692,
      "Ġentry": 5693,
      "Ġglass": 5694,
      "ecessary": 5695,
      "Ġbasis": 5696,
      "Ġaccountability": 5697,
      "25": 5698,
      "Ġpun": 5699,
      "Ġfine": 5700,
      "lean": 5701,
      "etheless": 5702,
      "Ġmarbles": 5703,
      "Ġgradually": 5704,
      "Ġsparked": 5705,
      "Ġpartnerships": 5706,
      "Ġskep": 5707,
      "Ġtexts": 5708,
      "anger": 5709,
      "Ġscreen": 5710,
      "ĠChrist": 5711,
      "Ġprominent": 5712,
      "Ġcharge": 5713,
      "Ġpoor": 5714,
      "Ġhumanity": 5715,
      "Ġgathered": 5716,
      "Ġdelivering": 5717,
      "Ġfreedom": 5718,
      "*:": 5719,
      "such": 5720,
      "Ġlens": 5721,
      "Ġsignals": 5722,
      "Ġsmiled": 5723,
      "Ġimportantly": 5724,
      "Ġargument": 5725,
      "16": 5726,
      "down": 5727,
      "erb": 5728,
      "ana": 5729,
      "ĠMus": 5730,
      "Ġenter": 5731,
      "Ġorganized": 5732,
      "Ġaccessibility": 5733,
      "Ġscene": 5734,
      "Ġsubset": 5735,
      "Ġderivatives": 5736,
      "Ġdrug": 5737,
      "ĠĠĠĠĠĠĠĠĠĠĠĠĠĠĠĠ": 5738,
      "Ġracial": 5739,
      "Ġunusual": 5740,
      "ror": 5741,
      "water": 5742,
      "ĊĠĠ": 5743,
      "anged": 5744,
      "Ġorigin": 5745,
      "Ġreveals": 5746,
      "Ġexpansion": 5747,
      "Ġlingu": 5748,
      ",'": 5749,
      "fit": 5750,
      "}=\\": 5751,
      "etary": 5752,
      "Ġgar": 5753,
      "Ġinsurance": 5754,
      "Ġsignal": 5755,
      "Ġworkers": 5756,
      "Ġsuggest": 5757,
      "Ġwondered": 5758,
      "Ġalgorithm": 5759,
      "Ġmotivation": 5760,
      "Ġcandidates": 5761,
      ")+": 5762,
      "Ġthous": 5763,
      "Ġdog": 5764,
      "ĠTom": 5765,
      "ĠData": 5766,
      "ĠNational": 5767,
      "ulture": 5768,
      "Ġassume": 5769,
      "Ġsubtle": 5770,
      "Ġclassic": 5771,
      "Ġtreatments": 5772,
      "Ġsymptoms": 5773,
      "ĠChinese": 5774,
      "IV": 5775,
      "zero": 5776,
      "roc": 5777,
      "ĠPat": 5778,
      "Ġrelax": 5779,
      "onsider": 5780,
      "oked": 5781,
      "Ġtradition": 5782,
      "Ġwatching": 5783,
      "Ġprecisely": 5784,
      "Ġconvey": 5785,
      "Ġexplicitly": 5786,
      "aters": 5787,
      "ĠSk": 5788,
      "ĠSol": 5789,
      "ĠSocial": 5790,
      "Ġunlike": 5791,
      "Ġgrab": 5792,
      "aker": 5793,
      "Ġ30": 5794,
      "Ġbright": 5795,
      "Ġminds": 5796,
      "Ġstatements": 5797,
      "Ġcounting": 5798,
      "ĠTwo": 5799,
      "Ġuncertainty": 5800,
      "Ġthread": 5801,
      "Ġwood": 5802,
      "Ġoil": 5803,
      "Ġexcl": 5804,
      "Ġobtained": 5805,
      "Ġmedicine": 5806,
      "Ġexcessive": 5807,
      "Guideline": 5808,
      "\\[": 5809,
      "agers": 5810,
      "taining": 5811,
      "versely": 5812,
      "Ġenhances": 5813,
      "Ġminimal": 5814,
      "Ġstrive": 5815,
      "Ġlaunch": 5816,
      "Rec": 5817,
      "Ġrelying": 5818,
      "Ġproactive": 5819,
      "Ġdelicious": 5820,
      "Ġentities": 5821,
      "Ġbeginning": 5822,
      "edding": 5823,
      "Ġpassionate": 5824,
      "Ġquantities": 5825,
      "Ġhabits": 5826,
      "Ġneighborhood": 5827,
      "Ġdiscrimination": 5828,
      "top": 5829,
      "Ġ}": 5830,
      "Ġpor": 5831,
      "Ġbrief": 5832,
      "Ġadversity": 5833,
      "ĠIntern": 5834,
      "Ġassets": 5835,
      "Ġfrag": 5836,
      "Ġsafegu": 5837,
      "Ġfriendly": 5838,
      "box": 5839,
      "ĠBefore": 5840,
      "Ġinclusivity": 5841,
      "Ġrespectively": 5842,
      "Ġcomputational": 5843,
      "igenous": 5844,
      "Ġcoordinates": 5845,
      "ĠBenny": 5846,
      "Ġarrangements": 5847,
      "Ġobservation": 5848,
      "Ġequivalent": 5849,
      "Is": 5850,
      "hat": 5851,
      "Ġhence": 5852,
      "Ġgathering": 5853,
      "ighter": 5854,
      "Ġplane": 5855,
      "Ġmagn": 5856,
      "Ġdenomin": 5857,
      "Ġ($\\": 5858,
      "Ġaccomplish": 5859,
      ")*": 5860,
      ":*": 5861,
      "Ġsizes": 5862,
      "Ġtrick": 5863,
      "----------": 5864,
      "Ġtwice": 5865,
      "Ġadds": 5866,
      "owned": 5867,
      "Ġhappy": 5868,
      "Ġexpressing": 5869,
      "/(": 5870,
      "NA": 5871,
      "icial": 5872,
      "Ġnuc": 5873,
      "ĠIntegr": 5874,
      "Ġloyal": 5875,
      "Ġprofici": 5876,
      "Ġentreprene": 5877,
      "Ġedges": 5878,
      "ĠHealth": 5879,
      "ĠUniversity": 5880,
      "Ġcorresponds": 5881,
      "Ġreturns": 5882,
      "Ġpictures": 5883,
      "Of": 5884,
      "telling": 5885,
      "Ġcaught": 5886,
      "verti": 5887,
      "Ġvill": 5888,
      "Ġshown": 5889,
      "Ġstruck": 5890,
      "Ġexpert": 5891,
      "Ġformation": 5892,
      "Ġpromise": 5893,
      "Ġcollaborative": 5894,
      "Ġmarvel": 5895,
      "ĠReal": 5896,
      "ĠIndeed": 5897,
      "Ġrevealing": 5898,
      "Ġcy": 5899,
      "ateful": 5900,
      "Ġcancer": 5901,
      "Ġinterconnected": 5902,
      "Ġprecious": 5903,
      "Ġdecide": 5904,
      "Ġmob": 5905,
      "elta": 5906,
      "metic": 5907,
      "bmatrix": 5908,
      "Ġdone": 5909,
      "Ġtold": 5910,
      "mental": 5911,
      "ĠFollow": 5912,
      "Ġhealing": 5913,
      "ĠForm": 5914,
      "Ġmaximize": 5915,
      "Ġdetailed": 5916,
      "Ġseasoned": 5917,
      "Meanwhile": 5918,
      "flow": 5919,
      "estern": 5920,
      "oli": 5921,
      "Ġcreatures": 5922,
      "gric": 5923,
      "Ġphone": 5924,
      "Ġlocated": 5925,
      "Ġdepart": 5926,
      "Ġparticipating": 5927,
      "Ġcommitted": 5928,
      "Ġsummar": 5929,
      "Ġbackgrounds": 5930,
      "Ġexhibit": 5931,
      "Ġcompliance": 5932,
      "Ġtension": 5933,
      "Ġec": 5934,
      "Ġusually": 5935,
      "Ġarmed": 5936,
      "ĠGreen": 5937,
      "Ġdiscourse": 5938,
      "Ġformat": 5939,
      "Ġsocieties": 5940,
      "Ġdelight": 5941,
      "Ġshaped": 5942,
      "Ġoccup": 5943,
      "Ġindicates": 5944,
      "Ġmistakes": 5945,
      "Add": 5946,
      "col": 5947,
      "mar": 5948,
      "Ġband": 5949,
      "Ġexempl": 5950,
      "Ġplaced": 5951,
      "Ġdeli": 5952,
      "Ġidentified": 5953,
      "ammy": 5954,
      "Ġfewer": 5955,
      "Ġdomains": 5956,
      "Ġinfinity": 5957,
      "Ġstatistics": 5958,
      "Ġresidents": 5959,
      "Ġmitigate": 5960,
      "14": 5961,
      "och": 5962,
      "ĠÂ": 5963,
      "ĠMat": 5964,
      "neys": 5965,
      "Ġpeers": 5966,
      "Ġentails": 5967,
      "Ġtried": 5968,
      "Ġconstructive": 5969,
      "Ġrepeated": 5970,
      "Ġopinions": 5971,
      "Ġquadratic": 5972,
      ")^{": 5973,
      "://": 5974,
      "Ġdro": 5975,
      "Ġbra": 5976,
      "Ġintervals": 5977,
      "Ġgrid": 5978,
      "Ġexclusive": 5979,
      "Ġdiscoveries": 5980,
      "Ġdivision": 5981,
      "Ġvertical": 5982,
      "Ġpartners": 5983,
      "Ġcorrectly": 5984,
      "Ġstatistical": 5985,
      "Ġreputation": 5986,
      ")]": 5987,
      "Understanding": 5988,
      "aving": 5989,
      "tex": 5990,
      "Ġign": 5991,
      "Ġreform": 5992,
      "Ġvict": 5993,
      "roud": 5994,
      "ĠBal": 5995,
      "Ġapples": 5996,
      "Ġboard": 5997,
      "Ġframework": 5998,
      "Ġannoun": 5999,
      "Ġacceleration": 6000,
      "pe": 6001,
      "Ġdance": 6002,
      "Ġmel": 6003,
      "Ġgaps": 6004,
      "Ġstunning": 6005,
      "ĠII": 6006,
      "ĠHist": 6007,
      "pression": 6008,
      "--------------------": 6009,
      "Ġmusicians": 6010,
      "Ġrelease": 6011,
      "Ġgeometry": 6012,
      "Ġrevealed": 6013,
      ")|": 6014,
      "Ġcloud": 6015,
      "rative": 6016,
      "Ġdiscre": 6017,
      "Ġphr": 6018,
      "Ġdiam": 6019,
      "ĠChar": 6020,
      "Ġattending": 6021,
      "airs": 6022,
      "Ġtransforming": 6023,
      "ercial": 6024,
      "Ġbigger": 6025,
      "Ġmachines": 6026,
      "Ġwebsites": 6027,
      "uity": 6028,
      "Ġpage": 6029,
      "atin": 6030,
      "umber": 6031,
      "gression": 6032,
      "ĠVal": 6033,
      "Ġinfluencing": 6034,
      "Ġstrengthen": 6035,
      "Ġpreventing": 6036,
      "Ġinterviews": 6037,
      "Ġdelivery": 6038,
      "Ġstead": 6039,
      "ĠLike": 6040,
      "Ġeffectiveness": 6041,
      "Ġevening": 6042,
      "values": 6043,
      "Ġspeech": 6044,
      "otion": 6045,
      "Ġsav": 6046,
      "Ġmilitary": 6047,
      "Ġneither": 6048,
      "ĠPri": 6049,
      "Ġperm": 6050,
      "Ġcommunic": 6051,
      "Ġpromp": 6052,
      "ressing": 6053,
      "Ġpassing": 6054,
      "Ġjournal": 6055,
      "Ġartificial": 6056,
      "herence": 6057,
      "Ġgoods": 6058,
      "Ġenthusiasm": 6059,
      "Ġinstitution": 6060,
      "Ġ:=": 6061,
      "onomic": 6062,
      "Ġrhyth": 6063,
      "Ġorganizational": 6064,
      "Ġgentle": 6065,
      "17": 6066,
      "spec": 6067,
      "ĊĠĠĠĠ": 6068,
      "Ġfile": 6069,
      "ulated": 6070,
      "Ġstret": 6071,
      "Ġdistances": 6072,
      "Ġproducing": 6073,
      "Ġconfusion": 6074,
      "Ġfocuses": 6075,
      "Ġmarked": 6076,
      "Ġresponsibilities": 6077,
      "apping": 6078,
      "Ġmagnit": 6079,
      "Ġcolleagues": 6080,
      "Ġtangent": 6081,
      "Ġcrypt": 6082,
      "lies": 6083,
      "working": 6084,
      "Ġmagnetic": 6085,
      "Ġholding": 6086,
      "Ġconstitutes": 6087,
      "etit": 6088,
      "vis": 6089,
      "Ġbank": 6090,
      "asy": 6091,
      "irical": 6092,
      "irms": 6093,
      "Ġdeal": 6094,
      "ĠMore": 6095,
      "Ġhelpful": 6096,
      "Ġspecified": 6097,
      "Ġblog": 6098,
      "Ġstructural": 6099,
      "Ġhyper": 6100,
      "ĠOrgan": 6101,
      "Ġinterventions": 6102,
      "ĠPractice": 6103,
      "ĠSur": 6104,
      "ĠRel": 6105,
      "Ġclub": 6106,
      "Ġfeet": 6107,
      "Ġwilling": 6108,
      "Ġharmony": 6109,
      "Ġmissing": 6110,
      "Ġcriminal": 6111,
      "AR": 6112,
      "mod": 6113,
      "rons": 6114,
      "vision": 6115,
      "Ġfraction": 6116,
      "arader": 6117,
      "iment": 6118,
      "Ġagencies": 6119,
      "Ġimmense": 6120,
      "Ġeconomy": 6121,
      "ĠNonetheless": 6122,
      "Ġleveraging": 6123,
      "araderie": 6124,
      "&=": 6125,
      "ses": 6126,
      "orre": 6127,
      "Ġproud": 6128,
      "Ġreasons": 6129,
      "Ġtracking": 6130,
      "ives": 6131,
      "ĠNe": 6132,
      "Ġserious": 6133,
      "Ġbelieved": 6134,
      "Ġvolun": 6135,
      "Ġinjury": 6136,
      "Ġaxis": 6137,
      "Ġclinical": 6138,
      "ek": 6139,
      "Ġsho": 6140,
      "pecting": 6141,
      "ĠPres": 6142,
      "Ġpartial": 6143,
      "ĠNext": 6144,
      "Ġnotation": 6145,
      "Ġbiases": 6146,
      "Ġpainting": 6147,
      "Ġcamaraderie": 6148,
      "Ġperseverance": 6149,
      "Ġ{\\": 6150,
      "Ġbinary": 6151,
      "Ġincident": 6152,
      "ĠLastly": 6153,
      "duct": 6154,
      "Ġcooking": 6155,
      "Ġpharm": 6156,
      "ĠEns": 6157,
      "Ġlifesty": 6158,
      "Ġprinciple": 6159,
      "Ġcooperation": 6160,
      "gent": 6161,
      "ln": 6162,
      "Ġmul": 6163,
      "ĠCO": 6164,
      "ĠMain": 6165,
      "Ġampl": 6166,
      "Ġamongst": 6167,
      "Ġrepresentations": 6168,
      "ER": 6169,
      "pact": 6170,
      "ww": 6171,
      "Ġtun": 6172,
      "Ġtech": 6173,
      "Ġrevenue": 6174,
      "Ġforever": 6175,
      "Ġshares": 6176,
      "izz": 6177,
      "Ġrelation": 6178,
      "Ġperformances": 6179,
      "Ġcenturies": 6180,
      "Ġcalculus": 6181,
      "Ġavoiding": 6182,
      "Ġdisparities": 6183,
      "related": 6184,
      "Ġarbitrary": 6185,
      "\".": 6186,
      "htt": 6187,
      "Ġorient": 6188,
      "ĠEast": 6189,
      "ĠOut": 6190,
      "Ġsoil": 6191,
      "Ġfacts": 6192,
      "ĠAnaly": 6193,
      "Ġintroducing": 6194,
      "Ġstorytelling": 6195,
      "Ġassessment": 6196,
      "Ġcredibility": 6197,
      "Ġclarity": 6198,
      "Ġgeometric": 6199,
      "_{\\": 6200,
      "ĠTyp": 6201,
      "Ġresist": 6202,
      "Ġ14": 6203,
      "Ġoutd": 6204,
      "Ġinvestors": 6205,
      "Ġparamount": 6206,
      "Ġquantity": 6207,
      "Ġsexual": 6208,
      "Ġgenetic": 6209,
      "Ġperceived": 6210,
      "Ġsecrets": 6211,
      "Ġtall": 6212,
      "vention": 6213,
      "psilon": 6214,
      "Ġmeasuring": 6215,
      "ĠâĨĴ": 6216,
      "Ġreminded": 6217,
      "Ġspiritual": 6218,
      "CA": 6219,
      "Ġreward": 6220,
      "umes": 6221,
      "estry": 6222,
      "press": 6223,
      "Ġmanual": 6224,
      "tedly": 6225,
      "Ġdifferently": 6226,
      "Ġaccomp": 6227,
      "Ġletters": 6228,
      "Ġfinance": 6229,
      "partial": 6230,
      "Ġshowed": 6231,
      "Ġfunds": 6232,
      "Ġdram": 6233,
      "Ġlogarith": 6234,
      "Ġevaluation": 6235,
      "Ġabsor": 6236,
      "Ġshowcasing": 6237,
      "Ġviolence": 6238,
      "house": 6239,
      "Ġtiss": 6240,
      "Ġcompetit": 6241,
      "Ġunknown": 6242,
      "Ġclient": 6243,
      "Ġeleg": 6244,
      "Ġincluded": 6245,
      "Ġdiver": 6246,
      "Ġparticles": 6247,
      "Ġchanged": 6248,
      "Ġpreserve": 6249,
      "Ġmanufactur": 6250,
      "ĠEurope": 6251,
      "Ġsegment": 6252,
      "Ġcaptivating": 6253,
      "Ġunnecessary": 6254,
      "ĠEstablish": 6255,
      "nel": 6256,
      "Ġtit": 6257,
      "Ġfer": 6258,
      "ithmetic": 6259,
      "ĠDra": 6260,
      "ĠLaw": 6261,
      "Ġrecovery": 6262,
      "ĠYork": 6263,
      "Ġgenerally": 6264,
      "Ġillum": 6265,
      "Ġadventures": 6266,
      "Ġmodeling": 6267,
      "Ġadjustments": 6268,
      "Ġmixed": 6269,
      "ĠPeople": 6270,
      "Ġthousands": 6271,
      "lock": 6272,
      "Ġfab": 6273,
      "urm": 6274,
      "Ġwear": 6275,
      "tingu": 6276,
      "antum": 6277,
      "ĠRef": 6278,
      "Ġindex": 6279,
      "Ġquiet": 6280,
      "Ġequitable": 6281,
      "Ġposed": 6282,
      "Ġpassage": 6283,
      "Ġdenote": 6284,
      "ĠThroughout": 6285,
      "Ġexponential": 6286,
      "Ġpreparing": 6287,
      "60": 6288,
      "gar": 6289,
      "hear": 6290,
      "alse": 6291,
      "anting": 6292,
      "icks": 6293,
      "Ġran": 6294,
      "ĠHence": 6295,
      "Ġsurfaces": 6296,
      "espread": 6297,
      "Ġcircles": 6298,
      "Ġrelevance": 6299,
      "Ġlengths": 6300,
      "Ġdiagonal": 6301,
      "Ġmillions": 6302,
      "Ġchaos": 6303,
      "hab": 6304,
      "min": 6305,
      "rm": 6306,
      "ĠFin": 6307,
      "Ġmeals": 6308,
      "Ġovercome": 6309,
      "Ġoffice": 6310,
      "Ġseeing": 6311,
      "Ġmetrics": 6312,
      "Ġconversion": 6313,
      "Ġpursuing": 6314,
      "Ġmiddle": 6315,
      "ĠSuppose": 6316,
      "taking": 6317,
      "Ġagric": 6318,
      "Ġthrow": 6319,
      "Ġsell": 6320,
      "Ġreactions": 6321,
      "using": 6322,
      "Ġpric": 6323,
      "Ġfeels": 6324,
      "Ġmatches": 6325,
      "Ġorganizing": 6326,
      "ĠProper": 6327,
      "Ġtale": 6328,
      "Ġrooted": 6329,
      "Ġvisitors": 6330,
      "Ġjudg": 6331,
      "Ġreflects": 6332,
      "Ġworkshops": 6333,
      ".$": 6334,
      "iant": 6335,
      "ederal": 6336,
      "Ġfant": 6337,
      "ĠSally": 6338,
      "ĠPark": 6339,
      "Ġconservation": 6340,
      "Ġdoors": 6341,
      "Ġeveryday": 6342,
      "Ġvisiting": 6343,
      "Ġlegacy": 6344,
      "Ġgratitude": 6345,
      "Ġnarrow": 6346,
      "ĠCommon": 6347,
      "Ġveget": 6348,
      "Ġcultivating": 6349,
      "Ġdilig": 6350,
      "hering": 6351,
      "sch": 6352,
      "Ġq": 6353,
      "oles": 6354,
      "aylor": 6355,
      "Ġvic": 6356,
      "Ġlean": 6357,
      "ocurr": 6358,
      "Ġimper": 6359,
      "ĠDi": 6360,
      "cipl": 6361,
      "ĠConf": 6362,
      "ĠProf": 6363,
      "Ġmetal": 6364,
      "Ġcoefficient": 6365,
      "Ġmysterious": 6366,
      "Ġparallel": 6367,
      "((": 6368,
      "fac": 6369,
      "lity": 6370,
      "Ġgaming": 6371,
      "âĢĵ": 6372,
      "titudes": 6373,
      "Ġstarts": 6374,
      "Ġinternet": 6375,
      "Ġdoct": 6376,
      "ometric": 6377,
      "ĠPlay": 6378,
      "Ġfluid": 6379,
      "Ġhabit": 6380,
      "Ġperpet": 6381,
      "circ": 6382,
      "la": 6383,
      "tw": 6384,
      "Ġtire": 6385,
      "Ġtaste": 6386,
      "Ġspl": 6387,
      "Ġwish": 6388,
      "Ġrad": 6389,
      "iveness": 6390,
      "illed": 6391,
      "Ġgeneration": 6392,
      "eyond": 6393,
      "Ġharmon": 6394,
      "Ġmanipulation": 6395,
      "Ġprepare": 6396,
      "Ġthrive": 6397,
      "Ġwidespread": 6398,
      "Ġopposite": 6399,
      "CD": 6400,
      "Unit": 6401,
      "bar": 6402,
      "Ġselling": 6403,
      "Ġdead": 6404,
      "Ġcontract": 6405,
      "ĠEth": 6406,
      "ferences": 6407,
      "atial": 6408,
      "Ġstars": 6409,
      "Ġ198": 6410,
      "Ġenjoying": 6411,
      "ĠMrs": 6412,
      "Ġinstructions": 6413,
      "Ġtargeted": 6414,
      "Ac": 6415,
      "From": 6416,
      "Ġbul": 6417,
      "Ġassist": 6418,
      "Ġextended": 6419,
      "Ġcalculation": 6420,
      "Ġtalking": 6421,
      "Ġdistributions": 6422,
      "Ġswitch": 6423,
      "Ġslowly": 6424,
      "Ġcomposition": 6425,
      "Ġsusp": 6426,
      "Ġaspiring": 6427,
      "ĠNorth": 6428,
      "Ġnurturing": 6429,
      "|\\": 6430,
      "Ġ...,": 6431,
      "Ġsqrt": 6432,
      "icking": 6433,
      "Ġrewards": 6434,
      "ĠCap": 6435,
      "ĠPlus": 6436,
      "Ġconducting": 6437,
      "Ġofficial": 6438,
      "Ġvigil": 6439,
      "orical": 6440,
      "Ġmal": 6441,
      "ching": 6442,
      "ĠDif": 6443,
      "Ġsuit": 6444,
      "ĠLa": 6445,
      "Ġemerge": 6446,
      "Ġconcrete": 6447,
      "Ġoptimize": 6448,
      "Ġsuggesting": 6449,
      "Ġgravity": 6450,
      "Ġachievements": 6451,
      "Ġthriving": 6452,
      "Ġvehicles": 6453,
      "Tr": 6454,
      "ression": 6455,
      "Ġdensity": 6456,
      "ags": 6457,
      "Ġcompact": 6458,
      "ython": 6459,
      "Ġmarginalized": 6460,
      "Ġrecommendations": 6461,
      "dt": 6462,
      "emic": 6463,
      "aint": 6464,
      "enders": 6465,
      "ĠEduc": 6466,
      "ĠRed": 6467,
      "yses": 6468,
      "Ġ50": 6469,
      "ĠImplement": 6470,
      "ĠEmp": 6471,
      "ĠIdentify": 6472,
      "Ġpivotal": 6473,
      "\\*": 6474,
      "mark": 6475,
      "Â°": 6476,
      "ortive": 6477,
      "Ġacting": 6478,
      "uding": 6479,
      "Ġmeets": 6480,
      "Ġscre": 6481,
      "Ġformer": 6482,
      "efined": 6483,
      "Ġprotoc": 6484,
      "Ġadopting": 6485,
      "onomy": 6486,
      "cited": 6487,
      "Ġhu": 6488,
      "owed": 6489,
      "ĠServ": 6490,
      "Ġgrade": 6491,
      "âĪļ": 6492,
      "Ġfront": 6493,
      "Ġexperiencing": 6494,
      "ĠUnfortunately": 6495,
      "Ġstriking": 6496,
      "ĠCollabor": 6497,
      "ĠMaybe": 6498,
      "Ġseamless": 6499,
      "Ġadequate": 6500,
      "30": 6501,
      "Ġaid": 6502,
      "Ġpal": 6503,
      "Ġhomes": 6504,
      "Ġnation": 6505,
      "uccess": 6506,
      "Ġdishes": 6507,
      "Ġdistingu": 6508,
      "Ġsufficient": 6509,
      "Ġcommercial": 6510,
      "Ġwouldn": 6511,
      "Ġfriendship": 6512,
      "Ġfilter": 6513,
      "Ġinvestments": 6514,
      "Ġsimpler": 6515,
      "Ġannual": 6516,
      "Ġbottom": 6517,
      "estim": 6518,
      "Ġhosp": 6519,
      "Ġyes": 6520,
      "Ġforg": 6521,
      "ĠThough": 6522,
      "ĠLeg": 6523,
      "Ġparent": 6524,
      "Ġofferings": 6525,
      "Ġapplicable": 6526,
      "Ġinfluences": 6527,
      "Ġcoverage": 6528,
      "Ġmeasurements": 6529,
      "Ġfacilitating": 6530,
      "Ġarrive": 6531,
      "Ġpurchasing": 6532,
      "otypes": 6533,
      "Ġextreme": 6534,
      ")=\\": 6535,
      "crib": 6536,
      "Ġtensions": 6537,
      "estiv": 6538,
      "Ġspoke": 6539,
      "Ġboasts": 6540,
      "Ġsmallest": 6541,
      "Ġawa": 6542,
      "Ġinjuries": 6543,
      "Ġcredit": 6544,
      "Ġreasoning": 6545,
      "Ġmillion": 6546,
      "Ġphenomenon": 6547,
      "Ġdisparate": 6548,
      "Ġweaknesses": 6549,
      "Ġpaid": 6550,
      "Ġgarden": 6551,
      "dots": 6552,
      "Ġtrou": 6553,
      "Ġbird": 6554,
      "enty": 6555,
      "ĠDo": 6556,
      "Ġsubjects": 6557,
      "Ġfirsthand": 6558,
      "Ġdiscovering": 6559,
      "Ġpassions": 6560,
      "Ġinfluential": 6561,
      "ymakers": 6562,
      "Ġreturned": 6563,
      "Ġmorning": 6564,
      "Ġcycle": 6565,
      "Ġdoub": 6566,
      "Sim": 6567,
      "oys": 6568,
      "that": 6569,
      "ĠThink": 6570,
      "Ġunch": 6571,
      "ĠIniti": 6572,
      "Ġscatter": 6573,
      "Ġspect": 6574,
      "Ġrealize": 6575,
      "Ġtriangles": 6576,
      "ĠProgr": 6577,
      "Ġlistened": 6578,
      "Ġconstructing": 6579,
      "Ġpsychological": 6580,
      "Ġrows": 6581,
      "ĠDevelopment": 6582,
      "Ġreporting": 6583,
      "Consider": 6584,
      "DE": 6585,
      "lig": 6586,
      "}+": 6587,
      "Ġhur": 6588,
      "Ġhob": 6589,
      "economic": 6590,
      "ĠLoc": 6591,
      "ĠGl": 6592,
      "ĠUnder": 6593,
      "Ġnoting": 6594,
      "Ġownership": 6595,
      "ĠProv": 6596,
      "Ġavailability": 6597,
      "Ġengineers": 6598,
      "Ġchecking": 6599,
      "Ġdatasets": 6600,
      "My": 6601,
      "mm": 6602,
      "inity": 6603,
      "Ġmaps": 6604,
      "Ġupper": 6605,
      "ime": 6606,
      "cean": 6607,
      "ula": 6608,
      "Ġround": 6609,
      "Ġshar": 6610,
      "ĠEd": 6611,
      "Ġhair": 6612,
      "Ġupcoming": 6613,
      "Ġample": 6614,
      "Ġanimal": 6615,
      "Ġmoral": 6616,
      "Ġpolynomials": 6617,
      "Ġelectricity": 6618,
      "faceted": 6619,
      "AC": 6620,
      "Ġcities": 6621,
      "Ġgap": 6622,
      "Ġ11": 6623,
      "Ġvariety": 6624,
      "Ġgrace": 6625,
      "Ġconfirm": 6626,
      "issions": 6627,
      "Ġtraits": 6628,
      "Ġconstruct": 6629,
      "Ġcompleting": 6630,
      "Ġdimension": 6631,
      "Ġcompletely": 6632,
      "Ġcategory": 6633,
      "ĠStudy": 6634,
      "Ġseamlessly": 6635,
      "ĠStrateg": 6636,
      "Ġlaughter": 6637,
      "$;": 6638,
      "Cl": 6639,
      "aj": 6640,
      "Ġdream": 6641,
      "Ġrevel": 6642,
      "Ġjump": 6643,
      "racy": 6644,
      "Ġnotion": 6645,
      "Ġsignifies": 6646,
      "Ġproduced": 6647,
      "Ġanalyses": 6648,
      "Ġpartner": 6649,
      "Ġnecessarily": 6650,
      "Ġemployee": 6651,
      "ossible": 6652,
      "Ġviews": 6653,
      "Ġinterpre": 6654,
      "Ġarticles": 6655,
      "Ġrock": 6656,
      "Ġcompatibility": 6657,
      "Ġsand": 6658,
      "Ġbill": 6659,
      "Ġlosing": 6660,
      "erson": 6661,
      "Ġcharm": 6662,
      "ocking": 6663,
      "ustration": 6664,
      "Ġextends": 6665,
      "ĠApplying": 6666,
      "Ġclaims": 6667,
      "Ġguarantees": 6668,
      "Ġcorporate": 6669,
      "During": 6670,
      "Rem": 6671,
      "just": 6672,
      "till": 6673,
      "Ġpit": 6674,
      "Ġdin": 6675,
      "Ġlie": 6676,
      "ĠRob": 6677,
      "Ġimplying": 6678,
      "Ġfluct": 6679,
      "Ġtransformative": 6680,
      "Ġclarify": 6681,
      "breaking": 6682,
      "ĠChoose": 6683,
      ")-": 6684,
      "ding": 6685,
      "free": 6686,
      "lamm": 6687,
      "Ġfancy": 6688,
      "ros": 6689,
      "asures": 6690,
      "Ġstock": 6691,
      "ĠBar": 6692,
      "ĠPower": 6693,
      "ĠLuc": 6694,
      "Ġarithmetic": 6695,
      "Ġpret": 6696,
      "âĪŀ": 6697,
      "position": 6698,
      "Ġsugges": 6699,
      "Ġteachers": 6700,
      "rench": 6701,
      "Ġprobabilities": 6702,
      "Ġmeticulously": 6703,
      "Ġhorizontal": 6704,
      "Ġvictim": 6705,
      "iation": 6706,
      "mic": 6707,
      "zed": 6708,
      "Ġ.": 6709,
      "onents": 6710,
      "Ġban": 6711,
      "eline": 6712,
      "chain": 6713,
      "ĠDep": 6714,
      "Ġboost": 6715,
      "Ġcohes": 6716,
      "Ġcenters": 6717,
      "Ġsupportive": 6718,
      "Ġoccasion": 6719,
      "Ġcovered": 6720,
      "ĠSchool": 6721,
      "Ġdenominator": 6722,
      "https": 6723,
      "gn": 6724,
      "Ġpet": 6725,
      "Ġeight": 6726,
      "Ġintense": 6727,
      "ĠMin": 6728,
      "ĠWestern": 6729,
      "ĠDel": 6730,
      "Ġordinary": 6731,
      "arsh": 6732,
      "Ġbasket": 6733,
      "Ġvertex": 6734,
      "Ġethn": 6735,
      "Ġcounterpar": 6736,
      "Ġnarrative": 6737,
      ",$": 6738,
      "EO": 6739,
      "beta": 6740,
      "dfrac": 6741,
      "Ġsad": 6742,
      "Ġsession": 6743,
      "Ġsector": 6744,
      "Ġinputs": 6745,
      "ĠFact": 6746,
      "onsist": 6747,
      "Ġcook": 6748,
      "Ġenduring": 6749,
      "plicity": 6750,
      "ashion": 6751,
      "ĠIndia": 6752,
      "Ġkindness": 6753,
      "Ġadvocating": 6754,
      "Ġentertainment": 6755,
      "Just": 6756,
      "\\\\": 6757,
      "ĊĠ": 6758,
      "Ġdry": 6759,
      "roph": 6760,
      "Ġlux": 6761,
      "Ġpercent": 6762,
      "Ġpromotes": 6763,
      "Ġcalls": 6764,
      "Ġprofit": 6765,
      "Ġhappening": 6766,
      "Ġinnovations": 6767,
      "Ġpolicymakers": 6768,
      "Ġsatisfies": 6769,
      "Ġharmful": 6770,
      "Ġstruggling": 6771,
      "Ġrelatively": 6772,
      "Ġattempting": 6773,
      "Ġtast": 6774,
      "stery": 6775,
      "atever": 6776,
      "Ġcompeting": 6777,
      "ipe": 6778,
      "Ġsolar": 6779,
      "ierarch": 6780,
      "ission": 6781,
      "Ġbias": 6782,
      "Ġera": 6783,
      "scale": 6784,
      "Ġmechanics": 6785,
      "Ġindicating": 6786,
      "Ġneighbors": 6787,
      "Ġdiseases": 6788,
      "Ġsegments": 6789,
      "Ġreports": 6790,
      "Ġarchitecture": 6791,
      "Ġlinguistic": 6792,
      "40": 6793,
      "tes": 6794,
      "}-": 6795,
      "Ġease": 6796,
      "Ġenforcement": 6797,
      "Ġweigh": 6798,
      "Ġcontrad": 6799,
      "ounters": 6800,
      "Ġmultifaceted": 6801,
      "rightarrow": 6802,
      "Ġsatisfy": 6803,
      "Ġgovernance": 6804,
      "Ġalignment": 6805,
      "Ġsmoothly": 6806,
      "Ġvideos": 6807,
      "Ġeagerly": 6808,
      "Ġdreams": 6809,
      "bing": 6810,
      "ented": 6811,
      "Ġli": 6812,
      "Ġneuro": 6813,
      "ĠUs": 6814,
      "Ġadvances": 6815,
      "Ġmedium": 6816,
      "Ġentries": 6817,
      "Ġcircular": 6818,
      "Ġcommonly": 6819,
      "Ġdescribes": 6820,
      "Ġindicate": 6821,
      "Ġcoordinate": 6822,
      "$).": 6823,
      "gi": 6824,
      "los": 6825,
      "Ġslic": 6826,
      "Ġpages": 6827,
      "Ġ(\"": 6828,
      "âĢ¦": 6829,
      "Ġspending": 6830,
      "Ġcream": 6831,
      "Ġbalanced": 6832,
      "Ġrecognized": 6833,
      "Ġvertices": 6834,
      "Ġraising": 6835,
      "Ġvolunte": 6836,
      "Ġcounterparts": 6837,
      "$\\": 6838,
      "rific": 6839,
      "Ġmoun": 6840,
      "load": 6841,
      "Ġmeetings": 6842,
      "letes": 6843,
      "Ġexcitedly": 6844,
      "ĠEncourage": 6845,
      "discipl": 6846,
      "He": 6847,
      "Over": 6848,
      "vial": 6849,
      "Î±": 6850,
      "ĠTaylor": 6851,
      "ĠSammy": 6852,
      "Ġchat": 6853,
      "Ġchose": 6854,
      "Ġextend": 6855,
      "Ġflour": 6856,
      "Ġflavors": 6857,
      "Ġtraject": 6858,
      "Ġaffects": 6859,
      "Ġrenowned": 6860,
      "Ġacquis": 6861,
      "____": 6862,
      "ption": 6863,
      "Ġwaters": 6864,
      "Ġaccep": 6865,
      "ĠMulti": 6866,
      "ĠOl": 6867,
      "Ġcommand": 6868,
      "Ġcollecting": 6869,
      "Ġequity": 6870,
      "ĠâĢĺ": 6871,
      "ĠExample": 6872,
      "Ġoperational": 6873,
      "Ġempirical": 6874,
      "Ġfunding": 6875,
      "Ġ2016": 6876,
      "Ġraise": 6877,
      "Ġdaunting": 6878,
      "Ġstruggled": 6879,
      "Ġappealing": 6880,
      "Ġfailure": 6881,
      "Ġexecution": 6882,
      "Ġâī¤": 6883,
      "99": 6884,
      "Ġsuddenly": 6885,
      "Ġwel": 6886,
      "Ġfan": 6887,
      "Ġrend": 6888,
      "Ġexac": 6889,
      "Ġdisp": 6890,
      "neg": 6891,
      "Ġdiscrete": 6892,
      "Ġproved": 6893,
      "ĠUp": 6894,
      "iquid": 6895,
      "Ġmoved": 6896,
      "venues": 6897,
      "ĠVis": 6898,
      "Ġattract": 6899,
      "Ġfruit": 6900,
      "Ġtrial": 6901,
      "Ġdigit": 6902,
      "Ġ2017": 6903,
      "Ġgovernments": 6904,
      "Ġpopularity": 6905,
      "Ġwindow": 6906,
      "Ġtemperatures": 6907,
      "Ġtapestry": 6908,
      "Ġattempts": 6909,
      "Ġconfidently": 6910,
      "200": 6911,
      "mates": 6912,
      "eren": 6913,
      "ĠHarm": 6914,
      "ĠFl": 6915,
      "Ġattitudes": 6916,
      "Ġdatab": 6917,
      "Ġfacilities": 6918,
      "Ġconvert": 6919,
      "Ġjoined": 6920,
      "Ġlosses": 6921,
      "Ġbelonging": 6922,
      "Ġtutorial": 6923,
      "Sarah": 6924,
      "Ġsine": 6925,
      "throp": 6926,
      "ĠTest": 6927,
      "Ġshall": 6928,
      "ĠMicro": 6929,
      "Ġaccounting": 6930,
      "ĠConn": 6931,
      "Ġcontinuity": 6932,
      "Ġpresentation": 6933,
      "ĠImport": 6934,
      "Ġindustrial": 6935,
      "Ġhighlighted": 6936,
      "eeling": 6937,
      "Ġprotocols": 6938,
      "Ġfluctu": 6939,
      ",âĢĿ": 6940,
      "erate": 6941,
      "Ġpand": 6942,
      "Ġgave": 6943,
      "ĠMo": 6944,
      "ĠMethod": 6945,
      "Ġspatial": 6946,
      "Ġdeser": 6947,
      "Ġexplain": 6948,
      "Ġtransactions": 6949,
      "Ġexpenses": 6950,
      "ĠConversely": 6951,
      "Ġcourage": 6952,
      "Ġviewers": 6953,
      "Ġarrangement": 6954,
      "Ġpreparation": 6955,
      "Ġcolumns": 6956,
      "Ġsavings": 6957,
      "\")": 6958,
      "ctive": 6959,
      "ship": 6960,
      "ĠSw": 6961,
      "uman": 6962,
      "ĠBre": 6963,
      "Ġtrend": 6964,
      "Ġfeas": 6965,
      "Ġsecuring": 6966,
      "ĠStay": 6967,
      "lusions": 6968,
      "Ġearth": 6969,
      "ĠAppro": 6970,
      "ĠFirstly": 6971,
      "Ġvehicle": 6972,
      "Ġmagnitude": 6973,
      "AB": 6974,
      "SS": 6975,
      "Âł": 6976,
      "rolling": 6977,
      "Ġrough": 6978,
      "abul": 6979,
      "Ġdeath": 6980,
      "geq": 6981,
      "Ġovers": 6982,
      "ĠWho": 6983,
      "Ġblend": 6984,
      "Ġencounters": 6985,
      "Ġcontributed": 6986,
      "cont": 6987,
      "Ġplanet": 6988,
      "Ġconstantly": 6989,
      "Ġtreating": 6990,
      "Ġwalking": 6991,
      "Ġcleaning": 6992,
      "Ġcosine": 6993,
      "Ġaccompan": 6994,
      "Ġexacerb": 6995,
      "()": 6996,
      "aul": 6997,
      "Ġfing": 6998,
      "Ġfell": 6999,
      "Ġfalse": 7000,
      "ĠCri": 7001,
      "ointed": 7002,
      "ateral": 7003,
      "Ġintegrated": 7004,
      "Ġbeneficial": 7005,
      "Ġmonitor": 7006,
      "Ġnaturally": 7007,
      "Ġboundary": 7008,
      "Ġethics": 7009,
      "Ġshifting": 7010,
      "Ġcrafts": 7011,
      "Ġrenewed": 7012,
      "Ġmemorable": 7013,
      "ĠAvoid": 7014,
      "Ġecho": 7015,
      "Ġrush": 7016,
      "ĠSum": 7017,
      "ĠCare": 7018,
      "ively": 7019,
      "Ġobsc": 7020,
      "Ġearning": 7021,
      "Ġclassical": 7022,
      "Ġelectronic": 7023,
      "Expl": 7024,
      "Ġreviews": 7025,
      "Ġestimate": 7026,
      "ĠJohnson": 7027,
      "Ġbridge": 7028,
      "Com": 7029,
      "En": 7030,
      "ault": 7031,
      "Ġpec": 7032,
      "Ġstere": 7033,
      "Ġstone": 7034,
      "ada": 7035,
      "Ġasym": 7036,
      "Ġcompens": 7037,
      "ĠDem": 7038,
      "ĠLife": 7039,
      "Ġscore": 7040,
      "Ġconfident": 7041,
      "board": 7042,
      "Ġcovering": 7043,
      "Ġwonders": 7044,
      "ĠRecogn": 7045,
      "Ġreference": 7046,
      "Ġwidely": 7047,
      "Ġcompetitors": 7048,
      "abulary": 7049,
      "EM": 7050,
      "Ġstim": 7051,
      "ales": 7052,
      "road": 7053,
      "eles": 7054,
      "ĠCase": 7055,
      "ĠLine": 7056,
      "Ġsold": 7057,
      "ĠKore": 7058,
      "Ġendless": 7059,
      "Ġcalculating": 7060,
      "Ġreceiving": 7061,
      "Ġagreement": 7062,
      "Ġindependence": 7063,
      "Ġflexible": 7064,
      "ĠCreate": 7065,
      "Ġoverwhelming": 7066,
      "Ġcherished": 7067,
      "Ġversatile": 7068,
      "orrect": 7069,
      "100": 7070,
      "aves": 7071,
      "crip": 7072,
      "long": 7073,
      "rho": 7074,
      "Ġped": 7075,
      "key": 7076,
      "Ġ$(\\": 7077,
      "Ġplacing": 7078,
      "ĠLatin": 7079,
      "Ġ&=": 7080,
      "Ġpersonality": 7081,
      "Ġfruits": 7082,
      "Ġempty": 7083,
      "Ġ2018": 7084,
      "Ġfascinated": 7085,
      "Ġinclusion": 7086,
      "Ġsearching": 7087,
      "Ġrotation": 7088,
      "Ġcryptocurr": 7089,
      "fol": 7090,
      "ola": 7091,
      "pling": 7092,
      "Ġshop": 7093,
      "ĠBuilding": 7094,
      "ĠFour": 7095,
      "Ġ13": 7096,
      "ĠUpon": 7097,
      "Ġload": 7098,
      "Ġbrands": 7099,
      "Ġtrials": 7100,
      "Ġbalancing": 7101,
      "Ġvolt": 7102,
      "------------------------------------": 7103,
      "Ġphotos": 7104,
      "Ġauthority": 7105,
      "bl": 7106,
      "otic": 7107,
      "âģ": 7108,
      "inition": 7109,
      "otor": 7110,
      "Ġinconsist": 7111,
      "Ġkn": 7112,
      "ĠGree": 7113,
      "Ġdirections": 7114,
      "Ġhappiness": 7115,
      "Ġreduction": 7116,
      "Ġelectron": 7117,
      "ĠâĪļ": 7118,
      "Ġfairness": 7119,
      "Ġmanageable": 7120,
      "Ġlifestyle": 7121,
      "disciplinary": 7122,
      "$),": 7123,
      "23": 7124,
      "plom": 7125,
      "ĠBas": 7126,
      "ĠFrench": 7127,
      "Ġmapping": 7128,
      "Ġcurves": 7129,
      "worth": 7130,
      "Ġflo": 7131,
      "Ġactors": 7132,
      "Ġlegis": 7133,
      "Ġemphasize": 7134,
      "Ġwarmly": 7135,
      "Ġshowcase": 7136,
      "Ġcryst": 7137,
      "Ġfemale": 7138,
      "upp": 7139,
      "Ġfra": 7140,
      "Ġorth": 7141,
      "tively": 7142,
      "Ġspots": 7143,
      "Ġdesire": 7144,
      "Ġagency": 7145,
      "Ġflat": 7146,
      "Ġcombat": 7147,
      "Ġsupports": 7148,
      "Ġescap": 7149,
      "ographical": 7150,
      "Ġraises": 7151,
      "Ġreferred": 7152,
      "Ġbringing": 7153,
      "Ġholistic": 7154,
      "Ġunderscores": 7155,
      "arter": 7156,
      "Ġsto": 7157,
      "Ġstable": 7158,
      "Ġdeploy": 7159,
      "Ġsea": 7160,
      "istry": 7161,
      "ĠLook": 7162,
      "ibl": 7163,
      "Ġspend": 7164,
      "ĠGreat": 7165,
      "Ġcreations": 7166,
      "Ġoverl": 7167,
      "Ġhighest": 7168,
      "Ġvisually": 7169,
      "Ġversus": 7170,
      "Ġmechanical": 7171,
      "Ġsilver": 7172,
      "Ġbags": 7173,
      "Ġunfold": 7174,
      "ST": 7175,
      "{{\\": 7176,
      "Ġthick": 7177,
      "Ġfractions": 7178,
      "ĠRo": 7179,
      "Ġimpossible": 7180,
      "Ġdecl": 7181,
      "Ġaccident": 7182,
      "ailing": 7183,
      "Ġcurric": 7184,
      "Ġsocio": 7185,
      "atching": 7186,
      "Ġemphasis": 7187,
      "ĠManagement": 7188,
      "Ġreliability": 7189,
      "Ġterrit": 7190,
      "uliar": 7191,
      "Ġpricing": 7192,
      "Ar": 7193,
      "Ġtrib": 7194,
      "Ġcyl": 7195,
      "Ġwalls": 7196,
      "level": 7197,
      "stream": 7198,
      "Ġnations": 7199,
      "through": 7200,
      "ĠClear": 7201,
      "apers": 7202,
      "ĠWill": 7203,
      "ĠFamiliar": 7204,
      "Ġtransitions": 7205,
      "Ġsett": 7206,
      "Ġletter": 7207,
      "soft": 7208,
      "Ġattach": 7209,
      "ĠAlways": 7210,
      "Ġmisu": 7211,
      "Ġcounsel": 7212,
      "Ġcycles": 7213,
      "Ġtrigon": 7214,
      "Ġpollution": 7215,
      "ĠGeor": 7216,
      "Ġsacrific": 7217,
      "Ġsamples": 7218,
      "Ġpose": 7219,
      "Ġhierarch": 7220,
      "ford": 7221,
      "Ġcold": 7222,
      "Ġpresenting": 7223,
      "Ġsummer": 7224,
      "Ġsensitivity": 7225,
      "Ġinstruments": 7226,
      "Ġadaptation": 7227,
      "Ġwalked": 7228,
      "Ġparameter": 7229,
      "Ġreligion": 7230,
      "Ġtangible": 7231,
      "Ġthoroughly": 7232,
      "Ġwidth": 7233,
      "Ph": 7234,
      "Ġfol": 7235,
      "Ġbacter": 7236,
      "Ġeco": 7237,
      "igg": 7238,
      "ĠWr": 7239,
      "Ġpride": 7240,
      "Ġoverview": 7241,
      "Ġexplaining": 7242,
      "Ġdesigners": 7243,
      "Ġdepic": 7244,
      "Ġopened": 7245,
      "Ġtalents": 7246,
      "Ġanalytical": 7247,
      "Ġemployment": 7248,
      "Ġimplemented": 7249,
      "Ġmeasurement": 7250,
      "Ġsurprising": 7251,
      "Ġtherapeu": 7252,
      "Ġnamely": 7253,
      "Applying": 7254,
      "Ġstick": 7255,
      "Ġpeculiar": 7256,
      "24": 7257,
      "].": 7258,
      "fast": 7259,
      "rant": 7260,
      "Ġquantum": 7261,
      "ĠGroup": 7262,
      "overty": 7263,
      "Ġscores": 7264,
      "Ġaccum": 7265,
      "Ġrefine": 7266,
      "Ġinteractive": 7267,
      "Ġsunlight": 7268,
      "Ġguiding": 7269,
      "Ġimaginary": 7270,
      "Ġmultiplied": 7271,
      "Ġathletes": 7272,
      "Ġpermut": 7273,
      "Â³": 7274,
      "tile": 7275,
      "empt": 7276,
      "Ġintended": 7277,
      "Ġremove": 7278,
      "racts": 7279,
      "Thus": 7280,
      "Ġnoise": 7281,
      "Ġagents": 7282,
      "Ġhandy": 7283,
      "Ġpoet": 7284,
      "Ġtales": 7285,
      "ront": 7286,
      "Ġelectrical": 7287,
      "Ġformulas": 7288,
      "rigued": 7289,
      "Ġauthenticity": 7290,
      "Ġeigenvalues": 7291,
      "Ġaesthetics": 7292,
      "Ġeld": 7293,
      "icular": 7294,
      "ete": 7295,
      "ila": 7296,
      "irus": 7297,
      "ĠAng": 7298,
      "usiness": 7299,
      "Ġtrain": 7300,
      "Ġ25": 7301,
      "Ġconclusions": 7302,
      "Ġanalytics": 7303,
      "Ġnonzero": 7304,
      "Ġcourt": 7305,
      "Ġoneself": 7306,
      "Ġmomentum": 7307,
      "aimed": 7308,
      "Ġinvestigate": 7309,
      "Ġappeared": 7310,
      "Ġdemanding": 7311,
      "Ġpackage": 7312,
      "Ġnecessitates": 7313,
      "Ġaesthetic": 7314,
      "Ġlinked": 7315,
      "Ġecosystems": 7316,
      "Ġendeavors": 7317,
      "Ġoutlined": 7318,
      "Ġloyalty": 7319,
      "Ġmobile": 7320,
      "Ref": 7321,
      "jection": 7322,
      "ino": 7323,
      "oration": 7324,
      "Ġmouth": 7325,
      "Ġbed": 7326,
      "Ġhour": 7327,
      "acent": 7328,
      "Ġrings": 7329,
      "Ġdisag": 7330,
      "Ġvisibility": 7331,
      "Ġbirds": 7332,
      "Ġallevi": 7333,
      "Ġentrepreneurs": 7334,
      "aver": 7335,
      "date": 7336,
      "eat": 7337,
      "oning": 7338,
      "Ġleverage": 7339,
      "ogen": 7340,
      "Ġimposed": 7341,
      "ĠOf": 7342,
      "Ġequil": 7343,
      "Ġfees": 7344,
      "Ġpromises": 7345,
      "ĠProt": 7346,
      "ĠâĪĪ": 7347,
      "ĠApplic": 7348,
      "Ġsimplifies": 7349,
      "Ġlargest": 7350,
      "Ġconducted": 7351,
      "inomial": 7352,
      "Ġproficiency": 7353,
      "vertising": 7354,
      "Ġsummarize": 7355,
      "ga": 7356,
      "piec": 7357,
      "Ġast": 7358,
      "Ġsudden": 7359,
      "Ġfold": 7360,
      "Ġstem": 7361,
      "quis": 7362,
      "itim": 7363,
      "Ġmeal": 7364,
      "angers": 7365,
      "Ġlots": 7366,
      "Ġcollaborate": 7367,
      "Ġdivine": 7368,
      "Ġviewpoints": 7369,
      "Ġhoping": 7370,
      "Ġsymmetry": 7371,
      "Ġsharp": 7372,
      "FT": 7373,
      "Using": 7374,
      "enn": 7375,
      "urg": 7376,
      "uler": 7377,
      "ĠTake": 7378,
      "ĠCoun": 7379,
      "Ġshad": 7380,
      "Ġadults": 7381,
      "ĠDist": 7382,
      "ĠLim": 7383,
      "Ġspanning": 7384,
      "uests": 7385,
      "Ġrealizing": 7386,
      "Ġfoundational": 7387,
      "Ġnearly": 7388,
      "Ġ2019": 7389,
      "Ġcollections": 7390,
      "Ġemphasizes": 7391,
      "Ġresonate": 7392,
      "Ġaspir": 7393,
      "Ġdataset": 7394,
      "Ġbirth": 7395,
      "Ġconclude": 7396,
      "Ġpromptly": 7397,
      "DP": 7398,
      "mu": 7399,
      "Ġcas": 7400,
      "Ġnative": 7401,
      "ĠAut": 7402,
      "ĠAct": 7403,
      "Ġdeals": 7404,
      "orship": 7405,
      "Ġrecon": 7406,
      "ĠWhy": 7407,
      "Ġmodifications": 7408,
      "Ġrefining": 7409,
      "Ġskilled": 7410,
      "Ġteamwork": 7411,
      "ĠAmericans": 7412,
      "Ġtargeting": 7413,
      "Ġobtaining": 7414,
      "Ġadoption": 7415,
      "Ġstreet": 7416,
      "Un": 7417,
      "oo": 7418,
      "pace": 7419,
      "oral": 7420,
      "asive": 7421,
      "Ġwhis": 7422,
      "ĠArt": 7423,
      "pled": 7424,
      "ĠCr": 7425,
      "linear": 7426,
      "Ġimmigration": 7427,
      "Ġcourses": 7428,
      "Ġappreciated": 7429,
      "Ġencouraged": 7430,
      "Ġemergency": 7431,
      "ĠDeb": 7432,
      "Ġliterary": 7433,
      "Ġempowerment": 7434,
      "ubstit": 7435,
      "Ġcollected": 7436,
      "Ġreputable": 7437,
      "Ġiconic": 7438,
      "gue": 7439,
      "stone": 7440,
      "ĠBet": 7441,
      "endicular": 7442,
      "Ġunt": 7443,
      "Ġarises": 7444,
      "Ġremoving": 7445,
      "Ġcalm": 7446,
      "Ġplanned": 7447,
      "ĠAnother": 7448,
      "Ġstrike": 7449,
      "Ġinvolvement": 7450,
      "Ġfalls": 7451,
      "Ġhypothesis": 7452,
      "Ġintuitive": 7453,
      "Ġhousing": 7454,
      "Ġschemes": 7455,
      "negative": 7456,
      "?âĢĿ": 7457,
      "tan": 7458,
      "Ġpoverty": 7459,
      "Ġregression": 7460,
      "Ġriver": 7461,
      "rie": 7462,
      "ĠPersonal": 7463,
      "anship": 7464,
      "ibri": 7465,
      "Ġsmile": 7466,
      "ĠUnlike": 7467,
      "Ġenjoyed": 7468,
      "}^{\\": 7469,
      "Ġputting": 7470,
      "Ġconvenience": 7471,
      "Ġprospects": 7472,
      "Ġrecommended": 7473,
      "Remember": 7474,
      "Ġtherapeutic": 7475,
      ".*": 7476,
      "13": 7477,
      "ij": 7478,
      "esus": 7479,
      "arc": 7480,
      "isis": 7481,
      "Ġbad": 7482,
      "enth": 7483,
      "illy": 7484,
      "Ġdiff": 7485,
      "ician": 7486,
      "Ġpolar": 7487,
      "ĠAdv": 7488,
      "Ġconstants": 7489,
      "ointment": 7490,
      "Ġculinary": 7491,
      "Ġauthorities": 7492,
      "Ġschedul": 7493,
      "Dr": 7494,
      "SP": 7495,
      "vare": 7496,
      "Ġfirms": 7497,
      "anation": 7498,
      "rogen": 7499,
      "Ġlic": 7500,
      "ĠDeterm": 7501,
      "ffice": 7502,
      "uals": 7503,
      "Ġdecimal": 7504,
      "mathrm": 7505,
      "ĠAtt": 7506,
      "Ġangular": 7507,
      "Ġjobs": 7508,
      "ĠAccess": 7509,
      "Ġconcentr": 7510,
      "Beyond": 7511,
      "Mr": 7512,
      "uation": 7513,
      "year": 7514,
      "tiqu": 7515,
      "Ġca": 7516,
      "Ġpin": 7517,
      "Ġpond": 7518,
      "Ġfashion": 7519,
      "arking": 7520,
      "Ġdomes": 7521,
      "ecause": 7522,
      "Ġlighting": 7523,
      "Ġdish": 7524,
      "Ġadhering": 7525,
      "Ġ${\\": 7526,
      "ĠOther": 7527,
      "aceu": 7528,
      "ologists": 7529,
      "ĠJake": 7530,
      "Ġdeepen": 7531,
      "Ġachieved": 7532,
      "Ġfilms": 7533,
      "Ġgroundbreaking": 7534,
      "Ġflowers": 7535,
      "Ġtexture": 7536,
      "Ġcomputers": 7537,
      "Ġupdated": 7538,
      "Ġarranged": 7539,
      "Ġcelebrate": 7540,
      "Ġcoding": 7541,
      "Ġcarrying": 7542,
      "Ġmilest": 7543,
      "ĠInternational": 7544,
      "varepsilon": 7545,
      "Ġsigh": 7546,
      "Ġexcept": 7547,
      "ĠSqu": 7548,
      "Ġloop": 7549,
      "Ġadvancing": 7550,
      "Ġflavor": 7551,
      "Ġorigins": 7552,
      "Ġaligned": 7553,
      "Ġassessments": 7554,
      "Ġphotography": 7555,
      "Ġjoining": 7556,
      ")}{": 7557,
      "]$": 7558,
      "abil": 7559,
      "ept": 7560,
      "angular": 7561,
      "ĠNet": 7562,
      "ĠJesus": 7563,
      "Ġcrisis": 7564,
      "They": 7565,
      "Ġ197": 7566,
      "Ġbelief": 7567,
      "Ġnames": 7568,
      "Ġcolorful": 7569,
      "ĠStudents": 7570,
      "Ġrestrictions": 7571,
      "Ġphilosophy": 7572,
      "Ġacceptance": 7573,
      "Ġsweet": 7574,
      "Ġvocabulary": 7575,
      "RI": 7576,
      "Ġpure": 7577,
      "Ġdental": 7578,
      "Ġmas": 7579,
      "Ġdisorders": 7580,
      "Ġcontempl": 7581,
      "Ġunderm": 7582,
      "raft": 7583,
      "Ġrelate": 7584,
      "Ġinviting": 7585,
      "ĠJour": 7586,
      "Ġdiplom": 7587,
      "ĠKing": 7588,
      "Ġresearching": 7589,
      "^{\\": 7590,
      "Ġproperly": 7591,
      "ĠProcess": 7592,
      "Ġsuperior": 7593,
      "Ġadopt": 7594,
      "Ġtrigg": 7595,
      "Ġvulnerable": 7596,
      "ĠMathematically": 7597,
      "ĠLearning": 7598,
      "Ġfabric": 7599,
      "name": 7600,
      "Ġborrow": 7601,
      "Ġ((": 7602,
      "Ġ24": 7603,
      "Ġrelief": 7604,
      "Ġrecr": 7605,
      "Ġsimplicity": 7606,
      "Ġcriticism": 7607,
      "Ġeducators": 7608,
      "Ġtrusted": 7609,
      "Ġlogic": 7610,
      "Ġpreferred": 7611,
      "ĠSpanish": 7612,
      "Ġhousehold": 7613,
      "Ġcatering": 7614,
      "ĠJapanese": 7615,
      "Sh": 7616,
      "eal": 7617,
      "etic": 7618,
      "iverse": 7619,
      "Ġconj": 7620,
      "essor": 7621,
      "Ġstated": 7622,
      "Ġadherence": 7623,
      "Ġunion": 7624,
      "Ġ17": 7625,
      "Ġwash": 7626,
      "------------------------": 7627,
      "iously": 7628,
      "Ġlimiting": 7629,
      "Ġ60": 7630,
      "Ġaudio": 7631,
      "ycle": 7632,
      "Ġadvocate": 7633,
      "ĠPerform": 7634,
      "Ġguarantee": 7635,
      "Ġexplanations": 7636,
      "Case": 7637,
      "table": 7638,
      "Ġtherm": 7639,
      "emed": 7640,
      "Ġchamp": 7641,
      "ocol": 7642,
      "apters": 7643,
      "Ġjoint": 7644,
      "Ġ\\(\\": 7645,
      "Ġloans": 7646,
      "ancies": 7647,
      "Ġfloor": 7648,
      "ĠExcited": 7649,
      "Ġconverges": 7650,
      "Ġfacilitates": 7651,
      "Ġpursuit": 7652,
      "Ġstreets": 7653,
      "Ġcouple": 7654,
      "Ġdemocratic": 7655,
      "Ġoverlooked": 7656,
      "ĠHarmony": 7657,
      "can": 7658,
      "Ġfestiv": 7659,
      "Ġharsh": 7660,
      "rol": 7661,
      "ecutive": 7662,
      "ĠAP": 7663,
      "aby": 7664,
      "umph": 7665,
      "unctions": 7666,
      "Ġshel": 7667,
      "Ġhaz": 7668,
      "Ġdoor": 7669,
      "Ġdelving": 7670,
      "Ġhealthier": 7671,
      "ĠExam": 7672,
      "Ġtrading": 7673,
      "value": 7674,
      "Ġoptimizing": 7675,
      "brace": 7676,
      "Ġheightened": 7677,
      "Ġdiscipline": 7678,
      "Ġcandidate": 7679,
      "Ġhearts": 7680,
      "Ġaffordable": 7681,
      "Ġexplanation": 7682,
      "Ġathle": 7683,
      "Ġaspirations": 7684,
      "=(": 7685,
      "hib": 7686,
      "manship": 7687,
      "Ġsour": 7688,
      "Ġpitch": 7689,
      "Ġoral": 7690,
      "Ġunp": 7691,
      "Ġpra": 7692,
      "Ġparad": 7693,
      "Ġemissions": 7694,
      "Ġbranch": 7695,
      "Ġattor": 7696,
      "Ġverify": 7697,
      "Ġsubsets": 7698,
      "medi": 7699,
      "Ġresponding": 7700,
      "Ġmanipulate": 7701,
      "spired": 7702,
      "Ġofficials": 7703,
      "Ġselected": 7704,
      "Ġattributes": 7705,
      "ĠRegularly": 7706,
      "*,": 7707,
      "AM": 7708,
      "]{": 7709,
      "omic": 7710,
      "Ġreass": 7711,
      "Ġlinks": 7712,
      "ĠTra": 7713,
      "ĠMid": 7714,
      "ĠFocus": 7715,
      "Ġappar": 7716,
      "Ġunderp": 7717,
      "Ġconsisting": 7718,
      "overs": 7719,
      "Ġmystery": 7720,
      "Ġsubmit": 7721,
      "ĠKnow": 7722,
      "Ġorganic": 7723,
      "Ġattacks": 7724,
      "Ġhumor": 7725,
      "Ġmeters": 7726,
      "Ġdigits": 7727,
      "Ġ$$\\": 7728,
      "Ġchecks": 7729,
      "Ġconfigurations": 7730,
      "ĠPresident": 7731,
      "Ġacquisition": 7732,
      "AS": 7733,
      "night": 7734,
      "uating": 7735,
      "volution": 7736,
      "oub": 7737,
      "lets": 7738,
      "Ġlon": 7739,
      "Ġnorm": 7740,
      "Ġneat": 7741,
      "ĠPers": 7742,
      "Ġarm": 7743,
      "Ġtimely": 7744,
      "Ġsolace": 7745,
      "Ġcoaches": 7746,
      "Ġsystemic": 7747,
      "Ġworlds": 7748,
      "Ġpersonnel": 7749,
      "Ġcollaborations": 7750,
      "Ġauthors": 7751,
      "Ġcorrelation": 7752,
      "Ġaligns": 7753,
      "Ġmorph": 7754,
      "ĠAfrica": 7755,
      "Ġpersistent": 7756,
      "field": 7757,
      "ka": 7758,
      "Ġsenti": 7759,
      "Ġdate": 7760,
      "econd": 7761,
      "Ġguests": 7762,
      "urable": 7763,
      "Ġranges": 7764,
      "ĠAust": 7765,
      "ĠSuddenly": 7766,
      "ĠSuccess": 7767,
      "Ġchronic": 7768,
      "Ġcompound": 7769,
      "inded": 7770,
      "Ġclust": 7771,
      "Ġscope": 7772,
      "Ġdelved": 7773,
      "Ġpool": 7774,
      "Ġscenes": 7775,
      "Ġreplace": 7776,
      "Ġresponded": 7777,
      "ĠÏĢ": 7778,
      "Ġirr": 7779,
      "Ġtalented": 7780,
      "ĠOpen": 7781,
      "Ġperceptions": 7782,
      "ĠGreek": 7783,
      "She": 7784,
      "riad": 7785,
      "Ġitem": 7786,
      "ĠBel": 7787,
      "Ġheated": 7788,
      "Ġmood": 7789,
      "Ġmother": 7790,
      "Ġmoist": 7791,
      "Ġleader": 7792,
      "Ġdetection": 7793,
      "Ġbreaks": 7794,
      "Ġkeeps": 7795,
      "Ġorders": 7796,
      "Ġposts": 7797,
      "Ġnetworking": 7798,
      "Ġhardware": 7799,
      "Ġgraphs": 7800,
      "Ġmassive": 7801,
      "Ġcolonial": 7802,
      "vest": 7803,
      "Ġcauti": 7804,
      "Ġocean": 7805,
      "Ġintr": 7806,
      "Ġinterplay": 7807,
      "Ġends": 7808,
      "Ġaware": 7809,
      "Ġpressures": 7810,
      "Ġindependently": 7811,
      "ĠPoli": 7812,
      "ĠCalcul": 7813,
      "ĠEducation": 7814,
      "Ġvoltage": 7815,
      "fying": 7816,
      "ta": 7817,
      "uary": 7818,
      "wood": 7819,
      "Ġsectors": 7820,
      "Ġoxy": 7821,
      "Ġmac": 7822,
      "Ġtrail": 7823,
      "Ġmyriad": 7824,
      "Ġconcise": 7825,
      "Ġdeter": 7826,
      "Ġ$\\{": 7827,
      "Ġcombines": 7828,
      "Ġoperate": 7829,
      "Ġtriumph": 7830,
      "Ġrestaur": 7831,
      "--------------------------------------------": 7832,
      "Ġcardi": 7833,
      "Ġcompromise": 7834,
      "Ġstereotypes": 7835,
      "ibrium": 7836,
      "words": 7837,
      "Ġrewr": 7838,
      "ette": 7839,
      "igure": 7840,
      "ady": 7841,
      "alleng": 7842,
      "Ġimaging": 7843,
      "oper": 7844,
      "ĠGre": 7845,
      "Ġgenres": 7846,
      "Ġmeditation": 7847,
      "Ġcritics": 7848,
      "ĠImpact": 7849,
      "Ġinfluenced": 7850,
      "Ġcorrup": 7851,
      "Ġspeakers": 7852,
      "Ġpriorities": 7853,
      "Ġsilence": 7854,
      "Ġblockchain": 7855,
      "Ġscales": 7856,
      "Ġcopy": 7857,
      "Ġperception": 7858,
      "Ġmovie": 7859,
      "Ġfluctuations": 7860,
      "Ġcaution": 7861,
      "!)": 7862,
      "PS": 7863,
      "bed": 7864,
      "function": 7865,
      "ufficient": 7866,
      "tible": 7867,
      "Ġdy": 7868,
      "Ġreb": 7869,
      "idating": 7870,
      "ĠAD": 7871,
      "Ġcontained": 7872,
      "ĠDiv": 7873,
      "Ġsugar": 7874,
      "ĠRather": 7875,
      "âĪ«": 7876,
      "ĠShare": 7877,
      "Ġvalued": 7878,
      "Ġempowers": 7879,
      "Ġmindfulness": 7880,
      "Ġtargets": 7881,
      "Ġseparately": 7882,
      "Ġautomatically": 7883,
      "Ġinterpretations": 7884,
      "ĠâīĪ": 7885,
      "Ġrecipe": 7886,
      "Ġschedule": 7887,
      "================": 7888,
      "No": 7889,
      "\\}$": 7890,
      "Ġtight": 7891,
      "Ġtables": 7892,
      "ama": 7893,
      "Ġanc": 7894,
      "umps": 7895,
      "Ġunless": 7896,
      "arious": 7897,
      "overn": 7898,
      "Ġvariance": 7899,
      "Ġeverywhere": 7900,
      "ĠComb": 7901,
      "Ġbiology": 7902,
      "ammar": 7903,
      "Ġquestioning": 7904,
      "Ġversions": 7905,
      "Ġreminding": 7906,
      "Ġcodes": 7907,
      "Ġsuggestions": 7908,
      "Alex": 7909,
      "Wor": 7910,
      "cil": 7911,
      "coin": 7912,
      "wl": 7913,
      "Ġwire": 7914,
      "Ġwants": 7915,
      "acting": 7916,
      "Ġrever": 7917,
      "ĠBit": 7918,
      "Ġtheme": 7919,
      "ĠState": 7920,
      "Ġestate": 7921,
      "ashing": 7922,
      "Ġenjoyable": 7923,
      "Ġconverting": 7924,
      "resh": 7925,
      "Ġinterpersonal": 7926,
      "Ġspeeds": 7927,
      "Ġwarmth": 7928,
      "Ġautomated": 7929,
      "Ġmastery": 7930,
      "Ġperpendicular": 7931,
      "Ġclothing": 7932,
      "Am": 7933,
      "df": 7934,
      "ius": 7935,
      "rangle": 7936,
      "ictions": 7937,
      "igital": 7938,
      "Ġven": 7939,
      "tica": 7940,
      "Ġresili": 7941,
      "ĠBi": 7942,
      "Ġdele": 7943,
      "ĠFe": 7944,
      "ĠFace": 7945,
      "Ġproven": 7946,
      "undred": 7947,
      "anguage": 7948,
      "Ġyounger": 7949,
      "Ġadmit": 7950,
      "Ġdimin": 7951,
      "Ġwatched": 7952,
      "Ġdocumentation": 7953,
      "Ġpredictions": 7954,
      "Ġdurability": 7955,
      "Ġgirl": 7956,
      "Ġpublished": 7957,
      "Ġrendering": 7958,
      ".)": 7959,
      "Ġtens": 7960,
      "Ġavenues": 7961,
      "Ġcast": 7962,
      "Ġforest": 7963,
      "umental": 7964,
      "Ġadvertising": 7965,
      "ĠEffective": 7966,
      "inding": 7967,
      "Ġclick": 7968,
      "Ġroof": 7969,
      "Ġopt": 7970,
      "Ġpromo": 7971,
      "Ġmethodologies": 7972,
      "Ġstriving": 7973,
      "Ġmessaging": 7974,
      "Ġtraveling": 7975,
      "Ġshowcases": 7976,
      "ĠNotice": 7977,
      "Ġincredibly": 7978,
      "Ġtirelessly": 7979,
      "BT": 7980,
      "uis": 7981,
      "esian": 7982,
      "Ġcash": 7983,
      "Ġfederal": 7984,
      "anches": 7985,
      "iders": 7986,
      "imming": 7987,
      "uris": 7988,
      "thes": 7989,
      "elly": 7990,
      "ulum": 7991,
      "Ġrab": 7992,
      "estled": 7993,
      "Ġsport": 7994,
      "Ġconscious": 7995,
      "aved": 7996,
      "Ġrecover": 7997,
      "Ġregulation": 7998,
      "Ġdistress": 7999,
      "Ġsurg": 8000,
      "Ġremainder": 8001,
      "Ġprofiles": 8002,
      "Ġtypical": 8003,
      "âĪĤ": 8004,
      "Ġcontinuing": 8005,
      "Ġcontroll": 8006,
      "Ġlogical": 8007,
      "Ġpaying": 8008,
      "Ġwriters": 8009,
      "Ġinstallation": 8010,
      "Ġtaxes": 8011,
      "Col": 8012,
      "erve": 8013,
      "Ġbuck": 8014,
      "Ġreti": 8015,
      "Ġgem": 8016,
      "Ġstack": 8017,
      "Ġwhatever": 8018,
      "ĠSun": 8019,
      "riven": 8020,
      "Ġbear": 8021,
      "eseen": 8022,
      "ĠLo": 8023,
      "Ġju": 8024,
      "Ġdiscom": 8025,
      "Ġscaling": 8026,
      "Ġoblig": 8027,
      "Ġfinish": 8028,
      "Ġclever": 8029,
      "Ġclassroom": 8030,
      "ĠAlso": 8031,
      "Ġmarks": 8032,
      "Ġstepping": 8033,
      "Ġpurchase": 8034,
      "22": 8035,
      "Sc": 8036,
      "falls": 8037,
      "pto": 8038,
      "yd": 8039,
      "zon": 8040,
      "Î»": 8041,
      "ani": 8042,
      "Ġbases": 8043,
      "Ġliquid": 8044,
      "unt": 8045,
      "ĠBack": 8046,
      "ĠMag": 8047,
      "Ġuniverse": 8048,
      "Ġgradi": 8049,
      "ube": 8050,
      "Ġowner": 8051,
      "Ġremembered": 8052,
      "Ġbegins": 8053,
      "Ġemphasized": 8054,
      "Ġtestament": 8055,
      "ĠModern": 8056,
      "Ġdemocracy": 8057,
      "Ġjudgment": 8058,
      "Ġdiscomfort": 8059,
      "](": 8060,
      "tild": 8061,
      "Ġdanger": 8062,
      "ĠCustom": 8063,
      "ĠBusiness": 8064,
      "ape": 8065,
      "Ġapps": 8066,
      "Ġevolve": 8067,
      "Ġinterface": 8068,
      "Ġinvent": 8069,
      "Ġrecre": 8070,
      "Ġdots": 8071,
      "Inter": 8072,
      "lick": 8073,
      "Ġtele": 8074,
      "Ġorganize": 8075,
      "Ġdepos": 8076,
      "Ġlegitim": 8077,
      "ĠEmb": 8078,
      "Ġcharacteristic": 8079,
      "ĠIndian": 8080,
      "Ġutility": 8081,
      "Ġprosper": 8082,
      "Ġhonest": 8083,
      "Ġmeticulous": 8084,
      "Ġcharges": 8085,
      "Ġlabeled": 8086,
      "ispens": 8087,
      "Ġharnessing": 8088,
      "Ġbattery": 8089,
      "Ġinterpreting": 8090,
      "tilde": 8091,
      "Sub": 8092,
      "lin": 8093,
      "ture": 8094,
      "Ġmand": 8095,
      "Ġeating": 8096,
      "Ġyog": 8097,
      "iforn": 8098,
      "Ġdismiss": 8099,
      "eps": 8100,
      "Ġplus": 8101,
      "plex": 8102,
      "Ġsettle": 8103,
      "Ġrealistic": 8104,
      "Ġcoast": 8105,
      "Ġbuying": 8106,
      "Ġcorners": 8107,
      "Ġbuildings": 8108,
      "Ġfriendships": 8109,
      "Ġmeasured": 8110,
      "Ġescal": 8111,
      "Ġderive": 8112,
      "Ġadjacent": 8113,
      "Ġopponents": 8114,
      "Ġfitness": 8115,
      "ĠParticip": 8116,
      "ĠÏĥ": 8117,
      "Ġempowering": 8118,
      "Ġinfinitely": 8119,
      "Ġfulfilling": 8120,
      "Ġdiscrep": 8121,
      "Reflecting": 8122,
      "Ġdisagre": 8123,
      "Ġoxygen": 8124,
      "IN": 8125,
      "ML": 8126,
      "azz": 8127,
      "vy": 8128,
      "}(\\": 8129,
      "Ġbow": 8130,
      "irable": 8131,
      "agram": 8132,
      "Ġlemon": 8133,
      "ocument": 8134,
      "Ġshor": 8135,
      "odes": 8136,
      "ĠMc": 8137,
      "Ġusual": 8138,
      "Ġneut": 8139,
      "Ġindispens": 8140,
      "Ġpreced": 8141,
      "Ġgenre": 8142,
      "Ġbranches": 8143,
      "Ġinflamm": 8144,
      "Ġdefensive": 8145,
      "Ġprofile": 8146,
      "Ġapproaching": 8147,
      "ĠWithin": 8148,
      "Ġphysically": 8149,
      "Ġdriven": 8150,
      "Ġfoods": 8151,
      "ĠStudies": 8152,
      "Ġcapturing": 8153,
      "Ġsafely": 8154,
      "Ġimagery": 8155,
      "Ġscalar": 8156,
      "Ġconfront": 8157,
      "ĠSeeing": 8158,
      "school": 8159,
      "ĠMicrosoft": 8160,
      "Ġpandemic": 8161,
      "Furthermore": 8162,
      "\\,": 8163,
      "dles": 8164,
      "vari": 8165,
      "Ġcounts": 8166,
      "Ġmotor": 8167,
      "icy": 8168,
      "storm": 8169,
      "iff": 8170,
      "Ġresolve": 8171,
      "ĠWelcome": 8172,
      "Ġspr": 8173,
      "print": 8174,
      "Ġmodul": 8175,
      "Ġexpensive": 8176,
      "Ġprogression": 8177,
      "Ġrepeti": 8178,
      "Ġreaches": 8179,
      "ĠTrad": 8180,
      "Ġdistinctive": 8181,
      "Ġdescribing": 8182,
      "Ġadjusting": 8183,
      "Ġfalling": 8184,
      "Ġdestination": 8185,
      "ĠAssoci": 8186,
      "Ġexcellence": 8187,
      "Ġallocation": 8188,
      "Ġuniversal": 8189,
      "Ġgrappling": 8190,
      "Ġsongs": 8191,
      "Ġindispensable": 8192,
      "'m": 8193,
      "ED": 8194,
      "uent": 8195,
      "antit": 8196,
      "Ġcomment": 8197,
      "ayer": 8198,
      "Ġresemb": 8199,
      "uded": 8200,
      "raf": 8201,
      "ĠGame": 8202,
      "Ġrolling": 8203,
      "Ġloan": 8204,
      "Ġwherein": 8205,
      "auss": 8206,
      "ulties": 8207,
      "Ġcareers": 8208,
      "Ġintegrate": 8209,
      "Ġpreval": 8210,
      "Ġappreciating": 8211,
      "Ġoccurred": 8212,
      "Ġpayment": 8213,
      "Ġchannel": 8214,
      "Ġcrime": 8215,
      "Ġvulnerability": 8216,
      "Ġcoins": 8217,
      "45": 8218,
      "^(-": 8219,
      "jud": 8220,
      "Ġsam": 8221,
      "Ġwider": 8222,
      "atural": 8223,
      "Ġdot": 8224,
      "Ġdoll": 8225,
      "urious": 8226,
      "ths": 8227,
      "Ġstays": 8228,
      "Ġstored": 8229,
      "Ġstems": 8230,
      "Ġstores": 8231,
      "Ġseeds": 8232,
      "thern": 8233,
      "Ġhearing": 8234,
      "Ġincenti": 8235,
      "Ġmanagers": 8236,
      "umbers": 8237,
      "Ġdecor": 8238,
      "Ġtransmission": 8239,
      "Ġanalog": 8240,
      "Ġvisited": 8241,
      "Ġoperator": 8242,
      "Ġaddressed": 8243,
      "Ġcertainly": 8244,
      "Ġretail": 8245,
      "âĤĢ": 8246,
      "Ġsatisfied": 8247,
      "Ġadapting": 8248,
      "Ġvolumes": 8249,
      "Ġdominant": 8250,
      "ĠÎ»": 8251,
      "Ġcandy": 8252,
      "Ġprocedure": 8253,
      "Ġsymmetric": 8254,
      "Ġunforeseen": 8255,
      "Ġvillage": 8256,
      "Ġorientation": 8257,
      "des": 8258,
      "delta": 8259,
      "}.$$": 8260,
      "tious": 8261,
      "Ġborders": 8262,
      "Ġprow": 8263,
      "ĠBox": 8264,
      "ĠMal": 8265,
      "opes": 8266,
      "ĠFuture": 8267,
      "Ġheights": 8268,
      "ĠRead": 8269,
      "Ġarising": 8270,
      "Ġinduc": 8271,
      "umble": 8272,
      "Ġattempt": 8273,
      "Ġimmigr": 8274,
      "Ġbasics": 8275,
      "Ġgeographical": 8276,
      "ĠÎ¸": 8277,
      "Ġlaid": 8278,
      "Ġnegotiations": 8279,
      "Ġrenewable": 8280,
      "ĠTechniques": 8281,
      "ĠGerman": 8282,
      "ĠInstit": 8283,
      "Ġecological": 8284,
      "Ġrewarding": 8285,
      "Ġdomestic": 8286,
      "aceutical": 8287,
      "big": 8288,
      "âī": 8289,
      "inema": 8290,
      "Ġtick": 8291,
      "Ġweren": 8292,
      "Ġgains": 8293,
      "amin": 8294,
      "opy": 8295,
      "Ġuncom": 8296,
      "ĠRoman": 8297,
      "Ġincorrect": 8298,
      "ractive": 8299,
      "Ġposes": 8300,
      "Then": 8301,
      "Ġsetbacks": 8302,
      "ĠAsian": 8303,
      "Ġended": 8304,
      "Ġbiological": 8305,
      "ascular": 8306,
      "ĠEnter": 8307,
      "Ġstrengthening": 8308,
      "Ġsurroundings": 8309,
      "Ġheads": 8310,
      "tification": 8311,
      "Ġrelaxation": 8312,
      "Ġpretty": 8313,
      "Ġcompensation": 8314,
      "Ġelder": 8315,
      "OT": 8316,
      "[\\": 8317,
      "\\]": 8318,
      "cons": 8319,
      "krain": 8320,
      "Ġtends": 8321,
      "Ġtemporary": 8322,
      "eding": 8323,
      "Ġmigration": 8324,
      "Ġegg": 8325,
      "ĠCB": 8326,
      "Ġshed": 8327,
      "ĠMove": 8328,
      "ardless": 8329,
      "Ġ$-": 8330,
      "Ġincidents": 8331,
      "Ġque": 8332,
      "rown": 8333,
      "Ġlocals": 8334,
      "Ġintegrals": 8335,
      "Ġsimilarly": 8336,
      "Ġcontrolling": 8337,
      "Ġpersonalized": 8338,
      "Ġautonomy": 8339,
      "ĠOverview": 8340,
      "Ġpsychology": 8341,
      "Ġcelebrating": 8342,
      "Ġunfamiliar": 8343,
      "Ġepis": 8344,
      "Ġsurvival": 8345,
      "Ġnuclear": 8346,
      "ĠEnsure": 8347,
      "Ġethnic": 8348,
      "antitative": 8349,
      "Ġprowess": 8350,
      "Feeling": 8351,
      "cast": 8352,
      "oil": 8353,
      "itarian": 8354,
      "Ġdust": 8355,
      "Ġdie": 8356,
      "Ġbold": 8357,
      "Ġhole": 8358,
      "olf": 8359,
      "Ġgems": 8360,
      "ulting": 8361,
      "Ġalb": 8362,
      "umin": 8363,
      "ĠFil": 8364,
      "Ġplastic": 8365,
      "grad": 8366,
      "------------------": 8367,
      "Ġlocally": 8368,
      "Ġfrustration": 8369,
      "Ġsimilarities": 8370,
      "Ġcustoms": 8371,
      "Ġbiom": 8372,
      "Ġassessing": 8373,
      "Ġadvocacy": 8374,
      "Ġcamera": 8375,
      "Ġstreamline": 8376,
      "Ġbrowsing": 8377,
      "Ġassuming": 8378,
      "Ġtissue": 8379,
      "Ġfantastic": 8380,
      "ifornia": 8381,
      "disc": 8382,
      "Ġsort": 8383,
      "olves": 8384,
      "Ġasks": 8385,
      "ĠEval": 8386,
      "ĠEconom": 8387,
      "Ġimpul": 8388,
      "Ġrecurs": 8389,
      "Ġloops": 8390,
      "Ġasser": 8391,
      "Ġcoaching": 8392,
      "ĠYes": 8393,
      "paralle": 8394,
      "Ġentered": 8395,
      "Ġidentification": 8396,
      "Ġ90": 8397,
      "Ġcrafted": 8398,
      "Ġtackling": 8399,
      "Ġsentence": 8400,
      "cases": 8401,
      "attle": 8402,
      "Ġfather": 8403,
      "Ġdict": 8404,
      "Ġbot": 8405,
      "Ġborn": 8406,
      "ste": 8407,
      "ĠFunction": 8408,
      "omega": 8409,
      "Ġsphere": 8410,
      "Ġscript": 8411,
      "Ġtherefore": 8412,
      "ĠUkrain": 8413,
      "Ġpeak": 8414,
      "Ġ2020": 8415,
      "Ġfilters": 8416,
      "Ġfilling": 8417,
      "Ġtextbook": 8418,
      "Ġestimates": 8419,
      "Ġreflected": 8420,
      "Ġacquired": 8421,
      "aligned": 8422,
      "Ġportfol": 8423,
      "Ġwildlife": 8424,
      "Ġoverwhelmed": 8425,
      "Ġversatility": 8426,
      "Ġmolecular": 8427,
      "Ġannounced": 8428,
      "Ġrevelation": 8429,
      "Pl": 8430,
      "minded": 8431,
      "ÃŃ": 8432,
      "tific": 8433,
      "eday": 8434,
      "Ġdrop": 8435,
      "Ġmort": 8436,
      "Ġhinder": 8437,
      "Ġlush": 8438,
      "Ġgear": 8439,
      "ĠAB": 8440,
      "Ġdisput": 8441,
      "ĠPo": 8442,
      "ĠEvent": 8443,
      "Ġkid": 8444,
      "Ġkitch": 8445,
      "Ġclubs": 8446,
      "Ġinsufficient": 8447,
      "Ġagree": 8448,
      "ĠItal": 8449,
      "Ġbug": 8450,
      "Ġdefense": 8451,
      "Ġ2021": 8452,
      "Ġswift": 8453,
      "Ġappropriately": 8454,
      "Ġmaximizing": 8455,
      "Ġroutines": 8456,
      "Ġsuscep": 8457,
      "Ġpicked": 8458,
      "represent": 8459,
      "Ġsentences": 8460,
      "Ġscrut": 8461,
      "Ġintuition": 8462,
      "omorphism": 8463,
      "Ġprotein": 8464,
      "Ġproteins": 8465,
      "Ġsteady": 8466,
      "Ġpercentage": 8467,
      "Ġsighed": 8468,
      "allenges": 8469,
      "33": 8470,
      "Ad": 8471,
      "Hey": 8472,
      "Ind": 8473,
      "Ps": 8474,
      "Section": 8475,
      "vit": 8476,
      "}+\\": 8477,
      "Ġtum": 8478,
      "eros": 8479,
      "arn": 8480,
      "Ġhundred": 8481,
      "Ġcongr": 8482,
      "Ġstorm": 8483,
      "utter": 8484,
      "Ġjuris": 8485,
      "Ġarc": 8486,
      "Ġuphold": 8487,
      "ĠJames": 8488,
      "Ġguided": 8489,
      "Ġfacets": 8490,
      "Ġmuse": 8491,
      "Ġtopological": 8492,
      "Ġseconds": 8493,
      "Ġexperiments": 8494,
      "Ġlifel": 8495,
      "Ġfailures": 8496,
      "ĠCenter": 8497,
      "Ġthrilling": 8498,
      "Ġaccommodate": 8499,
      "Ġmuscle": 8500,
      "Ġdiameter": 8501,
      "Ġwhisper": 8502,
      "=-": 8503,
      "Ġtough": 8504,
      "Ġell": 8505,
      "Ġgif": 8506,
      "ĠSym": 8507,
      "ĠPay": 8508,
      "ogene": 8509,
      "Ġconsecutive": 8510,
      "Ġopens": 8511,
      "Ġsubg": 8512,
      "Ġhadn": 8513,
      "Ġmathematically": 8514,
      "Ġtopology": 8515,
      "ographics": 8516,
      "Ġdistributed": 8517,
      "Ġtailor": 8518,
      "Ġfavorable": 8519,
      "ĠRecall": 8520,
      "Ġradio": 8521,
      "Ġexperimental": 8522,
      "Ġpackages": 8523,
      "Ġreported": 8524,
      "Ġrectangle": 8525,
      "ĠUtilize": 8526,
      "Ġreinforcing": 8527,
      "Ġlibrary": 8528,
      "Ġequilibrium": 8529,
      "VID": 8530,
      "Yes": 8531,
      "how": 8532,
      "sigma": 8533,
      "word": 8534,
      "}|": 8535,
      "Ġthin": 8536,
      "ena": 8537,
      "Ġcues": 8538,
      "Ġdile": 8539,
      "Ġlights": 8540,
      "Ġvan": 8541,
      "Ġaloud": 8542,
      "ĠIT": 8543,
      "unk": 8544,
      "ĠWest": 8545,
      "gevity": 8546,
      "ĠDay": 8547,
      "Ġmanager": 8548,
      "Ġscrolling": 8549,
      "Ġdecom": 8550,
      "Ġanymore": 8551,
      "Ġsomeday": 8552,
      "Ġexcer": 8553,
      "max": 8554,
      "matic": 8555,
      "Ġsupported": 8556,
      "Ġreleased": 8557,
      "reshold": 8558,
      "ĠClass": 8559,
      "Ġexpanded": 8560,
      "otient": 8561,
      "Ġbreathtaking": 8562,
      "Ġassumption": 8563,
      "Ġsubstitute": 8564,
      "Additionally": 8565,
      "Ġobscure": 8566,
      "aze": 8567,
      "body": 8568,
      "yle": 8569,
      "onym": 8570,
      "tique": 8571,
      "Ġsight": 8572,
      "Ġcm": 8573,
      "itative": 8574,
      "Ġod": 8575,
      "Ġmigr": 8576,
      "Ġelusive": 8577,
      "Ġlot": 8578,
      "Ġlib": 8579,
      "Ġluck": 8580,
      "ira": 8581,
      "Ġchapters": 8582,
      "Ġweights": 8583,
      "ocked": 8584,
      "ĠPos": 8585,
      "ĠPublic": 8586,
      "Ġ$[": 8587,
      "Ġatoms": 8588,
      "ĠList": 8589,
      "Ġevolved": 8590,
      "Ġindigenous": 8591,
      "Ġgrass": 8592,
      "Ġconsiderable": 8593,
      "Ġrequest": 8594,
      "ĠStand": 8595,
      "Ġpointing": 8596,
      "Ġseeks": 8597,
      "Ġentr": 8598,
      "Ġhumility": 8599,
      "Ġopenly": 8600,
      "ĠAltern": 8601,
      "Ġreturning": 8602,
      "ĠArmed": 8603,
      "Ġvisualize": 8604,
      "gettable": 8605,
      "Ġagreements": 8606,
      "Ġirre": 8607,
      "Ġmolecules": 8608,
      "Ġmanifest": 8609,
      "ĠFollowing": 8610,
      "Ġfeasible": 8611,
      "AA": 8612,
      "CE": 8613,
      "Ġfly": 8614,
      "elp": 8615,
      "Ġstation": 8616,
      "ĠAuth": 8617,
      "osis": 8618,
      "ĠWater": 8619,
      "Ġseven": 8620,
      "ĠPost": 8621,
      "blem": 8622,
      "Ġgrows": 8623,
      "ĠVer": 8624,
      "Ġ40": 8625,
      "Ġhistories": 8626,
      "Ġavid": 8627,
      "Ġembedd": 8628,
      "ĠAnna": 8629,
      "Ġ2014": 8630,
      "Ġeconomics": 8631,
      "Ġinstrument": 8632,
      "Ġkinds": 8633,
      "incip": 8634,
      "Ġcube": 8635,
      "Ġdelightful": 8636,
      "Ġinstitutional": 8637,
      "Ġapparent": 8638,
      "Ġlongevity": 8639,
      "</": 8640,
      "ki": 8641,
      "ini": 8642,
      "Ġastr": 8643,
      "olly": 8644,
      "Ġride": 8645,
      "Ġveter": 8646,
      "abel": 8647,
      "Ġabund": 8648,
      "Ġsetup": 8649,
      "Ġcozy": 8650,
      "Ġindividually": 8651,
      "Ġediting": 8652,
      "Ġinitiative": 8653,
      "Ġcarries": 8654,
      "Ġembod": 8655,
      "appro": 8656,
      "aneous": 8657,
      "Ġmindful": 8658,
      "Ġtreasure": 8659,
      "Ġwinning": 8660,
      "ĠCalifornia": 8661,
      "Ġcompromising": 8662,
      "ĠGermany": 8663,
      "ĠStrategies": 8664,
      "Ġfraud": 8665,
      "Ġsocioeconomic": 8666,
      "Mon": 8667,
      "fl": 8668,
      "greg": 8669,
      "Ġwra": 8670,
      "isons": 8671,
      "Ġrub": 8672,
      "Ġrural": 8673,
      "Ġyellow": 8674,
      "ĠAN": 8675,
      "Ġvit": 8676,
      "rier": 8677,
      "Ġshot": 8678,
      "Ġacid": 8679,
      "ĠMa": 8680,
      "itious": 8681,
      "ĠEss": 8682,
      "Ġprevention": 8683,
      "Ġtimeless": 8684,
      "Ġrelies": 8685,
      "obal": 8686,
      "Ġessentially": 8687,
      "Ġentering": 8688,
      "Ġjourneys": 8689,
      "ĠEnviron": 8690,
      "ĠColle": 8691,
      "Ġillustrating": 8692,
      "Ġcomputation": 8693,
      "Ġintrigued": 8694,
      "Ġambig": 8695,
      "Ġencompassing": 8696,
      "ĠSmith": 8697,
      "Ġpenal": 8698,
      "Ġcrowd": 8699,
      "ĠMaintain": 8700,
      "Ġmanufacturers": 8701,
      "Ġluxury": 8702,
      "Ġalleviate": 8703,
      "bor": 8704,
      "lam": 8705,
      "langle": 8706,
      "Ġpiqu": 8707,
      "ĠHIV": 8708,
      "Ġunlock": 8709,
      "Ġatten": 8710,
      "exic": 8711,
      "ishment": 8712,
      "Ġrecyc": 8713,
      "Ġdivers": 8714,
      "Ġfoundations": 8715,
      "Ġglim": 8716,
      "serve": 8717,
      "Ġphysi": 8718,
      "Ġsingular": 8719,
      "Ġ2015": 8720,
      "Ġargued": 8721,
      "ometry": 8722,
      "Ġspeak": 8723,
      "Ġpositioning": 8724,
      "Ġeigenv": 8725,
      "Ġmysteries": 8726,
      "Ġgirls": 8727,
      "Ġproportion": 8728,
      "Ġenterpr": 8729,
      "Ġdistinguish": 8730,
      "nov": 8731,
      "Ġ,": 8732,
      "Ġpizz": 8733,
      "Ġdating": 8734,
      "entral": 8735,
      "Ġul": 8736,
      "Ġgau": 8737,
      "ĠSan": 8738,
      "Ġweap": 8739,
      "ĠFort": 8740,
      "Ġregim": 8741,
      "Ġpointed": 8742,
      "Ġinnoc": 8743,
      "Ġsupplies": 8744,
      "Ġelig": 8745,
      "Ġyielding": 8746,
      "Ġintroduction": 8747,
      "Ġexcel": 8748,
      "Ġneighboring": 8749,
      "ĠMedia": 8750,
      "Ġnecessitating": 8751,
      "Ġeliminate": 8752,
      "Ġconfiguration": 8753,
      "Ġsuffering": 8754,
      "Ġvictory": 8755,
      "Ġprompting": 8756,
      "Ġrhythm": 8757,
      "ĠGeorge": 8758,
      "base": 8759,
      "},\\": 8760,
      "Ġcance": 8761,
      "real": 8762,
      "Ġfur": 8763,
      "Ġmiles": 8764,
      "rooms": 8765,
      "Ġreaction": 8766,
      "Ġlose": 8767,
      "Ġalt": 8768,
      "ĠBay": 8769,
      "Ġconsent": 8770,
      "Ġsafer": 8771,
      "Ġmeaningfully": 8772,
      "Ġbroken": 8773,
      "Ġmarble": 8774,
      "Ġlabels": 8775,
      "Ġacquiring": 8776,
      "Ġmotivations": 8777,
      "Ġbreathing": 8778,
      "Ġbuyers": 8779,
      "$-": 8780,
      "ora": 8781,
      "Ġfishing": 8782,
      "Ġho": 8783,
      "Ġforums": 8784,
      "ĠSal": 8785,
      "Ġintently": 8786,
      "ĠFound": 8787,
      "ĠOffer": 8788,
      "Ġoutline": 8789,
      "ĠInf": 8790,
      "Ġremov": 8791,
      "ĠUnderstand": 8792,
      "Ġgrammar": 8793,
[...]
